#version: 0.2 - Trained by `huggingface/tokenizers`
a n
i n
e r
e s
an d
Ġ and
e n
o n
h e
Ġ s
Ġ t
a t
Ġ in
a l
Ġ c
en t
r o
i c
o r
e d
a r
Ġ p
Ġ o
in g
i on
m ent
Ġ f
i s
Ġ T
a s
o m
c t
i t
ĠT he
Ġt he
o l
Ġ m
Ġ I
Ġs e
Ġp ro
Ġo f
r e
Ġ w
Ġ b
a g
Ġc om
g ment
Ġ d
Ġse gment
Ġ a
Ġ C
u s
e l
u n
at ion
u t
Ġcom p
Ġ S
i l
t er
e t
p er
a d
u r
q u
er s
u ct
er v
Ġ is
Ġcomp an
Ġcompan y
erv ic
i d
l o
Ġ he
Ġf o
Ġ M
un d
Ġ A
i al
ĠI n
d uct
Ġt h
Ġ en
t r
ervic es
l e
t h
Ġo per
es s
i es
ĠI t
c h
c e
Ġ re
Ġ P
g h
Ġpro duct
ar ter
Ġw as
č Ċ
Ġhe ad
qu arter
Ġhead quarter
Ġheadquarter ed
Ġfo und
Ġfound ed
at es
Ġs ervices
u d
ro u
i v
g ag
Ġc on
Ġt o
Ġ g
es t
ut ion
Ġ B
Ġ 1
m er
Ġen gag
Ġproduct s
c l
Ġpro v
s t
Ġm an
rou gh
Ġth rough
i r
Ġoper ates
Ġengag es
c ial
cl ud
Ġin clud
ag e
Ġ R
Ġ E
Ġ as
Ġ N
at e
Ġd e
Ġ h
ĠIn c
Ġf or
or t
ar e
Ġ n
Ġ F
Ġb y
Ġ e
Ġ on
Ġ D
Ġ H
Ġ r
Ġ l
Ġ1 9
Ġ O
ic al
u l
Ġsegment s
Ġ G
ution s
ation s
a m
ar k
Ġcon s
t s
a c
e m
ol utions
p p
h ic
a ct
lo w
o p
Ġ W
o g
i g
Ġ L
it y
Ġt r
an ce
in ess
us iness
an s
th er
a b
ark et
Ġof f
i p
i m
us t
e ct
low ing
Ġf ol
Ġprov id
Ġs u
Ġfol lowing
v el
or p
Ġ v
at ed
age ment
o s
Ġb usiness
is ion
o d
Ġ J
Ġd is
i f
d ing
Ġ 2
in e
u re
e ch
an k
o t
Ġs olutions
Ġm arket
ol og
i b
a p
v er
Ġin v
t a
hic h
u m
Ġw hich
vel op
u f
f or
Ġoff ers
it ies
Ġa c
Ġman agement
uf act
Ġin d
Ġ U
Ġprovid es
ech n
Ġde velop
ĠC orp
el l
mer cial
y st
Ġman ufact
us tr
al th
Ġprov ision
a y
p e
Ġinclud es
iv e
echn olog
Ġs t
yst em
or k
t y
Ġ2 0
for m
i z
c ess
est ment
o w
al l
al s
Ġo ther
Ġ an
in an
i a
it s
pp l
r ic
Ġ lo
ic s
Ġcons is
e w
Ġcom mercial
Ġp l
ter n
Ġf ir
a ce
tr ib
ar d
tr uct
en s
ystem s
b er
s ur
Ġp r
Ġfir m
it h
Ġconsis ts
ol ding
t e
ĠP ro
Ġtr ans
ent s
ank ing
Ġinv estment
Ġr es
ar y
Ġind ustr
sur ance
p ort
u c
Ġth at
Ġdevelop ment
ust om
l l
il l
Ġinclud ing
Ġe x
or s
at er
ation al
c o
Ġc ustom
ig n
o f
Ġ &
Ġa d
Ġdis trib
ĠIt s
Ġw ith
al e
inan cial
a in
Ġt echnolog
Ġe qu
er g
Ġ or
ĠC om
i o
g r
ĠS ervices
Ġmanufact ur
i re
Ġ el
h ar
Ġ (
ur al
i gh
or ate
ĠS t
Ġg as
mer ic
m un
it al
ac k
Ġ K
w are
ar t
om e
p r
Ġinclud e
Ġs ystems
Ġ its
pe cial
ĠA meric
Ġel ect
r and
ĠO ther
Ġc o
Ġhe alth
erg y
Ġ V
g e
ic ations
Ġd es
ĠC A
u mer
Ġoper ations
ab le
ip ment
an c
on s
it ion
p l
Ġdes ign
ĠR e
Ġas s
ul t
Ġmarket s
of t
l es
' s
l ated
Ġc r
Ġ us
c us
Ġre al
u b
in es
a v
il y
at ing
ta il
as t
Ġcustom ers
Ġre tail
w n
ĠS olutions
at ural
Ġc l
Ġm ed
Ġw ell
rou p
Ġst or
Ġequ ipment
oft ware
Ġ est
Ġin surance
Ġpro cess
e ar
ow er
Ġf inancial
ĠE n
n it
Ġfo cus
Ġ19 9
Ġh olding
Ġ20 0
Ġb anking
l y
Ġa ut
Ġest ate
p t
w ork
en er
ervic e
Ġa ppl
f r
o od
er ing
Ġtechnolog y
Ġdistrib ution
at form
Ġb rand
ĠC o
lo b
e alth
Ġc h
Ġ20 1
ĠN ew
Ġn atural
is s
tern ational
ment s
o b
Ġ le
et work
ta in
as ed
il ity
il ities
c ur
Ġpro per
ro m
Ġ19 8
is t
Ġbusiness es
if ic
pecial ty
a f
en c
ĠT r
lob al
an t
id ent
Ġmanufact ure
Ġs oftware
id e
Ġpl atform
or th
e x
nit ed
u ro
Ġo wn
Ġre lated
Ġmarket ing
o c
Ġse ll
o ut
en d
Ġcon t
Ġsu ch
ĠPro duct
ĠG roup
ĠCorp orate
ĠAmeric a
a k
il e
g ine
Ġindustr ial
at a
Ġc are
ĠU nited
Ġpr im
port ation
Ġ als
Ġals o
o ur
ort gag
if e
Ġaut om
r on
Ġfocus es
har m
c are
t ies
Ġo il
e hic
or y
Ġen ergy
r u
ic e
Ġg ener
a il
Ġ are
Ġcons umer
e as
o v
os p
Ġproduct ion
Ġs ale
ent er
as s
ion s
ĠM an
le ct
b s
u il
er y
Ġsu ppl
i ents
u al
er m
Ġd el
Ġcom mun
truct ure
Ġ Y
Ġb ro
Ġa ct
ĠA s
h ol
ĠD e
pp ort
ortgag e
en ce
is e
ĠS e
ĠN orth
ater ial
Ġt re
e y
te gr
t o
ĠS an
ĠIn ternational
Ġass et
Ġf ac
Ġd ata
fr as
Ġdel iv
Ġn etwork
ĠF r
Ġac qu
Ġlo ans
ĠSt ates
o st
Ġ ag
ion al
ĠIn d
b ased
o us
on al
Ġin ter
Ġv ehic
ĠProduct s
ar ily
fras tructure
Ġp ort
ĠC ons
Ġp ower
Ġ1 8
Ġappl ications
Ġprim arily
igh t
Ġ im
al y
Ġf rom
ĠT X
an n
al es
Ġfo od
truct ion
Ġp re
Ġb e
Ġen gine
uro pe
p os
Ġ un
ig ital
Ġac cess
i ent
Ġ al
Ġc lo
ĠT echnolog
ĠN Y
f ol
u e
ĠA n
d uc
ag ing
ĠE urope
ĠH olding
t on
Ġ und
el s
ident ial
an ts
ĠB anking
i x
ed it
Ġse cur
h ip
Ġc orp
ro l
ic es
Ġh ome
Ġad v
ĠY ork
p h
Ġin tegr
e f
o ver
Ġs m
Ġs ervice
Ġtrans portation
Ġin st
as h
ut ical
Ġv ar
ace utical
Ġmanufactur es
Ġhealth care
Ġsell s
r y
ĠC h
an ge
Ġf r
harm aceutical
ĠMan agement
ĠO per
ob ile
Ġc ap
or e
aterial s
Ġs ol
Ġus ed
at ive
or ies
Ġsu pport
i an
k er
ing s
Ġn on
Ġport fol
Ġm ortgage
Ġa ir
ĠM ar
Ġelect ric
Ġact iv
Ġsu bs
Ġmanufactur ing
) ,
l ine
er ap
ic h
Ġproper ties
ers onal
Ġmed ical
a ch
e e
at h
over n
Ġs pecialty
Ġp ay
Ġo ut
ub l
ĠM id
Ġl ife
iss ion
c ing
s s
ĠCom mercial
Ġs h
Ġre f
Ġs ales
Ġre g
Ġcorp orate
c r
k s
ag es
iv id
Ġstor age
Ġprocess ing
ĠHolding s
Ġs p
Ġb i
iz ed
Ġund er
ĠOper ations
a ir
em ber
Ġtr ust
iz ation
Ġtre at
Ġfac ilities
Ġin s
it e
Ġcons truction
Ġdistrib ut
ĠT h
ol v
Ġd igital
ect ion
o ber
er form
he m
Ġan aly
Ġ ro
Ġlo c
Ġ enter
Ġb o
Ġbrand s
Ġportfol io
Ġde v
out h
o h
Ġpro duc
Ġg lobal
Ġn e
l d
â Ģ
et y
ĠIn v
on g
on ents
Ġin frastructure
uil ding
i um
Ġc ar
ĠR es
Ġinv olv
ĠInd ustr
c om
r ap
an ch
re e
Ġdis eas
Ġm et
ĠC an
ens e
i e
is ition
as e
form ation
co un
Ġclo ud
t ing
Ġa pp
ad a
Ġ19 7
iv ate
ĠH ealth
ot ive
Ġdevelop s
ear ch
ĠAs ia
l and
r a
Ġg overn
f ess
ow n
Ġres idential
Ġactiv ities
er ed
Ġs c
Ġm ult
Ġl i
Ġtechnolog ies
Ġcont rol
v en
Ġs erv
Ġm ain
Ġ19 6
Ġind ivid
f f
re am
ers hip
lo y
ĠM ed
ĠR et
t en
is h
ĠEn ergy
hem ical
i el
in ance
en ding
Ġp ersonal
Ġacqu isition
Ġe m
erform ance
Ġd r
Ġth erap
Ġindustr y
ro ss
ol s
Ġw ork
ĠC on
ur g
ĠF inancial
Ġcr edit
ron ic
oh n
ĠInv estment
g an
i ed
Ġcomp onents
tr act
inan cing
in ing
Ġb ank
ag n
ĠS outh
ĠM A
ĠB usiness
Ġtr ad
Ġsm all
p ro
c on
e v
Ġc ol
Ġm on
Ġw ater
ĠTr ans
h y
i enc
s on
u p
Ġ at
iv es
ate g
Ġcons um
u g
Ġm obile
Ġh igh
ip el
ĠJ ohn
ĠRe al
Ġp at
Ġac coun
Ġsuppl ies
Ġintegr ated
âĢ Ļ
ĠCan ada
d le
e b
or d
ĠS ystems
ĠM arket
ĠA l
Ġde pos
gr am
ĠTechnolog ies
m ission
Ġin formation
ent al
Ġo pt
ĠIn surance
st ate
Ġpr ivate
Ġex p
Ġvehic les
Ġp ur
ĠA d
ĠA r
Ġoper ation
ire ct
e p
i am
is es
Ġcompan ies
og rap
ĠCom p
ĠCons umer
n ect
Ġc ard
Ġpro fess
ubl ic
Ġdev ices
u el
in t
ĠB ank
ĠD is
io us
Ġstor es
Ġasset s
Ġinst it
Ġg ro
ĠE lect
t ics
Ġ ut
Ġc ent
Ġf l
Ġf inancing
ĠG lobal
ab les
Ġcl ients
is ing
Ġinv est
or ld
Ġpro gram
und s
Ġon line
our c
Ġinvolv ed
Ġp ar
as in
Ġm aterials
Ġg e
am ily
Ġac ross
co ver
Ġproper ty
Ġaccess ories
a x
b o
p loy
ur es
Ġh y
ac ific
Ġor gan
ack aging
Ġgovern ment
f er
l ing
o k
ic ation
iv ers
Ġr ange
ul y
ver age
ĠIndustr ial
c k
or ation
is tr
ĠS pecialty
Ġcl in
ĠRet ail
j ect
m in
Ġin t
is k
ĠW ill
Ġres earch
Ġindustr ies
Ġequ ity
ood s
Ġbro ad
c re
ul ar
Ġv al
ĠCom mun
ist ics
Ġmain ten
Ġmainten ance
p ar
Ġd i
id i
port s
hol es
Ġtreat ment
a ur
Ġ ar
Ġt el
ĠJ uly
Ġsubs idi
. ,
d r
Ġpro t
ter m
Ġen d
ĠP A
ĠP l
ĠE ast
art n
Ġautom otive
Ġcap ital
iel d
Ġ all
er osp
en n
Ġm od
ĠC l
Ġoper ating
Ġre t
ĠB e
ĠE x
anc ed
tain ment
Ġbro ker
Ġli qu
erosp ace
m an
ud e
ig in
Ġge ograp
holes ale
f ense
y n
Ġp et
Ġthe ir
ĠI L
le x
os e
oc k
ienc es
i ence
Ġs pecial
Ġd irect
ĠA f
Ġcommun ications
ic on
Ġcomp r
ĠS c
Ġl ending
ire ment
Ġdiseas es
r al
Ġc er
Ġb uilding
Ġinvestment s
ru g
e g
id s
Ġengine ering
ix ed
Ġproduc es
et s
Ġto ols
ĠE state
ĠWill iam
e c
v ers
Ġs tr
at ors
ic o
st ream
Ġr isk
Ġle as
Ġvar ious
ourc es
Ġs ystem
ĠA ll
ĠH ome
Ġvehic le
v ent
Ġ k
an y
ĠS te
ell ig
Ġadv is
v e
in d
Ġt est
Ġp erformance
ĠC ol
ĠN ov
am es
uc k
af ety
Ġvar i
Ġdepos it
Ġclin ical
Ġ j
er ch
Ġp ublic
om es
it ical
ĠC ar
ab ility
im e
enc y
Ġgener ation
in a
ar el
Ġf inance
Ġor igin
af t
Ġdeliv ery
Ġsecur ity
h o
n e
p air
in s
Ġin c
Ġf ul
ag ed
il it
Ġelect ronic
pl ace
Ġdesign s
ult ing
Ġcr ude
Ġown s
Ġsuppl y
Ġanaly tics
agn ost
cover y
e ut
re lated
Ġus e
Ġenter pr
Ġconsum ers
Ġcent ers
a w
Ġ 3
Ġ Z
in c
Ġp ipel
il le
ĠP r
est aur
ution al
Ġn ew
ĠH o
ous e
Ġdistribut es
Ġpar ts
Ġbroker age
icon duct
ĠNov ember
r id
on d
ĠT ex
Ġpro ject
ir d
ric a
tern et
ĠPro per
ĠAmeric as
ĠMar ch
p s
Ġc hemical
ing ton
Ġf uel
Ġm id
ter s
Ġhe l
ĠP acific
Ġcon tract
Ġh and
ĠD av
ĠG as
ĠW est
end ent
Ġpay ment
ĠMid dle
ĠAf rica
a per
ic k
ar g
is co
ct ober
ĠC har
ur y
ĠO ctober
Ġlo g
ens es
ĠFr anc
Ġgeograp h
u als
v ille
Ġ ed
on e
tr u
Ġcon nect
ĠB r
ir on
ĠF L
if ied
Ġtrans mission
Ġad min
Ġapp arel
Ġpur ch
Ġgeograph ical
ul ated
ĠL o
ust on
all y
Ġfr anch
ep endent
l ess
r i
en ef
ing le
ĠC O
ĠA ug
Ġprovid ing
Ġne ed
Ġindivid uals
ĠAug ust
c ision
an g
Ġt erm
Ġf unds
it or
ur ing
ĠM ay
ĠM ex
Ġcon d
Ġh osp
Ġ19 5
Ġown ership
ak e
Ġgener al
Ġserv es
Ġprofess ional
en ew
ar ies
Ġm erch
Ġre pair
Ġacqu ir
hy s
ĠHo uston
) .
Ġ ent
at ory
ol y
Ġw orld
ĠA pr
Ġre ven
ĠR ober
Ġde b
ĠU t
Ġst e
Ġex pl
Ġengine ered
ĠTechnolog y
Ġprogram s
ĠFranc isco
Ġadmin istr
ĠApr il
h er
o or
in ed
Ġp harmaceutical
Ġm e
ĠM ich
Ġl ines
am ing
Ġaccoun ts
ĠTex as
M E
v iron
Ġs ingle
Ġd rug
ĠC are
ur n
Ġl ight
am e
ĠJ an
ĠJ un
olog y
Ġind ependent
Ġcont ent
Ġem ploy
m od
n ess
s h
Ġc le
as ual
re g
Ġcom b
le ment
ĠN etwork
Ġh ard
ĠO H
um an
Ġdevelop ing
Ġsecur ities
Ġbo th
Ġadvis ory
Ġinc ome
ĠRober t
a vel
c y
m ber
s e
at t
Ġw ire
Ġa erospace
ce mber
Ġde fense
ĠF eb
Ġch ain
ru ary
ĠDe cember
ĠSe pt
Ġinter est
Ġorgan iz
ĠMex ico
ĠFeb ruary
g o
i ation
t l
y l
en e
Ġin ternational
or n
ĠS u
ĠB ro
Ġman ages
Ġl ab
ĠW ealth
ĠL ife
Ġoff ering
ver t
ide o
ron ics
ath ering
Ġenter tainment
Ġret irement
iconduct or
ĠDav id
ĠSept ember
Ġ it
Ġp hys
Ġse m
ĠC ap
Ġr estaur
Ġprovid e
trib ution
Ġmult i
ellig ence
Ġlog istics
ĠJun e
w ear
Ġc ell
Ġa m
ĠA ut
ĠP ower
Ġn ot
Ġoff ice
Ġcustom er
Ġout s
a h
i et
o int
r ical
er al
Ġf ixed
ĠC hic
ervic ing
ĠE qu
Ġ19 2
ĠJ ose
ens ing
ĠPro cess
Ġmed ia
Ġelectric ity
ĠTrans portation
Ġpet ro
s ervice
u ary
at s
ĠS p
ad e
ĠM aterials
Ġth ird
le y
Ġengag ed
Ġh uman
Ġr ental
ver ages
iz es
ill ing
Ġref ers
cr aft
eut ics
Ġexpl oration
ĠJan uary
in al
Ġp ackaging
Ġo ver
Ġm ot
ĠC ent
Ġg r
ĠE d
Ġl ic
ib er
ition al
ĠEn ter
Ġim pro
Ġins tru
ĠElect ric
Ġed uc
Ġorganiz ations
I n
l i
l et
w ay
w ide
ro p
ar n
ag o
un ct
Ġcomp ut
ĠM c
ĠA ustr
ĠIn frastructure
mer ce
Ġ19 4
ĠG e
ig er
Ġex per
ĠV A
Ġcr itical
Ġinst all
Ġsol d
Ġbi op
Ġloc ated
ĠDis tribution
Ġdi agnost
Ġprot ection
Ġleas ing
Ġful l
d er
i ated
er n
Ġf e
Ġw ealth
Ġn o
Ġl ong
Ġ19 0
Ġlo an
pr es
Ġplatform s
ĠComp any
artn ers
i er
m s
Ġs truct
Ġin to
Ġc he
Ġf il
it es
Ġm ach
ĠC r
ĠS h
ĠB rand
Ġcons ulting
ip t
Ġco st
ating s
Ġindivid ual
Ġinstit utional
Ġfl u
Ġhy d
Ġsubsidi aries
Ġstr ateg
enew able
ĠAustr al
a u
a el
t ical
en g
at in
Ġc re
Ġf re
ol d
ĠC ity
ĠP h
Ġcon tain
Ġv ideo
um b
Ġco vers
cr ipt
urg ical
Ġexp enses
Ġval ue
asual ty
Ġbiop harmaceutical
i or
u es
w ood
ic ro
or age
Ġb enef
ut y
ĠIn ternet
Ġre pres
Ġg roup
Ġh ot
Ġ19 3
ĠG A
Ġprovid ers
ot t
ric ult
ific ation
Ġdeliv ers
ous ing
Ġadv anced
Ġpat ients
Ġvari ety
Ġenterpr ise
Ġste el
T he
e ment
an e
Ġs ur
Ġw holesale
Ġsu b
Ġdis covery
ĠRe g
Ġappl ication
Ġbrand ed
ĠAs s
Ġbe verage
Ġair craft
ĠTh om
ĠAd v
Ġut ility
Ġproject s
Ġhel p
Ġhard ware
ĠChic ago
ĠAustral ia
d ed
f ield
p art
s c
ment al
om est
ĠA c
Ġen viron
ac y
Ġtr avel
ip al
iz e
Ġprocess es
Ġtrad ing
ĠMarket s
ĠMich ael
Ġcle an
vert ising
n ov
he d
Ġs afety
Ġc ash
le um
ĠB o
ĠR ich
em b
for d
Ġcommercial ization
uil d
ĠCap ital
iet ary
Ġ ident
Ġp um
ut r
ĠM in
Ġthrough out
Ġh omes
ĠG re
ĠL atin
Ġtrans act
ĠAmeric an
Ġelect rical
Ġautom ation
ev ision
Ġopt im
Ġinstit utions
Ġpipel ine
omest ic
a ul
e ter
Ġse ct
lo ad
ĠF l
ĠO r
ul ation
ech an
pr ietary
Ġch ann
ĠTr ust
Ġag ricult
ann ing
Ġmon itor
Ġint elligence
Ġcer tain
Ġimpro ve
ĠGe or
A C
b rid
g ing
l f
n u
r it
Ġ up
Ġs av
al t
Ġc anc
ar s
it als
ĠA tl
Ġg oods
ĠB anc
ĠW ater
ens ive
of f
Ġmet al
Ġno vel
ĠThom as
h es
i os
m on
o un
u y
u is
es h
Ġs ervicing
Ġf unct
Ġw e
lo c
ĠM ortgage
Ġ19 1
Ġad vertising
fr iger
Ġdiseas e
own ed
bo ard
Ġcompr ises
Ġhosp itals
k e
s is
w ard
ro ll
ar ge
Ġp art
Ġpro prietary
Ġd ivers
ĠC T
ĠC lo
Ġcomp os
ĠS oftware
ĠM on
ĠB l
ort s
Ġl and
am p
port ing
igh ts
Ġcol lect
Ġgro w
Ġar r
Ġtel e
Ġneed s
Ġrepres ents
d oor
Ġt ax
ro und
Ġp e
Ġp aper
as ury
ĠN C
Ġde al
Ġl iv
ure ment
ib le
Ġpl ans
Ġcommun ities
Ġsol ar
Ġsp ace
Ġpetro leum
Ġeduc ation
b on
f ace
o per
Ġp oly
Ġm eas
ĠC al
el y
ut e
ĠP harmaceutical
iv ision
Ġr ed
Ġr ail
pe c
iz ing
pl ay
ĠEn gine
our ce
Ġare as
Ġcommun ity
ĠSe cur
ĠMed ical
ish ing
Ġtherap ies
Ġpat ient
ĠChar les
Ġcond ition
ME A
Ġsem iconductor
Ġrestaur ants
Ġche ck
Ġsav ings
z en
Ġ qu
an ta
es tern
ĠS ch
ĠA pp
ĠN J
ĠW ash
ab l
ĠJ r
uc ks
Ġass oc
Ġ201 3
ĠCh ina
Ġdeb t
ĠAut om
Ġinstru ments
m arket
w o
Ġm ining
Ġb r
Ġb uild
ĠS m
et ic
ĠM I
ĠA ir
ĠP ackaging
Ġg athering
ĠE l
ĠD all
op le
Ġtr ucks
Ġloc al
ĠHealth care
ĠMed ia
Ġliqu id
Ġmerch and
Ġreven ue
Ġchann els
ĠDall as
a z
c le
en ing
Ġs ports
at ure
Ġin f
ro zen
Ġp h
ol f
Ġd o
Ġfo ot
Ġth erm
le ar
ĠP erformance
Ġg en
ir st
Ġfor m
ĠF inance
ĠD en
Ġr enewable
Ġl ine
ip le
ust in
Ġv ac
Ġres p
ill s
gr ed
Ġmed ic
Ġ199 7
Ġnetwork s
Ġ18 9
Ġal tern
Ġne uro
Ġcard s
ĠProper ties
G L
it ect
Ġse t
ch itect
Ġre c
Ġman aged
ĠF oods
ĠW holesale
ĠL og
Ġwith in
Ġdesign ed
ĠRe f
av e
Ġ18 8
Ġinvest ors
asin o
Ġtel evision
Ġsubsidi ary
Ġchemical s
ĠLo uis
cy cl
Ġoffering s
Ġmonitor ing
Ġcanc er
a id
a uty
e al
u ce
on es
Ġt arg
Ġt wo
at or
Ġin nov
Ġc and
ed ic
re m
ch ange
ĠP ark
Ġg aming
ĠR o
ĠH ar
ĠH ot
low s
ĠL P
Ġprovid er
ĠJ ames
Ġad d
ĠSt orage
ĠK ing
Ġ200 7
hol d
ost on
ĠCons truction
ĠAn d
ĠInvestment s
Ġphys ical
Ġdiagnost ic
Ġcost s
ĠAtl anta
ĠWash ington
h ouse
t he
w est
Ġs ens
Ġc har
Ġc enter
it ch
ol l
Ġm in
Ġm ar
Ġse lf
Ġd et
ĠM N
ĠM et
ĠA Z
ĠP ipel
iv ity
ĠB asin
ĠL e
echnolog y
Ġelect ronics
anc es
Ġmed ium
Ġsell ing
Ġdeliv er
Ġbe verages
ĠRes idential
Ġworld wide
ĠEqu ipment
ĠCent ral
Ġbenef its
ĠGeor ge
l ass
r is
v iation
Ġs o
ion als
ad y
Ġen able
Ġen ables
ce pt
ĠP ay
Ġman aging
Ġl if
ul f
ĠG ener
ac es
ab ric
echn ical
Ġpl anning
Ġmanufactur ers
Ġfocus ed
Ġ200 9
enc ies
Ġtre asury
Ġun its
ĠCommun ity
Ġmid dle
Ġwire less
Ġit em
ĠProcess ing
Ġpe ople
Ġassoc iated
a i
a j
c ill
o ol
Ġt y
ro w
Ġp ack
Ġp harm
Ġf rozen
ĠT N
as es
it le
ĠI r
Ġse lect
Ġw ho
Ġd if
ur ed
Ġre place
ĠP artners
ĠB oston
ĠN et
ĠH osp
ĠO ut
pp ing
Ġtr ain
im al
Ġan nu
Ġ201 4
Ġsh o
Ġmult iple
Ġprofess ionals
Ġgro c
par ty
Ġprot ect
Ġtest ing
ĠProper ty
Ġpurch ase
Ġadministr ative
sh ore
part ment
ĠRich ard
echan ical
Ġcheck ing
gred ients
cill ary
S A
b e
b and
c ent
h ensive
p en
p at
t ic
y le
in k
Ġs ign
at ter
Ġc ateg
Ġf ire
as c
Ġm icro
re hensive
Ġb ack
Ġcomp rehensive
ĠIn ter
Ġg u
Ġh ousing
ab ilities
Ġv ent
Ġv ir
ĠU n
Ġres ources
Ġim mun
ĠTh erap
ĠIndustr ies
ĠCommun ications
Ġfranch ise
ĠUt ility
Ġinstall ation
ĠDen ver
E M
c u
Ġs he
Ġc or
Ġc asualty
ĠS tr
lo g
ĠA ustin
ĠIn s
Ġth ree
Ġen h
Ġre friger
Ġman age
ĠN GL
ĠF ac
Ġe ff
ĠD ie
ĠH en
Ġl arge
ĠO ff
ul es
Ġtr uck
Ġv er
Ġ199 3
Ġ199 8
Ġ199 9
Ġ200 4
Ġsm art
Ġcontrol s
Ġtherap y
Ġcol l
Ġliqu ids
vent ion
Ġagricult ural
pec ific
Ġfoot wear
Ġcand id
C om
d om
g el
n ey
Ġc y
Ġc at
or m
is on
om a
Ġm aterial
un ic
ad o
le et
Ġre l
ĠE m
ĠN ational
ĠN atural
ĠW al
ĠW il
od y
ot a
for ce
Ġst ream
Ġcl ass
Ġ199 6
Ġ200 0
Ġ201 2
ex t
Ġag encies
ĠMed ic
Ġtrad itional
Ġspecial izes
ilit ary
Ġhand ling
Ġacquir es
Ġent ities
ĠBrand s
ĠLog istics
ĠDie go
A pp
n ack
v an
y s
y al
in surance
ed eral
Ġp ain
Ġp ass
om en
it an
Ġm ission
Ġw omen
Ġa ud
Ġcomp lex
ĠS r
ĠM D
ĠM O
ies el
ĠP ersonal
ĠD an
ĠD igital
ul ts
ĠW A
Ġco atings
Ġass ist
av y
Ġ200 3
Ġ201 0
Ġle g
ĠProduct ion
ak ing
our cing
Ġpre m
Ġpre cision
ef f
Ġsubs cript
Ġpay ments
ĠMid stream
Ġreg ional
Ġbi ot
ĠMarket ing
Ġexper ience
Ġhyd ro
ĠBanc orp
Ġtarg et
Ġitem s
ĠTherap eutics
ĠHen ry
in o
Ġs urgical
Ġp er
Ġw hol
Ġcom mod
Ġa b
et h
lo t
ĠA g
ch es
Ġh as
ĠD r
ĠH e
Ġr ad
ĠO il
Ġoff er
um in
velop ment
Ġst ud
Ġ198 2
ĠSan ta
ĠFr ank
Ġim p
ĠAn aly
Ġcap abilities
Ġsc iences
cre te
eg as
ĠUt ilities
Ġadministr ation
Ġlab or
ĠEnter pr
Ġfre ight
ĠAss et
Ġliv ing
ĠKing dom
Ġreplace ment
unic ipal
c ure
f amily
g en
m and
ar m
Ġf lo
Ġf iber
is ed
Ġm us
Ġm ilitary
ĠI N
Ġw are
ĠS em
ĠS afety
ur nit
ĠE MEA
ĠN or
Ġn utr
ĠF ood
ĠD i
ĠO pt
ĠG r
ĠW orld
im ber
Ġ20 2
Ġan t
ital ity
Ġdesign ing
ast ic
Ġ201 1
Ġ198 5
Ġown ed
Ġfac ility
onal d
Ġref ined
Ġdev ice
Ġcar bon
Ġinvolv es
ĠTrans mission
ĠPh il
loc ated
ĠAutom otive
Ġdif fer
Ġgroc ery
urnit ure
g reg
l er
m ot
o ice
p es
r es
v es
w e
Ġ 4
Ġ Q
Ġ y
Ġ art
er t
Ġs k
Ġc ut
Ġc ir
or ado
Ġf und
Ġf amily
Ġf ield
it t
Ġm unicipal
re w
Ġw ood
Ġb uy
Ġd er
Ġd iesel
Ġa f
ĠC hemical
il es
ad s
ur b
ĠIn st
ess ure
ĠP ort
Ġcon duct
est yle
st age
Ġn ational
ĠW I
ĠL as
im s
ust ain
if amily
Ġpl ants
ard en
ĠPro t
Ġtrans form
uc lear
Ġex change
Ġus ing
Ġretail ers
Ġ199 5
Ġaut o
Ġch il
Ġ198 4
Ġ198 6
Ġautom obile
ĠFr anch
Ġfr act
Ġout door
com merce
Ġut ilities
Ġbroad band
par ation
Ġspecial ized
Ġdirect ly
ĠJose ph
Ġflu id
ĠReg ulated
ĠSecur ity
ĠIr v
Ġtrain ing
asc ular
Ġbiot echnology
C O
I T
R O
S t
c ology
i qu
o x
u gh
Ġ X
Ġs im
Ġs yn
Ġt ime
ed i
Ġf abric
it z
ol ine
Ġd ental
Ġcomp li
ĠS ervice
ĠA erospace
ĠIn t
ĠP ar
ĠR ock
ĠN on
Ġde als
Ġh ouse
Ġn et
ĠL ines
if orn
Ġac c
Ġan cillary
tern al
Ġco un
ĠV egas
Ġ200 5
Ġ200 6
Ġ201 5
Ġ198 0
Ġfr esh
Ġsol ution
Ġanaly sis
land s
Ġdr illing
Ġopt ical
cre ational
Ġar chitect
Ġleas es
Ġpipel ines
Ġmot or
ĠAdv anced
Ġpum ps
rit ing
Ġcompos ed
Ġtherm al
pat ient
iforn ia
E n
L C
P acific
b ur
b uilding
c ast
i ers
k y
l or
m ing
m et
t in
in ery
Ġs en
ic a
or es
Ġf urniture
as is
ol is
Ġm en
Ġm aj
ag r
Ġd omestic
ĠS ystem
ad ded
ur s
ĠIn tegr
Ġre qu
iv er
ĠE duc
ĠL ending
Ġv ol
Ġdis ord
Ġmarket place
Ġconsis t
Ġpl an
Ġtrans fer
Ġco ol
ĠV ehic
Ġus ers
Ġ199 4
iss ions
Ġle ase
ist ing
af e
end s
Ġprim ary
ĠDe fense
pport un
Ġnetwork ing
Ġbe auty
ĠAn gel
ubl ishing
ĠRes ources
Ġtherap eutics
Ġmon ey
term arket
Ġcompr ess
Ġreven ues
att le
ĠEd ward
Ġstrateg ic
Ġhot els
Ġenviron mental
Ġclean ing
ĠClo ud
ĠEngine ered
Ġmerchand ise
Ġaltern ative
Ġinnov ative
Ġmar ine
umin um
Ġdiffer ent
Ġcompli ance
Ġmaj or
B S
N A
l in
o ols
t ime
u x
in n
Ġs ustain
Ġt em
at ives
al ity
Ġc a
Ġc ur
Ġc able
Ġo pportun
as tern
it ive
Ġthe m
Ġw ind
Ġb l
ĠS ales
ad ing
ĠP eter
Ġe v
ul atory
ig ation
ĠL os
Ġoff ices
ĠJ ack
Ġdis play
if y
Ġ2 9
iz on
Ġpr es
Ġres ults
Ġco verage
ub s
Ġstor e
Ġ200 2
Ġ198 1
ĠMan ufact
Ġcommun ication
Ġag ency
Ġbi olog
Ġ196 9
ĠRet irement
ĠReal ty
Ġcent ral
ĠSc iences
Ġcontract s
Ġdrug s
Ġlight ing
ĠEnter tainment
Ġcontain ers
Ġtele com
ĠCal ifornia
Ġbuild s
Ġty pes
Ġcandid ates
Ġcir cu
A l
E x
c ar
d uce
h ab
k l
k en
p ower
u er
Ġ 7
in ation
in ations
es e
Ġs ch
Ġt echnical
at ell
ent ial
ro ad
or ed
Ġp ot
is ts
ol ic
Ġpro te
Ġpro duce
ĠC am
el ect
il ton
tr y
th ers
Ġoper ators
ĠP er
ĠP aul
Ġ1 0
Ġ1 4
ĠN V
Ġh ave
ĠD el
ĠH omes
am s
op per
ĠW ell
ĠW ood
um ber
Ġmanufactur ed
iss ue
Ġ198 9
Ġown ing
Ġclo s
Ġreg ion
Ġcar ri
Ġaccoun ting
Ġut il
ĠCol orado
Ġenterpr ises
Ġacquir ing
Ġouts ide
oun tain
Ġfunct ions
Ġwe bs
Ġdivers ified
Ġmeas urement
ĠPharmaceutical s
Ġmedic ines
Ġset t
Ġsens ors
Ġlif estyle
Ġeff ic
Ġpass eng
Ġdisord ers
E R
F irst
S G
T r
c ons
d a
f it
g in
h am
n et
o ks
r ed
t d
Ġ low
Ġs ources
Ġt en
at ric
Ġin gredients
ic t
or ations
ar a
ar an
Ġm ass
Ġse al
Ġb ased
Ġd own
ĠC le
Ġcomp let
Ġhe ating
ĠM ark
ĠM ot
ĠM art
ĠP aper
Ġto w
Ġ1 7
Ġde cision
ĠH y
ĠH aw
ul k
ĠL LC
ĠL td
Ġsu pp
Ġsu ite
Ġdis pos
Ġst ate
all s
Ġpl ant
ber t
Ġpr act
Ġex ec
Ġad dr
Ġappl i
Ġ198 3
ific ial
ak es
Ġact ive
Ġag ree
ĠCons ulting
Ġal ong
ĠEurope an
Ġreg ulated
Ġunder w
Ġmet als
ra ul
con d
Ġdepos its
Ġinvest s
Ġhy brid
dr en
ĠBe ach
ĠCol umb
Ġorigin ation
ĠChar lot
Ġterm in
Ġemploy ee
ĠNetwork s
ĠSu ppl
Ġphys ic
Ġtransact ions
Ġsect or
Ġgrow th
Ġarr ay
ĠNet App
Ġcateg ories
Ġver tical
Ġprem ium
ĠInst it
ĠAngel es
hab ilit
Ġaddr ess
ĠCharlot te
b or
i pp
s ized
t op
z e
Ġ 5
Ġs al
Ġs oft
Ġs urg
Ġin ternet
al og
Ġp ric
Ġp artn
Ġm ov
ĠI ll
Ġse cure
re y
Ġb atter
ĠS un
Ġhe avy
Ġre porting
ĠP et
ĠB uilding
Ġ1 5
ĠR est
Ġe ar
Ġon cology
ĠD ata
ĠD omestic
Ġl a
ĠG overn
ĠL eas
vel oper
Ġv oice
Ġ2 1
ap olis
ow s
Ġtrans ports
Ġcustom ized
ĠV ir
Ġch ronic
Ġ201 7
Ġ198 7
Ġal lows
Ġloc ations
Ġgovern ments
Ġserv ing
ĠCon t
Ġconsum ables
ĠPl atform
ĠSc ott
Ġbuilding s
ĠSte ph
Ġvari able
Ġterm inal
ah oma
Ġstruct ures
Ġsect ors
Ġcollect ion
Ġdeal ers
ĠRef ining
Ġannu ities
ĠMedic are
Ġhouse hold
Ġtelecom mun
kl ahoma
habilit ation
A r
e ign
m ers
p aid
u els
v ey
Ġ 9
Ġ ill
Ġs ta
Ġs atell
or ing
Ġp ost
Ġf low
Ġf ib
Ġf ast
Ġf lex
is ter
as k
it ives
ol ec
Ġm emb
ĠI I
ĠC ru
us h
us s
Ġcomp o
per ature
ĠM iss
ĠM ountain
ĠA m
tr ation
Ġre cycl
ĠP it
ĠP re
ĠP enn
Ġg lass
ĠR ed
Ġde veloper
Ġn uclear
ĠF ort
ĠF ord
ĠO klahoma
ical ly
ul s
ĠW ork
ip s
ĠJ eff
ap an
Ġres erv
Ġex t
Ġco al
Ġ199 0
Ġ201 8
ob ility
ortgag es
ĠDe v
Ġfood service
ient ific
Ġal uminum
Ġdistribut ors
Ġsc re
ĠCon tract
Ġaccoun t
Ġopt ions
Ġexp ense
ling ton
ĠSte ven
Ġorigin al
Ġflu ids
Ġsur face
Ġident ity
Ġpum p
ĠGre en
brid ge
Ġcondition s
ĠHot els
Ġsho pping
ĠOff ice
Ġlabor atory
ĠEnterpr ise
ĠDi agnost
Ġart ificial
Ġchil dren
ĠEduc ation
Ġopportun ities
ĠManufact uring
ĠSuppl y
ĠInstit utional
ĠGovern ment
A meric
I D
P S
T E
b ack
b urg
c hemical
g ines
i ew
l ines
m ond
m ington
n er
o y
Ġs w
Ġs nack
Ġt itle
Ġin tr
al k
al located
Ġp artners
Ġo c
Ġo pen
Ġf leet
it ors
Ġm ix
Ġse ver
Ġpro c
Ġb et
Ġb ulk
ĠC asino
us e
ĠS pr
ers on
Ġen gines
Ġoper ated
Ġwas te
iv en
Ġman ag
Ġn ames
ĠG athering
act ive
ĠL ab
ip e
ĠJ apan
Ġpr inc
Ġres orts
Ġgas oline
ĠV al
Ġass emb
Ġ199 2
Ġ200 8
Ġle ad
Ġown ers
Ġ18 6
Ġ18 7
Ġbe h
Ġintegr ation
ian a
ĠMid west
Ġins ights
Ġanaly tical
Ġ197 1
fess ional
Ġ196 8
ienc y
ĠElect ronics
ĠCommun ities
ellig ent
Ġj oint
Ġmid stream
Ġconnect ivity
Ġdeb it
Ġlab el
Ġouts ourcing
Ġfe ed
ĠCr edit
Ġhot el
ĠAc cess
Ġtransact ion
Ġdivers e
ĠBl ack
Ġresp ons
ĠPipel ine
cent r
ĠDan iel
ĠAnaly tics
Ġcut ting
Ġder iv
Ġagree ments
raul ic
Ġsurg ery
C S
M S
N G
b ed
b rand
d en
h ib
j ust
k ey
u ation
Ġ 8
and ard
on y
he ast
Ġs ite
Ġt ub
Ġt issue
Ġc an
Ġc ore
Ġp ark
Ġp erform
ĠT re
om in
Ġm ut
Ġm ortgages
ĠI T
ĠI m
Ġw h
ag s
Ġd ivision
Ġa ff
Ġa round
el ding
ĠS im
et t
ĠM il
ĠM ac
Ġoper ational
Ġre creational
ĠB ar
ĠB lo
Ġ1 2
Ġ1 3
Ġengag ement
ir ed
ĠR os
ĠR ob
Ġde mand
ĠF or
Ġe mer
Ġon e
ĠD o
ĠD ivision
ĠH er
Ġr ent
Ġr are
Ġl ub
ĠO n
ts bur
ĠW e
Ġoff shore
Ġv ia
Ġ2 5
ib be
uf f
ĠU S
Ġst ations
Ġan imal
ens ation
co hol
of ing
pr ess
Ġcl ient
Ġle arn
Ġautom ated
ĠDe velopment
Ġdeliv ering
Ġag greg
ann el
Ġpre paration
Ġsecur ed
Ġcorp orations
Ġhome own
Ġcap ac
Ġpay roll
Ġbo ats
Ġapp ro
Ġdr ive
Ġwork f
ĠSouth ern
ateg ic
Ġgro und
Ġmod el
ĠCar ibbe
ho en
Ġ3 0
Ġnew s
Ġpurch ases
ĠSp ace
Ġlic ensing
Ġcomput ing
Ġfe es
old s
Ġpart ic
Ġbr anch
ĠSm ith
edic ated
ĠGener al
Ġpharm acy
Ġgu aran
Ġvir t
Ġenh ance
ĠFac ilities
Ġcoll ab
ĠWil mington
ino is
Ġwhol ly
Ġcommod ity
ĠSem iconductor
Ġconduct s
ĠProt ection
Ġtem perature
uer to
ĠCont rol
ĠSteph en
ĠPit tsbur
ĠCaribbe an
ĠPittsbur gh
A d
I S
c ell
i ans
k ee
v ascular
Ġ ir
an a
Ġs afe
Ġt e
ro om
Ġp os
Ġo b
is hed
as ing
it ness
Ġm ost
Ġm echanical
Ġm olec
ĠS am
Ġis s
ĠM ult
ĠA lex
Ġre ce
Ġre ady
ĠP uerto
Ġg lob
Ġ1 6
ĠR ico
Ġde f
Ġfor eign
ĠD C
Ġl as
ĠG l
ĠG ulf
ĠW estern
ĠL a
ĠL ake
Ġtr ack
ans as
Ġsu per
od e
ver y
Ġac ute
Ġconsis ting
Ġpr in
Ġpr essure
ĠPro fessional
Ġad hes
ain s
har es
Ġcl a
Ġ199 1
erm an
ĠSe attle
ph alt
Ġfr agr
Ġportfol ios
ĠMar ine
Ġsh are
Ġins p
Ġserv e
Ġtherap eut
Ġbank s
Ġcard i
ourc ed
Ġret urn
vent ional
ĠLo ans
cy cle
Ġrestaur ant
Ġdiagnost ics
Ġhyd raulic
sc ale
ĠFl or
Ġpart ies
Ġqu ality
abl ed
Ġgen etic
Ġvac c
Ġadd ition
Ġselect ion
Ġaf termarket
ĠCam bridge
ĠIll inois
ĠVir gin
ĠDiagnost ics
Ġtherapeut ic
a rol
e es
i us
i ors
l u
l ed
n ow
p ublic
an o
an es
an ol
in ks
er o
Ġs har
Ġt ext
Ġc asino
ar r
Ġp oint
ment ation
Ġf am
ĠT em
as ter
Ġm ill
ĠI s
Ġse cond
Ġpro p
re et
Ġw eb
Ġb asis
us ion
ut ive
Ġcomp lement
ĠS B
ĠS a
ĠS w
ur se
id a
ĠM od
ĠA I
ĠA ppl
ĠA viation
ĠP al
Ġcon crete
Ġcon centr
Ġg ames
ĠN e
Ġn ame
ĠF re
ĠD ak
Ġr ate
am a
am in
ĠL oc
Ġ2 8
Ġinv ent
ay s
pe ed
Ġan y
Ġfirm s
Ġass ess
ast ics
Ġwell ness
Ġaut h
Ġcont in
Ġ18 5
Ġro b
Ġro yal
Ġproduc ing
Ġcar s
Ġcar go
ĠRes earch
Ġmet h
Ġ197 8
Ġ197 9
ra z
Ġsc ience
Ġli ability
ven ience
Ġmain tain
Ġinvest ing
Ġval ves
dr iven
yl van
ĠSu pport
Ġmot ion
Ġcre ate
Ġoptim ize
ĠFoods ervice
ĠAnd rew
Ġdet ection
Ġso cial
ĠHosp itality
Ġrel ations
Ġsubscript ions
Ġcompress ion
ĠMart in
Ġappli ances
Ġunderw riting
Ġtermin als
Ġtelecommun ications
Ġsatell ite
ĠII I
ĠPenn s
Ġdeveloper s
Ġmut ual
Ġlub ric
hoen ix
ĠFlor ida
ĠVirgin ia
Ġfam il
ĠDak ota
H ealth
L E
a o
c up
g es
o ther
s hares
u le
w in
er ies
er ry
he ad
Ġs hip
Ġs pecific
Ġt ank
Ġin cre
ar ch
Ġf in
ĠT est
Ġb ar
Ġa viation
ĠC asualty
us es
el ph
un t
ut ing
Ġcomp ensation
ĠS ports
ad elph
id ated
ĠM ill
ĠA C
ĠA P
ĠA R
ĠA ct
Ġoper ate
Ġre insurance
Ġre habilitation
ĠP hoenix
Ġas phalt
ĠN utr
ĠF o
ĠF low
ĠF uel
ul in
ĠG old
act ory
ĠL and
os is
Ġdis ability
Ġ2 3
Ġ2 4
Ġ2 7
Ġpl astic
Ġfir st
ard s
Ġtrans port
Ġres ource
Ġex isting
Ġor al
Ġco ok
ĠCo un
af f
Ġfac ilit
Ġim pl
Ġim aging
Ġfood s
Ġun ivers
ient ed
Ġsol id
Ġ197 2
ff ing
ership s
Ġwork ers
ĠBusiness es
Ġtrad e
con nect
ĠComp onents
ĠZ eal
ĠPr ivate
Ġhel ps
ĠBr ian
ang ing
Ġcomb ines
Ġlic enses
ĠMc C
Ġfil tration
Ġmach ine
Ġmach inery
Ġfre qu
cript ion
ĠAdv is
off ee
Ġcondition ing
ĠPipel ines
Ġtruck load
Ġstream ing
ĠPhil adelph
ĠIntegr ated
Ġcur r
Ġpasseng er
Ġflex ible
ĠSpr ing
Ġhomeown ers
Ġguaran te
ylvan ia
ĠPenns ylvania
Ġfamil ies
ĠZeal and
ĠPhiladelph ia
C s
F S
M C
T M
b le
c os
g er
i k
l ies
m a
n es
o th
r um
s ite
s pecific
t ion
v in
er r
er als
en ers
Ġs il
at ic
at ers
al ent
ed s
Ġp an
Ġp olic
is ure
ĠT imber
as on
Ġm ixed
Ġm aking
Ġpro mot
Ġw all
Ġw ide
Ġb al
Ġb re
Ġb lo
Ġa v
ĠC he
ĠC or
ĠC able
ĠC enter
ĠS o
ĠS pecial
il i
uct ion
ĠM al
ĠM obile
ĠM icro
ĠA mer
ĠIn term
th ing
ce an
ĠP harm
ĠP ublishing
iv il
Ġg ear
Ġg olf
ĠB et
ĠB ur
ĠB enef
Ġ1 1
ĠE v
ĠF ederal
Ġe p
Ġl ess
Ġl ive
Ġl end
ĠO h
ĠO wn
ĠO EM
am ic
ac co
ĠW h
ig an
ect rum
Ġv en
Ġdis p
ĠU T
ell er
Ġst ock
Ġtrans m
ĠRe public
Ġ201 6
Ġle vel
Ġle ased
Ġ198 8
ru it
Ġare a
uil t
ĠSe gment
Ġtre ating
ĠFr ed
Ġag ents
pos e
Ġadv ice
Ġsupport s
ath er
Ġout patient
Ġreg ions
Ġreg ulatory
Ġbo x
com p
rap hic
land o
ĠCon nect
bo x
Ġorgan ization
Ġmod ular
Ġmod ules
Ġgeograp hic
Ġcer t
ĠSte el
uck load
Ġmerch ants
Ġent ire
Ġpetro chemical
Ġcomput ers
Ġstruct ural
Ġstruct ured
Ġmach ines
Ġenviron ments
Ġoptim ization
roll ed
ĠHot el
Ġmin eral
ĠGener ation
Ġaud io
Ġassist ance
Ġleg al
Ġware house
ĠChemical s
Ġsen ior
Ġpract ices
Ġrecycl ing
ĠJeff rey
Ġscre ening
Ġsever al
Ġcla ims
Ġmeth od
Ġfrequ ency
G I
G M
U nited
c a
c iences
e k
f o
g i
i ance
k in
m ark
r igation
s p
t age
and er
on ent
at i
Ġin j
Ġc opper
or ative
or iented
Ġp ul
Ġp op
Ġp ow
Ġf ut
Ġf uels
ĠT el
ĠT erm
ĠT itle
om ing
ol idated
Ġm ines
Ġb ut
Ġb ak
Ġcom merce
Ġd ry
Ġd edicated
ĠC arol
el f
ĠS ur
ers ey
id es
lo s
ĠM e
ĠM y
ĠM or
ĠM ining
ĠIn formation
Ġre m
Ġre ag
ĠB i
ĠB el
ĠB raz
st e
ir ing
ĠR el
ĠR ay
ĠR ail
ĠR estaur
Ġn urs
ĠF irst
Ġr est
ĠO K
Ġcons truct
op s
ĠW all
ĠL ong
ther n
ab is
ĠJ ersey
Ġ2 2
ap e
Ġind ex
erg round
Ġor th
ĠCom pl
io vascular
Ġmanufactur er
Ġprocess ors
ĠCo atings
Ġgener ates
ann abis
Ġun allocated
fol io
Ġactiv ity
air y
Ġtreat ments
ĠInv est
ĠRes orts
Ġsc ientific
Ġmult ifamily
Ġacquisition s
con om
ĠElect ronic
asin os
ĠCl ub
ĠCl ara
ĠBe verage
Ġliqu ef
Ġk ey
ĠCar l
ne apolis
Ġ195 5
Ġme et
mod al
Ġinterest s
Ġ194 6
Ġstrateg ies
Ġcontain s
Ġbenef it
ĠMin neapolis
ĠOr lando
Ġarr ange
Ġtele ph
market s
Ġph ot
Ġadd itives
itch en
ĠIns tru
Ġrefriger ated
ĠEm ploy
itan ium
Ġrad io
Ġmunicipal ities
ĠPort folio
ĠFranch ising
ĠIrv ine
ĠPar ts
Ġacc ident
Ġrequ ire
ĠVehic le
Ġprote in
Ġeffic iency
ĠLeas ing
Ġmanag ers
Ġlearn ing
Ġpartic ip
Ġvirt ual
Ġglob ally
Ġinsp ection
Ġvacc ines
Ġinvent ory
Ġrob ot
A N
A P
A R
I N
P G
P ro
T ech
U n
V er
V AC
a S
d ef
f l
f ill
f ree
g ar
g ency
k ers
k ins
l as
m art
n a
n ing
o in
o ul
r ist
u id
w ell
x ide
Ġ eth
in ical
in yl
er ts
en ch
en abled
Ġt ur
at o
at ories
Ġc os
Ġc ross
ro us
ar ing
Ġp ubl
Ġp ipe
Ġf ee
Ġf ree
Ġf urn
om er
ol a
ol itan
Ġm em
Ġm ore
Ġw ear
Ġw elding
Ġb ear
Ġb ody
ag le
Ġd oc
ĠC y
ĠC os
ĠS and
ĠS out
ĠS ervicing
et es
per s
ur ch
Ġhe ld
ĠM ary
tr ies
th ur
ĠP ack
ĠP erm
Ġcon f
Ġcon venience
ĠB ay
ĠB ios
cl us
ir es
ĠR y
ĠR enewable
ĠR iver
ĠN E
ĠN ev
Ġn ation
ĠF air
ĠH and
ĠH ol
ĠH ilton
Ġr ig
ĠO ak
ĠG o
ĠG olf
ac hed
ĠW in
ĠL i
ab ling
im it
Ġv is
Ġ2 6
ĠU SA
Ġst age
Ġst andard
Ġan alog
Ġlo ss
trib ut
ber g
Ġtrans porting
Ġres ort
Ġor der
gr ad
ĠK e
ĠK ev
ĠK enn
Ġelect rom
ĠEn g
ĠCo ast
ob iles
Ġinter m
Ġpre paid
ath an
cr itical
Ġdistribut ed
ĠTh is
Ġro ll
Ġproduc ed
com es
Ġli ke
Ġdr inks
con tin
Ġat t
Ġorgan ic
ivers ified
Ġclin ics
Ġbroad cast
ĠCl ient
ĠEx per
ĠHome building
iconduct ors
Ġhand les
ick et
ang es
ĠMich igan
Ġemploy ees
Ġchain s
ĠBro ad
ĠBro ker
Ġouts ourced
ĠEqu ity
way s
rop olitan
Ġstrateg y
Ġident ification
Ġagricult ure
Ġimprove ment
hes da
Ġrec ord
ĠOut door
ĠNGL s
Ġleg acy
Ġsubscript ion
Ġmus ic
Ġfract ion
ĠIrv ing
iqu e
ĠInt elligence
Ġsustain able
ĠJack son
Ġcarri ers
Ġdown stream
Ġphysic ian
Ġbatter y
ister ed
ask a
Ġcompo unds
Americ an
Ġoc cup
Ġprinc ipal
bed ded
ĠDo ug
Ġcapac ity
ĠMult ifamily
Ġprin ting
Ġcardi ac
ĠBet hesda
Ġven ues
ĠBraz il
ste in
Ġarrange ments
Ġeth anol
ĠNev ada
A m
N ew
d ale
e a
o ir
r ad
t ise
u ed
v is
w au
z a
Ġ 6
en a
on om
Ġs and
Ġs ites
at on
Ġin hib
al f
al yst
Ġc hem
Ġc asinos
or row
Ġo thers
ĠT ur
ĠT im
ĠT enn
it ting
Ġm ess
Ġse par
Ġse arch
re t
Ġb ase
Ġb orrow
ĠC ustom
ĠS ing
ĠS urgical
et r
Ġhe art
ĠM ad
ĠM iam
ĠA L
tr a
le ments
ess ee
ĠP e
ĠP oly
ĠP rem
Ġto ol
Ġto ys
Ġg o
Ġg ene
Ġg arden
st orage
ir atory
ĠR ental
ĠR onald
ĠE ric
Ġde ploy
Ġh ost
Ġe conom
ĠD E
ĠD irect
ĠD onald
ĠH am
ĠH ills
ĠH ugh
ĠG ro
ĠG arden
am ford
act or
ĠW y
ĠW ire
Ġtr ail
ab y
ab il
ab etes
im inations
ect ive
ĠJ on
ĠJ ay
olog ical
Ġst ation
ew ater
sur es
Ġpr int
ith ium
ĠSt amford
ĠK ent
Ġco ver
ition s
pl aces
ĠRe friger
Ġass ort
Ġus er
cus ed
ĠEn viron
Ġ200 1
Ġch lor
Ġ201 9
ĠNew s
Ġle ver
ĠTr ading
ant ic
oc ol
end ed
ak er
Ġautom ate
Ġinter vention
Ġund ers
ĠCh rist
Ġsupport ing
Ġref ining
Ġsp ons
ree k
Ġ197 5
Ġ197 6
Ġ196 6
Ġwork force
agn etic
pro duct
con t
hy l
ĠAr izon
ĠAr thur
ograp hy
Ġinvest or
fer red
ok e
istr y
Ġdi agn
Ġmod ern
Ġ3 1
inc inn
Ġed ge
Ġconnect ed
Ġpurch asing
Ġfranch ises
Ġcond ens
enew ables
Ġam pl
ĠAut o
ĠCent ers
Ġeduc ational
Ġexper tise
Ġ190 6
part ments
Ġident ify
mon t
Ġfunct ion
Ġgrow ing
Ġred e
Ġred uce
ĠSecur ities
Ġdo ors
Ġneuro log
rem e
ĠPay ments
Ġpack aged
Ġannu ity
Ġsign al
Ġvent il
ĠStr ategic
Ġrefriger ation
ches ter
ĠFrank lin
Ġware h
Ġ202 1
Ġant ib
we en
ĠQ u
urb an
Ġcoun tries
Ġcool ing
Ġev ents
Ġcircu it
Ġcircu its
Ġwebs ites
Ġseal ants
ĠHaw ai
Ġsupp lement
Ġill ness
Ġsta ffing
ĠMil wau
Ġadhes ives
lu ent
Ġsecond ary
Ġincre ase
ĠFo ot
ĠOh io
Ġcert ific
fo cused
ĠCarol ina
Ġreag ents
Ġnurs ing
Ġpubl ish
ĠMiam i
ĠArizon a
incinn ati
ĠMilwau kee
B ased
C M
F C
G E
N et
S O
W est
X M
a ware
b y
b ers
b usiness
c ore
d e
l ets
m ar
n ap
n ection
o T
o u
u um
v ed
v ol
v est
w ich
Ġ ul
Ġ edit
an co
in v
in ary
on t
Ġs ensing
Ġt urn
Ġt abl
Ġt itanium
Ġin it
Ġc al
Ġc hic
Ġc rop
Ġc ement
Ġc offee
Ġf ive
Ġf arm
Ġf ert
as ic
as ive
ol n
Ġm obility
Ġb ill
Ġb rid
Ġd airy
Ġa er
Ġa partment
ĠC R
ĠC ore
ĠC reek
ĠC incinnati
ĠS truct
ĠS alt
ĠS ky
ĠS ubs
ur t
ĠM o
ĠM ax
ĠIn gredients
Ġen abling
Ġre covery
ĠP atric
Ġproduct ivity
est ock
ĠB ell
ĠR F
ĠR ent
ĠR og
ĠE r
ĠE mer
ĠN ic
Ġde ck
Ġh olds
ĠF unds
ĠF leet
Ġe cos
ĠD own
ĠD iversified
ĠO l
ul l
Ġcons ult
ĠW ind
ĠL ic
im ate
ect s
Ġv ision
Ġv eg
Ġv eter
ĠJ ones
Ġdis cover
if iers
ĠCorp oration
Ġst ates
ow ers
Ġpl ace
ens ed
ĠSt an
Ġgas es
ĠK n
ĠK ansas
ĠV er
anc ing
our i
Ġautom obiles
Ġoil s
Ġgener ating
erm al
Ġbro kers
Ġinter modal
Ġpre c
Ġun it
Ġclo thing
ĠAn nu
ash ion
ĠOper ating
ĠMar c
Ġout comes
Ġbi om
Ġdistribut ing
Ġro ofing
Ġproduc ers
Ġ197 0
Ġ196 7
Ġmon itors
ĠJohn son
ĠAr chitect
ĠAr lington
Ġfl at
Ġfl av
istr ation
ĠBe verages
ĠBe auty
ĠEx ec
ĠAll en
Ġtest s
Ġful ly
Ġcontract ors
ri ott
Ġhosp itality
Ġmerch ant
Ġacquir ed
her e
Ġme at
reg ulated
Ġcomb ination
ĠBro wn
Ġsem iconductors
Ġcell ular
Ġmot ors
ĠMc L
Ġfil m
Ġcontain er
umb ing
Ġ193 8
ane ous
ĠRich mond
ĠBanc shares
ĠAutom ation
Ġinf ect
Ġvac ation
Ġmedic ine
Ġchar ging
Ġpharm ac
Ġshe et
ĠFac ility
Ġcy cle
ĠDr illing
Ġimp act
ĠFranch ise
Ġfract uring
ĠInt elligent
Ġarchitect ural
Ġcool ers
ĠVehic les
ux ury
Ġca mer
Ġpres erv
Ġsch ools
ĠDel aware
Ġwebs ite
Ġsett ings
ĠMot or
ĠColumb us
ĠColumb ia
Ġear th
Ġla wn
Ġfast eners
ĠMiss ouri
Ġproc urement
Ġbet ween
Ġwh ile
cohol ic
Ġappro ach
Ġob ject
Ġlas er
Ġcomplement ary
ĠNutr ition
Ġcurr ent
Ġguarante ed
Ġblo od
ĠSout heast
ĠPerm ian
ĠBios ciences
clus ive
Ġnation wide
ĠKev in
ĠKenn eth
Ġinterm edi
ĠTenn essee
Ġtabl ets
ĠArchitect ural
1 0
A L
B l
C on
E S
E MEA
O ther
P C
P al
R A
R I
R e
T S
b ell
b acco
d ging
e an
e il
g et
g ia
h a
h en
h ome
n y
o und
r ay
t own
t ewater
w ater
y ch
Ġ z
in et
he w
Ġs pr
Ġs tructure
Ġt imber
Ġt alent
at ics
Ġc ust
Ġc ivil
ic an
or a
Ġp ath
Ġp ublishing
Ġf ederal
Ġf itness
ĠT ools
Ġm ade
ĠI P
ĠI Q
Ġse am
Ġb el
Ġb ow
ĠC BS
el er
un ch
ut h
ĠS qu
ĠS earch
ĠS nack
ad em
Ġfo ur
ĠM el
ĠM ur
ĠA b
le ep
th an
Ġre con
Ġre li
Ġre mot
ĠP artn
Ġwas tewater
iv ing
Ġto bacco
ĠB en
ĠE agle
Ġde c
Ġh ar
ĠD et
ĠD enn
ĠH ow
Ġr en
Ġr un
Ġr ights
Ġl arg
Ġl umber
Ġl imit
ul ations
ul ators
ĠG il
ĠG aming
ĠW alth
ĠW ay
ĠL A
ip her
vel and
Ġv ess
od es
od al
ap es
ap id
ĠU p
iz ers
all ed
ens ion
Ġres id
ill ed
ill age
Ġex tract
ater al
Ġequ ities
ĠSt ud
ĠSt ate
mun e
Ġelect ro
ĠV ac
Ġdes k
av ing
av ior
ĠTr avel
oc ks
ass es
ĠInd ivid
Ġinter ior
Ġpre vent
Ġun if
Ġal loy
ĠAn ton
Ġund erground
Ġintegr ates
Ġcap t
Ġout lets
Ġsh ort
Ġref lect
Ġsp ectrum
Ġins ulation
Ġdistribut or
Ġanaly ze
Ġbo ok
âĢ ľ
âĢ Ŀ
Ġ196 2
Ġem power
pro fit
Ġcol or
ĠTrans fer
Ġhigh ly
Ġpur pose
ĠComp uting
Ġcard iovascular
ĠBank s
ĠDis play
Ġpar ty
yn d
rug ated
ĠWilliam s
Ġk its
Ġadvis ors
uck y
inc oln
Ġfranch ising
Ġfranch ised
Ġ195 9
Ġcle aring
Ġgr ade
Ġlic ense
iber ty
Ġcomput er
ĠMc K
Ġexper iences
Ġinstall ment
Ġfe at
ĠSh ale
ĠAc qu
ĠMin nes
ĠGeor gia
Ġ191 9
amp a
Ġpaper board
Ġresp iratory
hold ers
ĠPay ment
Ġvent ure
Ġvent ures
Ġclass es
Ġhydro car
Ġtarget ed
Ġwhol e
Ġcommod ities
Ġab ility
Ġimp lement
Ġnutr ition
ĠOpt ical
Ġant i
res p
Ġsk in
Ġfield s
Ġbuy ers
Ġfabric ation
Ġdifferent iated
Ġdisplay s
Ġcarri er
Ġsett lement
ĠCle an
Ġvertical ly
Ġpric ing
Ġear ly
ĠPlatform s
Ġmemb ership
ĠPre cision
uls ion
ĠDev ices
Ġpump ing
back ed
Ġsw itch
Ġsnack s
Ġassemb lies
brand ed
ĠSim on
Ġir rigation
Ġte ams
Ġmolec ule
Ġrece iv
Ġfragr ance
Ġreturn s
ĠAppl ied
Ġassess ment
Ġauth or
Ġmaintain s
Ġunivers al
Ġav ail
ĠPharm a
ĠBenef its
raphic s
Ġfut ures
Ġconstruct s
ĠCompl et
Ġrequire ments
Ġdoc u
ĠMary land
ĠBroker age
ĠDoug las
ĠHugh es
Ġtrail ers
Ġassort ment
ĠEnviron mental
Ġchlor ide
hyl ene
Ġneurolog ical
Ġventil ation
Ġveg et
ĠWalth am
ĠIndivid ual
ĠMinnes ota
A s
C o
C ent
C ons
E P
F E
I A
M ar
P l
R ock
S B
T L
V B
a ily
b ro
b ulatory
d ay
e ments
g g
h aul
i ary
l a
m el
m ann
o ts
p ing
p ut
s peed
t ro
u it
u ise
w orth
w estern
w alk
z z
Ġ i
Ġ ess
Ġ urban
in ers
in son
on a
Ġs ome
at ely
Ġin tern
al d
al er
Ġc ult
Ġc asual
ro gen
ed ical
ed ia
ed Ex
ar ry
Ġp s
Ġo bs
Ġf id
is m
ĠT om
om ics
Ġm ark
Ġm ake
Ġm echan
ĠI D
re at
Ġw he
Ġw ine
Ġw estern
Ġb asin
Ġb ars
Ġb ags
Ġd est
Ġa bs
ĠC ard
un g
Ġcomp onent
ĠS he
ĠS har
et hylene
per form
ĠM em
ĠM ain
ĠM ass
ĠM erch
ĠM att
ĠA TM
tr ict
le f
ĠP C
iv ely
Ġcon vers
Ġg re
est s
st one
ir ius
clud ing
ĠR enewables
ĠE p
ĠE astern
ĠN ash
Ġde g
Ġde partment
Ġh air
Ġfor ms
Ġn ear
ĠF ire
ĠF inancing
ĠF iber
Ġe vent
Ġe arn
Ġe very
ĠH il
ĠH ill
ĠH VAC
Ġl ithium
ĠO thers
ĠG erm
am m
am ics
ac o
ac ing
ĠW orth
og en
ĠL ight
ĠL aur
ĠL itt
Ġv inyl
ĠJ o
Ġdis t
ib r
Ġac cept
ĠU nit
Ġst abil
ric e
Ġcommercial izing
Ġpl ay
Ġpl astics
Ġpl umbing
uc iary
ill y
Ġex cess
ĠSt reet
ack s
ĠK r
ĠK ore
Ġco il
Ġco ated
ĠV iew
ĠV illage
Ġcr uise
pt on
enc es
ant on
Ġcont act
Ġprim e
our s
Ġgener ated
ass et
Ġact ion
ĠDe partment
ĠInd ia
ĠInd ian
ĠInd iana
Ġport able
Ġpre vention
ĠAn imal
Ġhome building
ph ones
Ġintegr ity
ĠCh ain
ĠCh annel
ĠMar riott
ĠMid land
Ġdistribut e
ĠTh ings
Ġro d
Ġro t
Ġro om
Ġbo oks
ĠRes ort
Ġmet ropolitan
Ġapp s
Ġ197 7
Ġ196 1
Ġ196 5
ish ings
Ġem issions
Ġdr ivers
Ġmon et
Ġat tract
ord in
Ġexp and
ĠAd d
ĠAr k
ĠDis covery
ĠElect rical
Ġhy per
Ġgovernment al
Ġint ends
Ġdi abetes
ĠEx pl
ĠEx press
Ġj et
inc ome
ĠPr in
Ġconnect s
Ġ195 7
Ġemploy ers
ĠSu per
Ġcell s
Ġover head
ĠEd ison
Ġlic ensed
Ġinstru mentation
rop box
Ġfil ters
eng th
Ġgroup s
ĠGre ater
ĠOr igin
ĠBl ue
Ġliv estock
Ġpoly mer
ĠEngine ering
ĠApp le
ĠSm art
az ard
Ġdo ugh
Ġrec ruit
cycl es
Ġdet ect
Ġpack age
Ġprotect ive
Ġcateg ory
Com merce
Ġcy ber
Ġcat ers
Ġpain t
Ġhydro gen
Ġflo or
Ġflo oring
ĠNor thern
Ġnutr itional
Ġ202 0
Ġsyn d
Ġsen iors
Ġvol unt
Ġclos ed
cons umer
Ġten ant
Ġten ants
Ġseal ing
ĠCle veland
Ġcomplet e
Ġcomplet ion
Ġphysic ians
Ġpartn er
Ġmov e
ĠCru ise
ĠRed wood
Ġbeh avior
ĠAccess ories
Ġderiv ed
Ġtub ing
Ġaff luent
Ġemer ging
Ġworkf low
Ġworkf lows
Ġcollab oration
ĠSam uel
ĠAlex ander
Ġshar ed
ĠFre ight
Ġroyal ty
Ġrelations hip
Ġlubric ants
other ap
Ġship s
Ġtank s
Ġfacilit ate
Ġimpl ant
Ġpolic ies
Ġdisp ensing
gi ene
ĠTel evision
ĠRel ated
ĠRestaur ant
Ġorth op
Ġliquef ied
ĠInstru ments
Ġmem ory
ĠRy an
ĠJackson ville
alyst s
Ġchem istry
Ġmess aging
Ġsepar ate
ĠWy oming
ĠJon athan
Ġspons ors
Ġchic ken
ĠPatric k
Ġecos ystem
ĠWind ows
ĠAnnu ities
Ġpharmac ies
Ġspr ay
Ġseam less
Ġdesk top
resp ond
Ġess ential
ĠNash ville
ĠKore a
Ġvolunt ary
0 0
A S
B T
C A
C r
C enter
E IT
F r
N ational
N orth
P O
P U
S p
b ons
b ury
c ed
c ip
d ers
f t
h ire
h ood
l ation
l ake
m n
m y
m at
n el
s ter
s ure
t and
t al
u k
u ing
u ally
v id
w ar
Ġ es
an it
an ine
in er
er e
en o
on ey
Ġs ulf
Ġs ourcing
Ġs anit
Ġt icket
at ial
at ch
Ġin sur
al ph
al ach
Ġc ab
Ġc orn
Ġc eil
Ġc alled
ro it
ic ks
or ial
Ġp ool
Ġf le
ĠT ire
ĠT echnical
ĠT uls
ĠT ampa
as te
it is
Ġthe y
ol ef
Ġm y
Ġm ine
Ġm ax
Ġpro f
re a
re c
re l
Ġw af
Ġw riting
Ġw here
Ġb ot
Ġb asic
Ġcom m
Ġd at
Ġd og
Ġd ig
Ġd ivid
Ġd ining
Ġd uring
Ġd aily
ĠC ell
ĠC lear
ĠS ub
ĠS irius
il ar
et al
id ing
id ney
Ġhe at
ĠM S
ĠM er
ĠM us
ĠM ate
ĠM obility
ĠM GM
ĠA er
ĠA ud
Ġth ose
Ġth ese
Ġen comp
tr on
tr uckload
le wood
Ġre in
Ġre cept
ĠP an
ĠP at
ĠP ol
ĠP ars
Ġcon ver
Ġcon nection
Ġg ath
est on
ĠB us
ĠB ut
ĠB est
ĠB ill
ĠB ru
ĠB arn
st ant
st ore
ĠR un
ĠR em
ĠR ale
ĠR isk
ĠR uss
ĠE ar
ĠE ver
ĠE ll
ĠN ord
Ġde p
Ġh ist
Ġn it
ĠF amily
ĠF actory
ĠF edEx
Ġe y
ĠD es
ĠD un
ĠD omin
ĠD ropbox
ĠH all
ĠH ouse
ĠH ousing
Ġl ives
ĠO R
ĠG u
ĠG en
ĠG ar
ĠG reg
ac ob
act er
op y
ĠW are
ĠL ee
ĠL aw
ĠL incoln
Ġoff ered
im mune
Ġprovid ed
os h
Ġdis crete
Ġmarket ed
Ġmarket places
ap or
Ġdevelop ed
ay er
all eng
all urgical
Ġpl ates
port able
Ġex ternal
Ġex clusive
Ġad just
Ġwith out
ain age
ĠCom pos
gr ade
ĠSt ore
ĠSt ores
Ġgas tro
ĠK S
ĠK le
ĠV ent
ĠV iv
anc y
ition ing
pl us
ĠRe c
Ġus es
Ġretail er
Ġstor ing
Ġprocess ed
Ġaut onom
ĠCo st
ĠCo hen
Ġch rom
Ġle isure
cur ed
cur ity
ific ant
ron t
Ġgener ally
Ġsuppl ier
Ġdeliv ered
Ġinter face
Ġinter connect
Ġ18 4
Ġun se
Ġun ique
Ġal located
edit ed
ph y
Ġsubs ystems
Ġref er
Ġsp inal
Ġsp aces
Ġproduc er
Ġmet ab
Ġ197 3
Ġsc ale
Ġsc hed
Ġ196 0
Ġ196 3
Ġem bedded
Ġdr ess
Ġcol le
Ġat tribut
Ġconsum able
eb o
ĠAl an
ĠAr g
ĠComp an
Ġint elligent
cre ation
Ġmod els
ĠEx change
Ġcompr ised
ĠSc ience
Ġcer amic
ĠAll state
ind ers
Ġorigin ates
Ġorigin ated
Ġorigin ating
Ġful fill
Ġ3 6
ĠPr inc
ond s
ĠBr ad
Ġme als
Ġme zz
Ġcomb at
Ġ192 3
Ġ192 9
Ġ194 7
Ġ190 2
Ġ190 3
Ġfil ter
Ġ193 9
ĠReg ional
Ġenviron ment
ĠMin erals
Ġoptim ized
ĠFl uid
Ġfunct ional
ĠMon t
Ġland sc
Ġpoly mers
ĠApp alach
ĠAir lines
Ġliquid ity
Ġmerchand ising
Ġph ones
ĠLouis ville
ĠLouis iana
Ġinnov ation
ĠHar ris
the tic
Ġsens or
oll ar
ĠHosp ital
ĠHosp ice
Ġsho es
cent ric
Ġimmun otherap
Ġcor rugated
Ġaud it
Ġtarget ing
ĠAg ency
Ġrad i
Ġstud ent
ĠEnterpr ises
Ġauto immune
Ġsyn thetic
Ġacc eler
met ics
Ġvol tage
Ġbiolog ic
Ġpot ential
Ġprote ins
elect ric
Ġutil izing
Ġsupp lements
Ġexec utive
Ġbatter ies
Ġfib ro
Ġmemb ers
ĠCru ises
Ġreserv oir
Ġproc ed
Ġbeh alf
Ġrespons e
Ġrespons ible
Ġpark s
Ġpark ing
Ġdivision s
ĠBlo ck
Ġemer gency
Ġaggreg ates
Ġprop ane
ĠMill er
ĠCoun ty
aff ic
Ġpan els
Ġbal ance
ĠSpecial ties
ĠInterm odal
ĠBur lington
Ġlend ers
Ġteleph one
ĠEmploy ee
Ġcos metics
Ġfurn ishings
Ġbear ings
Ġvis ual
ĠKe ith
ĠEng lewood
ĠWire less
ĠKent ucky
Ġunders tand
Ġcondens ate
Ġampl ifiers
Ġrede velopment
ĠHawai i
Ġsupplement al
Ġcertific ates
Ġveter inary
ĠMcL ean
adem ic
Ġremot e
ĠDet roit
Ġlimit ed
ĠWay ne
ĠAnton io
ĠAcqu isition
Ġfid uciary
ĠMerch ant
lef ins
Ġconvers ion
ĠGerm any
ĠLitt le
ĠExpl oration
Ġorthop edic
respond ent
ĠTuls a
ĠMate o
Ġencomp asses
ĠRale igh
Ġunse cured
Ġsched ul
Ġmezz anine
A T
A n
A tl
B io
C E
C I
C al
D C
E X
E qu
G r
I P
M I
P L
P r
P ar
P ay
P oint
R eg
S E
S T
S et
S ervice
T C
T el
a pp
b ia
b uilt
c es
c el
d uty
e curity
f ers
f iger
g ed
g ame
h al
h igh
i ke
i pping
l an
l ig
l ie
m e
n ity
o co
p or
p ur
p ts
p rem
r ence
r ix
s ed
t z
t echnology
u pl
v ing
v ale
w all
Ġ $
on ic
he astern
Ġs port
Ġs izes
Ġs ize
Ġs pec
Ġs leep
Ġt ech
Ġt um
Ġt urb
Ġt eller
al uation
Ġc ig
Ġc annabis
ro g
ic ated
or ne
or izon
ar es
ar on
ar ed
ar ms
Ġp ick
Ġo x
Ġo cean
ing er
is cell
ĠT V
it co
ol ing
Ġm at
Ġm ag
Ġm iss
Ġm iscell
ĠI V
Ġse af
re ad
Ġw orth
Ġw arr
Ġb ed
Ġb io
Ġb ath
Ġb uses
Ġb ench
Ġb aby
Ġd ess
Ġa ims
ĠC er
us er
el lect
ĠS k
ĠS ens
ĠS ho
ĠS nap
ĠS VB
et te
ad ian
ad just
qu a
erv e
lo x
ĠM en
ĠM at
ĠM eas
ĠM ission
ĠA RO
Ġth an
Ġth is
le vel
ch anges
Ġre b
ĠP op
ĠP ow
Ġto x
Ġto get
Ġg ains
ĠB er
ĠB ir
ĠB uy
ir l
ir ts
ĠR V
ĠR ub
ĠR alph
ĠE st
ĠN ort
ĠInc ome
Ġfor ce
Ġn umber
ĠF in
ĠF abric
Ġe ach
Ġe gg
Ġon shore
ĠD er
ĠD ur
Ġr aw
Ġr anging
Ġr apid
Ġl aw
ĠO ral
ĠG ap
ĠG ary
ĠG rand
em ark
act ion
act Set
op her
og le
ust ion
Ġv it
Ġv ascular
Ġv apor
os ter
od d
ĠJ acob
Ġdis coun
if f
ot ts
um e
Ġac id
Ġind oor
ay ton
iz er
iz za
Ġlo dging
truct uring
ĠPro te
ĠPro gram
Ġtrans it
Ġres ins
Ġex ter
Ġad ult
Ġel ements
Ġ( âĢľ
igh bor
ĠK Y
ĠV inc
ĠRe insurance
ĠRe creational
Ġcr ed
av en
Ġcl ubs
ener ation
ener ative
Ġch alleng
iss ipp
Ġle verages
ant age
Ġown er
oc a
Ġsell ers
ru pt
Ġgener ate
ov ing
osp h
Ġsuppl iers
ey er
ĠFr ance
ous es
Ġinter active
Ġpower ed
Ġengine ers
Ġclo sures
Ġsm oke
ian o
ĠMar cus
Ġlife cycle
Ġsh op
Ġsh ale
Ġsh ipping
Ġreg istered
Ġsp anning
air s
Ġtreat s
Ġins ulin
com m
Ġ196 4
ten ant
Ġdr ainage
Ġwork ing
Ġcol d
Ġmon th
Ġpat ent
ĠAl aska
Ġexp lo
Ġpur ification
ĠDis trict
Ġprogram ming
Ġint ellect
Ġval uation
par ed
Ġar c
ĠPl ano
ĠCl inical
ĠEx p
yn n
ĠAf termarket
Ġk itchen
ĠBr ent
Ġcond omin
Ġhosp ital
Ġ195 6
Ġ195 8
Ġpharmaceutical s
Ġemploy er
Ġcomb ustion
yl inders
Ġam en
Ġam ong
Ġam mon
Ġam bulatory
Ġnot ebo
Ġ192 0
Ġ192 8
Ġgr ain
ĠCr ude
ĠCr itical
ĠPh ot
Ġrepres ent
Ġsur f
Ġclean ers
Ġup grad
Ġcanc ers
Ġwe ap
Ġcompos ite
ĠMon ica
Ġdeal erships
Ġmeas ure
Ġred uc
ĠAir port
Ġvac uum
Ġ189 7
ĠRef ined
ĠAnd erson
ĠMet als
ĠLe on
Ġpack ages
Ġsign ificant
Ġvir us
Ġfranchise es
log y
Ġcandid ate
ĠWal ter
ĠWal mart
Ġassist ed
Ġper ipher
Ġstud ents
ĠWorld wide
res idential
Ġy ear
Ġsk illed
Ġbuy ing
ĠPort land
ox y
Ġsim ilar
Ġrequ ired
Ġwind ows
Ġbiolog ical
Ġbiolog ics
Ġcentral ized
Ġpot ato
ĠPer u
ĠWood lands
Ġeffic ient
Ġpasseng ers
ĠPaper board
Ġdispos al
ĠSun ny
ĠPet ro
ĠRest on
Ġterminal ing
Ġcompo und
Ġreserv es
ĠLab or
ĠTre asury
ĠMac ao
ĠBar b
ĠFor est
Ġdef ined
Ġtrack ing
Ġfragr ances
Ġmill ion
ĠSB U
ĠSa aS
Ġconcentr ates
ĠLoc ker
Ġcontin u
Ġroyal ties
Ġfin ished
ĠAdvis ory
ĠOwn ed
Ġtransm its
Ġpetrochemical s
Ġbak ery
ĠMor ris
ĠInvest ors
Ġrobot ics
oin ts
oul try
Ġtur f
urch ase
ĠHand ling
ĠHol ly
Ġelectrom agnetic
ĠBroad cast
Ġhost ing
Ġlever aged
ĠChrist opher
cont rolled
Ġdiagn osis
Ġwareh ousing
Ġantib ody
bers ecurity
inv estment
Ġinit ial
Ġbrid ge
ĠSubs cription
ĠRent als
ĠRog er
ĠNic hol
Ġdiscover ing
Ġplace ment
ĠStan ley
ĠExec utive
Ġobject ive
Bl ack
ĠHow ard
Ġvess els
Ġfeat ures
Ġimplement ation
Ġcult ure
ĠMatt hew
ĠHil figer
azard ous
Ġbehavior al
Ġmax im
Ġdig it
Ġgath ers
Ġautonom ous
ĠCompan ies
ĠAppalach ian
por ary
Ġturb ines
itco in
Ġmiscell aneous
Ġseaf ood
Ġbench mark
adjust ed
ĠMeas urement
Ġtoget her
issipp i
Ġintellect ual
Ġcondomin ium
0 1
A D
A I
A x
A ir
B o
C C
C h
C l
C ol
E L
E urope
F i
F amily
G en
G roup
G lobal
I V
O r
O EM
P h
R S
S I
S c
S h
S un
S tr
T V
U S
U p
a it
a ud
a um
c he
c ut
c lo
d ent
d is
d eg
e ed
e ing
f ul
h and
i mer
i ot
m able
p y
s i
s ide
t ech
t ive
u art
v iew
w an
y sis
z y
Ġ ath
an i
an ty
an itor
in i
er land
es ter
en z
Ġs l
Ġs er
Ġt im
Ġt ires
at ography
Ġin ternal
Ġc ater
Ġc art
Ġc amp
Ġc ases
ent ina
ro s
ro y
ic he
ic ate
or ms
Ġp ork
Ġp erson
Ġp oultry
ion e
Ġf inan
Ġf ashion
is cons
ĠT e
ĠT ank
ĠT ob
ĠT odd
as y
as ma
om ot
om field
it u
it ation
Ġm erg
Ġm ail
Ġm aster
ĠI Cs
ĠI oT
Ġse at
Ġse ts
Ġpro fit
re ct
re ll
Ġb ott
Ġb aking
Ġb onds
ag ering
Ġd erm
Ġd oor
Ġa uction
ĠC D
ĠC N
ĠC V
ĠC ra
ĠC amp
ĠC opper
us et
us ts
el d
el p
el and
el ing
el ting
un k
un ting
ut s
ĠS ol
ĠS kin
ĠS elf
et ry
ad es
ad ed
ad itional
qu e
ĠM C
ĠM os
ĠM agn
ĠM ills
und ry
ĠA t
ĠA very
ial ysis
ĠIn n
Ġen sure
tr ates
le v
Ġoper ator
ĠIt al
ch annel
ce pts
Ġre ports
ĠP ublic
ud er
iv ery
Ġcon vey
Ġg ate
Ġg ame
Ġg old
Ġg raphics
est he
ĠB on
ĠB or
ĠB ern
ĠR od
ĠR oll
ĠR EIT
Ġas surance
ĠN av
Ġde partments
ĠF il
ĠF lo
ĠF ree
ĠF arm
ĠF alls
Ġe astern
ĠD ul
ĠD rug
ĠH ay
ĠH ew
ĠH ard
ĠH unt
Ġr is
Ġl amin
Ġl uxury
ĠO m
ĠO ne
ĠO reg
ĠO pen
ĠG ord
Ġcons ol
ac ute
ĠW iscons
ig ur
ĠL ine
ĠL ow
ĠL ond
ĠL iqu
ĠL NG
Ġtr ial
Ġtr im
Ġtr affic
Ġtr usts
ip ally
ect or
Ġsu gar
od ing
Ġdis tr
Ġdis tin
if ications
ure th
ib ers
ib ility
ap s
Ġinv asive
Ġac ademic
ufact ured
ay lor
all ing
Ġan n
ric k
Ġpr edic
Ġtrans fers
Ġres ist
uc le
Ġex tr
Ġex cluding
io xide
Ġel iminations
ĠSt uart
ĠK en
ĠK itchen
pr a
Ġelect r
Ġhealth y
ĠV en
ĠV ideo
ĠRe pair
Ġcr y
av is
ast ate
Ġretail ing
Ġcl ub
Ġest abl
ear ning
ĠCo oper
Ġch arter
Ġch ips
Ġch ocol
ĠNew ark
ob e
af ts
enc ing
ĠTr uck
ĠTr uckload
Ġoil field
Ġgener ic
Ġgener ators
ov en
osp atial
ĠSe ab
ĠFr esh
Ġag ent
Ġinter state
Ġ18 3
Ġim age
ann ers
Ġun ified
Ġun met
ĠAn th
ph is
ĠCh ris
Ġfr aming
ian g
Ġair line
Ġair lines
Ġsubs ea
ach uset
Ġins ect
ĠTh ird
ĠTh ermal
Ġbo ard
Ġne ighbor
ĠRes ource
com b
ĠCan adian
coun ter
Ġserv er
Ġwork s
Ġwork place
Ġtrad emark
up s
eb r
ĠAl to
ĠAl bert
Ġdepos ition
Ġpur s
ĠAr t
ĠPl an
man aged
ĠSc ientific
ĠSc otts
Ġstr ip
Ġstr ength
Ġk now
ind er
Ġdeposit ory
Ġj anitor
Ġcontract or
Ġcontract ing
ĠWest lake
Ġste am
Ġme al
Ġemploy ment
se gment
ĠBro ok
Ġam oun
ĠChic ken
Ġgr ills
In s
let t
let ic
arn er
unct ion
Ġcomput e
Ġ194 5
au x
Ġcre ation
Ġcre ates
Ġcre ative
ĠPh ill
Ġ193 7
ĠAss oc
sc aler
ĠBo eing
Ġchann el
Ġup stream
off ice
Ġ191 8
Ġcollect ions
Ġdeal er
ĠCal vin
Ġqu ick
Ġaltern atives
Ġ188 2
Ġ188 3
Ġ188 6
Ġtarg ets
ĠPark er
ĠRo yal
Ġchar acter
ĠMet al
ĠLe isure
Ġty pe
ĠInter active
Ġimmun e
Ġshe lf
Ġcor respondent
Ġcor rect
ĠIns ight
Ġenh anced
Ġver ification
Ġcoll ateral
Ġper ish
ĠNor walk
Ġnutr ients
ĠOpt um
ĠGr ill
ĠPhil ip
Ġfund ing
Ġtransform ing
St ar
Ġsim pl
edi ates
Ġmotor cycles
Ġsustain ability
Ġsch ool
ĠDel ivery
Ġclos ing
Ġlow er
ĠMot ion
Ġtow ers
Ġdispos able
Ġexec ution
bor ne
Ġpartn ership
ĠMiss issippi
ĠLab s
Ġprinc ipally
ĠVal ley
Ġassemb ly
ett es
ĠRob lox
Ġmodel ing
Ġlas ers
erman ent
Ġshar ing
Ġtext ile
ĠTem pe
ĠPal o
ĠLoc al
Ġauth ent
ĠAP AC
ĠAct ive
Ġcook ing
ĠAdvis ors
oth y
Ġsil icon
ĠSo cial
ĠAmer en
ĠInterm ediates
Ġgear s
Ġless er
ĠOwn ership
ĠFred er
Ġbox es
Ġpul mon
ĠTerm in
Ġrem ov
Ġrig id
ĠGo ogle
Ġloss es
Ġfraction ation
Ġinhib itor
ĠTur key
ĠTim othy
Ġeconom ic
ĠRefriger ation
product s
Ġidentify ing
Ġpublish es
Ġul tra
Ġedit ing
ĠLic ensing
Ġprec ious
Ġflav ors
Ġinfect ious
ĠSqu are
Ġextract ion
Ġunif orms
Ġreflect s
âĢĿ )
Ġreceiv ables
Cons umer
Ġps ych
ĠTom my
perform ance
ĠMem phis
ĠMass achuset
ĠIndian apolis
ĠAdd itives
Ġrecruit ment
Ġes c
Ġfle ets
rec iation
Ġwaf er
Ġdivid ends
Ġrecept or
ĠWare house
ĠLaw rence
ĠCompos ites
ĠKle in
ĠViv int
ĠCost a
ĠArg entina
Ġfulfill ment
Ġschedul ed
Atl antic
Ġtum ors
Ġcig ar
Ġwarr anty
ĠPow der
Ġdiscoun t
Ġexter ior
Ġmonth ly
Ġamen ities
Ġweap ons
ĠSunny vale
ĠHolly wood
Ġath letic
Ġderm at
ĠOreg on
ĠGord on
ĠWiscons in
ĠLond on
Ġdistin ct
ĠScotts dale
Ġjanitor ial
Ġamoun ts
ĠMassachuset ts
A g
A ut
A ME
B M
B U
B r
B ank
D G
D S
D igital
E N
E V
F T
I M
J ack
L ife
M A
M er
M ax
O N
O P
R F
R P
R o
S P
S outh
T R
T ex
W e
a im
a ver
a uc
a ult
b l
c ium
c ules
d y
d es
d on
d em
d ge
d eal
e at
e ks
f ort
f eld
g or
g est
h an
i ates
i atives
j et
j ac
j amin
l ers
l ight
l astic
l amm
m o
m ile
m outh
m etic
o D
o ter
p re
p et
p son
p oint
r as
s tr
s ale
s oft
t le
u an
u ch
u ate
u rom
u ators
u ora
v al
x ford
y ours
Ġ et
Ġ uro
Ġ ice
in ity
in ine
er b
er rit
es lie
on ol
on ics
Ġs y
Ġs us
Ġs ter
Ġs tain
Ġs cr
Ġs outh
Ġs ource
Ġs we
Ġs peed
Ġt able
Ġt ake
Ġin patient
al i
al o
al ified
Ġc ase
ent on
ro t
ro st
ro wn
ic ians
or gan
ed ics
Ġp ol
Ġp od
Ġp edi
Ġo mn
Ġf actor
Ġf ront
is al
is ms
ĠT ot
ĠT ow
ĠT urn
as ta
as ia
as ks
om y
it a
it age
it igation
Ġm ay
ĠI A
ĠI M
ĠI re
ĠI ow
ĠI da
Ġse paration
Ġse ek
Ġse eks
re ady
Ġw alls
Ġb one
ag er
Ġd om
Ġd ioxide
Ġa esthe
ĠC at
ĠC ir
ĠC ement
us ions
el ine
ation ally
ut ics
Ġcomp et
ĠS il
ĠS ite
ĠS her
ĠS ame
ĠS ensing
il d
il lo
et a
et ate
et ics
ur ies
qu ality
erv er
Ġcompan ion
id ation
ĠM ag
ĠM aterial
ĠM aur
ĠA D
ĠA MC
ĠIn nov
Ġth in
Ġen velop
tr ong
le ase
ch ip
Ġre pos
Ġre cover
Ġre mod
Ġre portable
Ġre creation
ĠP um
iv etr
gag e
Ġcon vert
Ġcon cept
Ġto tal
est ig
est inal
ĠB D
ĠB all
ĠB ased
ĠB ey
ĠB urg
ĠB ah
ĠB uff
ĠB oca
cl ass
cl inical
st ar
Ġman y
ir al
ir its
ĠR I
ĠR aton
ĠR eno
ĠE van
Ġas p
ĠN H
ĠN u
ĠN uclear
Ġde m
Ġde ter
Ġh os
Ġh aul
Ġn av
Ġn ext
ĠF ast
ĠF ish
ĠF lex
ĠF itness
ĠF actSet
ĠF oster
Ġe Commerce
ĠD on
ĠD ental
ĠD yn
ĠD ollar
ĠH P
ĠH el
ĠH ut
ĠH ers
ĠH art
ĠH ong
Ġr a
Ġr ents
Ġr atings
Ġl ast
ĠO lefins
ul u
ĠG ib
ĠG ood
ĠG eral
Ġcons olidated
ac le
em nity
em inine
op e
op h
op ic
ĠW ine
ĠW olf
ĠW elding
og n
ĠL am
ĠL if
ĠL akes
ĠL iberty
ab ama
im ens
ust ic
Ġsu ff
Ġv an
os c
od on
od ies
ĠJ er
Ġdis contin
if t
if er
olog ic
olog ists
ap ore
ver ly
um es
um ina
Ġind irect
ĠU K
ell i
yst al
Ġst able
Ġst ability
form atics
all ic
Ġcommercial izes
Ġpl ate
truct ures
sur g
Ġtrans formation
Ġtrans par
uc ker
ill ers
ill ance
Ġex port
Ġex cept
Ġex changes
ign al
Ġad ults
erg lass
ĠCom mod
gr ess
Ġel ast
har t
ĠK im
ĠK ap
ĠK ong
art z
pr int
Ġco ating
ĠRe cycl
ĠRe habilitation
ĠEn d
Ġfocus ing
ly ing
pt ion
work s
fr ame
ood y
ĠCo b
Ġch ip
ĠNew port
cur r
ist ed
ist ar
ron ically
ail ored
uil der
ĠDe al
ĠDe velop
Ġag ile
Ġinter ventional
Ġport ion
ĠCons um
ĠCons olidated
ann er
Ġpre ferred
Ġpre pared
Ġbe er
Ġun ions
Ġun con
Ġun branded
Ġun mann
Ġal lowing
Ġal ign
Ġal loc
Ġal cohol
ĠAn cillary
els on
Ġsecur it
Ġadv ance
ĠMar sh
Ġsubs trates
ee p
Ġsh ops
Ġreg istration
Ġsp ine
Ġins ight
Ġro ad
Ġro le
Ġro ads
Ġbo ards
Ġne cess
Ġne urom
Ġcar ry
Ġmet ro
Ġapp reciation
Ġserv ers
loy d
loy s
Ġpersonal ized
Ġdr ives
ĠCon vers
urg ent
Ġtrad es
pro p
Ġhigh ways
ord er
ĠAl abama
ĠAl loys
Ġexp edited
ĠAd min
ĠAd hes
ĠAd obe
int estinal
bo ro
Ġhy giene
fer ence
ivers al
Ġresearch ers
Ġtel em
ĠCl imate
ĠEx t
ĠEx cess
Ġspecial ties
Ġcompr ising
Ġcer eal
Ġk idney
ĠSte in
ve illance
Ġj u
Ġsupply ing
ĠZ scaler
ĠDav e
ĠGas es
arg et
Ġconnect ors
ĠLo an
Ġneed ed
ĠMex ican
Ġexpl ores
her lands
Ġcomb ined
ĠNetwork ing
se ment
Ġwire line
orn ing
Ġsem i
ah a
ĠEqu ities
Ġ192 4
Ġ192 6
Ġ192 7
Ġover haul
Ġgr an
Ġimpro ved
Ġinstru ment
Ġ194 1
Ġ194 4
ern er
ms trong
Ġche ese
Ġsur veillance
Ġsub ordin
ĠReg ion
ĠAss ets
ĠGre at
load s
ĠFl av
ĠOr th
Ġup per
ĠAtl antic
oun g
oun t
Ġwe ather
Ġ191 7
board s
ĠClo sed
ĠMon ro
Ġpaper s
Ġmeas uring
Ġred uction
ĠSch w
ĠApp arel
Ġbuild ers
ĠEl iminations
az ines
Ġinf usion
Ġinf lamm
Ġtherm op
Ġgen es
Ġform ulations
Ġtelevision s
Ġmin im
Ġmin erals
Ġdet ached
ai wan
Ġdif f
ĠNet herlands
pat itis
atter son
ĠInter vention
ĠOff shore
Ġsmart phones
Ġcoll ision
Ġcy bersecurity
Ġrel ates
Ġpain ts
Ġlabor atories
Ġmus cle
ĠSem pra
Ġ202 2
Ġy ield
itt ings
Ġconduct ed
Ġchil d
ĠX M
Ġsim ulation
Ġarchitect ure
En ergy
bur sement
ming ham
Ġmajor ity
Ġpres cription
power ed
ĠPer ry
ĠWell ness
Ġutil izes
ĠHy att
Ġappli ance
ipp any
Ġsal ads
Ġpric es
Ġmov ing
ĠLeas e
Ġfib ers
Ġfib erglass
ĠPre ferred
Ġext ent
ĠGreen wich
TE C
Ġmix es
Ġbet ter
Ġmanag er
Ġderiv atives
Ġperform ing
ĠRos en
ĠRob ot
Ġrent ers
Ġrent als
Ġbranch es
Ġcollab orative
kee ping
ĠAlex is
ĠGl en
ĠLa uder
Ġadhes ive
led ge
ĠIs land
ĠSB A
ĠPal m
ĠNe uro
ĠFre mont
ĠAP I
Ġimpl ants
Ġpan el
Ġpolic y
Ġpromot e
Ġwall et
Ġbre ad
ĠSpecial ized
ĠEv ans
Ġlend er
ĠWh it
Ġinj uries
Ġpop ulation
ĠTerm inal
ĠTitle ist
ĠWall ace
ĠPack ard
Ġconf igur
Ġelectrom echanical
Ġborrow ers
ĠCustom er
ĠSing apore
ĠMad ison
ĠPrem ium
Ġgo al
Ġstation ary
Ġcover ing
ĠRefriger ated
Ġfert il
Ġfert ility
Ġaer os
ĠStruct ures
Ġcamer a
Ġcamer as
Ġintermedi ate
Ġcust ody
Ġreli ability
ĠPartn er
ĠBen jamin
ĠDenn is
Ġren ov
ĠUp stream
ĠStud io
Ġcapt ure
Ġlicense es
Ġhydrocar bon
Ġswitch es
Ġavail ability
ĠComplet ion
Ġveget able
bro ok
ona utics
Ġintern ationally
Ġmechan isms
Ġbasin s
Ġdest inations
ĠShar p
ĠPC B
Ġdeg ree
Ġmonet ization
ĠArk ansas
ĠOrigin ations
Ġsulf ur
Ġceil ing
Ġbot tl
Ġdog s
ĠMus ic
ĠAer onautics
ĠPars ippany
ĠBru ce
Ġhist or
ĠGreg ory
ĠVent ures
Ġmetab olic
Ġattribut able
Ġ36 5
ĠPrinc ipal
Ġfunctional ity
ĠMont ana
Ġlandsc ape
Ġproced ures
prem ises
Ġmag azines
Ġmiss ile
ĠMen lo
ĠBir mingham
ĠNort heast
ĠProte in
Ġcred its
Ġchalleng es
Ġupgrad es
Ġperipher al
ĠLabor atories
Ġcontinu ous
Ġmaxim ize
Ġser ious
Ġperson nel
ĠCra ig
ĠFlo oring
Ġris ks
ĠOm aha
Ġneighbor hood
Ġtrademark s
Ġpulmon ary
Ġcigar ettes
yours elf
Ġsus p
Ġpedi atric
ĠTurn er
ĠIre land
ĠIow a
Ġenvelop e
estig e
ĠFish er
ĠGib son
ĠGeral d
Ġdiscontin ued
Ġuncon ventional
Ġunmann ed
ĠAdhes ives
1 2
1 8
5 0
A M
A b
A p
A mer
A ll
B O
B est
C ar
C are
C orp
C ap
C ell
C ola
D A
D r
E m
E ver
F P
F ederal
F rog
G R
G as
G ener
I oT
J X
K E
L P
L ab
L iberty
M c
M at
M obile
M BS
N M
N or
O W
O X
P ark
Q u
R T
R x
S S
S u
S al
S ch
S ign
S urg
S yn
T I
T AC
V ir
W S
W ill
a ic
a cial
b an
b urn
c as
c il
c ery
c ars
d o
d ependent
e als
e com
f ood
g y
g ers
g round
g eneration
h omes
h att
i j
i gment
i ant
i atric
l s
l ac
l ay
l ink
l eston
m ic
m oving
n ed
o ro
o om
o ist
o elect
p le
p ay
r am
r ine
s b
s ource
t ar
t ile
u a
u lo
u age
u eller
v o
v age
w ealth
w ave
y ps
y wood
Â ®
Ġ -
Ġ arter
Ġ iron
Ġ mental
Ġ urgent
in as
in ter
in ney
er rous
es try
and ler
en ia
en gine
on to
Ġs porting
Ġs now
Ġs iding
Ġs itu
Ġt act
Ġt errit
Ġt ailored
Ġin fras
Ġin ject
Ġin formatics
al ing
al coholic
Ġc ities
Ġc ast
Ġc ream
Ġc ats
Ġc ylinders
Ġc oding
ent ion
ent ly
ent ry
ro r
ic ts
ic iency
ic ides
or b
or ding
ed y
ed er
ed om
ed ge
ed iation
ar is
ar ding
Ġp il
Ġp av
Ġp ants
Ġp ads
Ġp ione
Ġp ermanent
Ġp igment
Ġo vers
Ġf ans
Ġf ail
Ġf ix
Ġf ishing
Ġf actory
Ġf ittings
Ġf errous
is er
is ers
is le
ĠT ub
ĠT ree
ĠT ier
ĠT issue
ĠT erry
ĠT owers
ĠT aylor
ĠT aiwan
ĠT JX
om otive
om bia
it o
it as
it ime
it che
ol ver
ol ta
Ġm ile
Ġm ember
Ġm ills
Ġm akes
Ġm agnetic
ĠI H
ĠI dent
Ġse a
Ġse ed
Ġpro ble
re es
re en
Ġw alk
Ġw ired
Ġw iring
Ġw agering
Ġb ur
Ġb est
Ġb urg
Ġb ird
Ġb arg
Ġb illing
Ġb rew
Ġb itcoin
ag en
Ġcom mon
Ġcom fort
Ġa ux
Ġa partments
ĠC in
ĠC as
ĠC it
ĠC all
ĠC ash
ĠC ry
ĠC offee
ĠC ivil
ĠC annabis
el o
el ig
el ry
el man
el etal
ĠS C
ĠS en
ĠS und
ĠS ta
ĠS cr
ĠS ug
ĠS ingle
ĠS erver
ter o
ter y
et on
et ty
per son
ad v
ad ark
ad min
uct ions
erv ation
erv ous
id er
id ge
Ġhe aters
Ġhe dge
Ġfo am
ĠM ir
ĠM ach
ĠM illing
ĠM ason
ĠM itche
ĠA X
ĠA k
ĠA th
ĠA rea
ĠA aron
ial ly
ĠIn f
th m
th es
th al
ess ment
ch arg
Ġre im
Ġre ach
Ġre man
ĠP as
ĠP ass
ĠP ost
ĠP ep
ĠP hys
ĠP rice
Ġfound ations
Ġcon st
Ġcon vention
Ġto wn
Ġg l
Ġg ar
ĠB ed
ĠB ates
ĠB ig
ĠB erg
ĠB ack
ĠB ak
ĠB ry
ĠB alt
ĠB aby
st reet
ir it
ĠR and
ĠR ad
ĠR am
ĠR ace
ĠR ica
ĠE N
ĠE th
ĠE vent
ĠN avy
ĠN ebr
Ġde ep
Ġde grad
Ġh ors
Ġfor estry
Ġn ervous
ĠF X
ĠF ol
ĠF und
ĠF rozen
ĠF uels
ĠF ashion
ĠF OX
ĠD ale
ĠD ubl
ĠD edicated
ĠH I
ĠH u
ĠH om
ĠH orizon
ĠH onol
Ġr ub
Ġl et
Ġl isting
Ġl ayer
ĠO G
ĠO N
ĠO t
ĠO w
ĠO cean
ĠO GE
ĠO xford
ĠG h
ĠG ard
ĠG ear
ĠG ame
ĠG PU
em an
em ia
em ploy
pp lement
act ors
ĠW o
ĠW r
ĠW at
ĠW ond
ĠW ang
ĠW arr
ĠW ynn
og a
og as
ig m
ĠL ap
ĠL ew
ĠL ex
ĠL eg
ĠL iving
ĠL TL
ĠL earning
ĠL eslie
ĠL loyd
ab ly
im ore
im ately
Ġv ans
ĠJ im
ĠJ erry
ĠJ BT
ĠJ uan
Ġdis cip
if orm
olog ics
ib u
ib usiness
ta h
um ar
for ced
Ġac com
ĠU tah
ell a
Ġst im
Ġst art
Ġst one
iz ations
Ġan ch
Ġan hy
inan t
ric ut
ew s
ew elry
Ġpl ays
Ġpl asma
Ġpl ywood
ens ity
Ġpr estige
te k
te x
ĠPro vid
Ġres on
co urse
ĠCom mon
Ġel im
Ġel ev
ĠSt ack
mun ity
ack er
ĠK al
ĠK ar
ĠK ings
ĠK ids
pr essure
Ġco insurance
Ġco urs
Ġco upl
ĠV ol
ĠV ision
ĠV ict
ons ored
ons burg
pl y
ĠRe yn
Ġcr anes
Ġreal ity
Ġwell head
Ġstor ed
ly n
Ġappl y
fr ed
ĠCo urse
Ġch at
Ġch ass
Ġch ange
iss ance
Ġle verage
tain ers
rom b
rom e
ist on
ist ors
ĠTr ue
oc acy
out s
Ġcont rolled
ak ers
ak house
Ġcare er
Ġautom atic
ov olta
ĠMan aged
ĠY elp
Ġact s
ĠAs h
hol der
ĠDe c
ĠDe an
ĠSe a
ĠSe cure
ĠNorth west
ĠFr aming
Ġacqu ire
ĠInd ex
Ġinter act
Ġinter ference
Ġport ions
Ġim port
Ġim ages
ann on
Ġpre v
Ġpre tz
ĠAn adark
duc ing
Ġadv ocacy
ph asis
ĠCh amp
Ġair ports
ĠMar cell
Ġpay ers
Ġsh apes
Ġreg ulators
Ġsp as
Ġsp are
Ġbi ology
Ġbi ogas
Ġunder lying
Ġro bo
Ġloc ation
Ġloc omot
Ġcar b
ĠRes erv
ĠRes tructuring
ĠCan onsburg
ra w
ra vel
ra isal
Ġgovern ance
Ġsc ient
ish es
Ġem p
Ġem ail
Ġem phasis
Ġdr ink
Ġwork sp
pro ofing
ev a
ev i
ĠTrans it
hy thm
Ġconsum ption
Ġhigh er
Ġhigh way
ĠAl b
ĠAl uminum
ĠAl fred
ĠAr mstrong
iam ond
ĠBank shares
ĠDis tribut
Ġfl ash
Ġprogram mable
Ġge ospatial
bo ok
Ġorgan ized
fer rous
fer ences
Ġint ensive
cre tion
ĠCommun ication
Ġdi odes
dr aft
ĠPl ans
ĠPl ay
ĠPl ant
ĠCl ark
ĠBe verly
yn amic
Ġcer amics
Ġk ids
ĠSte ve
ĠSte akhouse
Ġadvis or
ĠCol ombia
Ġclinical ly
Ġj our
Ġj ewelry
ĠCar bon
ne um
Ġinc ent
ĠZ uora
ĠPr essure
ĠTex tile
Ġfuel ing
ĠDav is
ri k
ri ers
ang er
ang uage
itor ing
Ġ195 2
Ġent r
Ġme ter
Ġme ters
ĠJan us
yl ene
ĠSu ites
ĠSu pplement
ĠBro oks
ĠSp ain
Ġover draft
ĠEd ge
In t
In ter
In ternational
In ternal
Ġ194 8
Ġlong er
Ġ190 1
Ġ190 4
Ġ190 5
Ġcre ating
ĠPh ase
umb le
Ġ193 0
Ġ193 1
Ġ193 3
Ġ193 5
Ġsur vey
Ġsub mar
Ġsub stant
ĠReg ions
ĠAss essment
sc ar
sc ience
ĠBo at
ĠBo ard
ĠBo ise
ĠBo ok
emb lies
ĠGre ens
ĠOr ange
Ġ191 5
Ġcompos ites
Ġpoly olef
Ġrail road
Ġqu ant
Ġbr akes
ĠEl k
az on
Ġinf ection
Ġph one
Ġdo ct
Ġfoot print
Ġform ing
Ġform ats
Ġ189 2
Ġ189 5
Ġ189 8
Ġ189 9
Ġaltern ate
Ġneuro deg
ĠRef inery
Ġ188 8
Ġ188 9
ĠPark inson
ĠRo y
ĠRo chester
ĠHar ry
ĠHar bor
ĠHar vey
ĠAnd over
the on
Ġchar ge
Ġchar ges
Ġmar itime
ĠMet allurgical
ĠLe ad
ĠPay Pal
Ġlif t
ĠOut fit
Ġmicro b
Ġback ed
ĠInter face
Ġgu id
Ġvir al
ĠUn ion
Ġimmun o
Ġshe l
Ġshe ets
ĠStr ateg
Ġenh ancing
Ġtruck ing
Ġcat he
Ġcat alog
Ġcat alysts
orm al
orm ick
ĠEm bedded
force ment
Ġstream line
Ġclass ified
ĠMedic aid
Ġab ras
ĠAg ricult
ĠHe art
ĠOil field
Ġstud y
ĠAnaly tical
ĠPhil ipp
greg ated
Ġder ives
ĠProt ective
Ġtransform ative
Ġfabric ated
itz man
itz erland
Ġcoun ter
Ġarchitect ures
Ġmen u
ĠIntegr ation
Ġtem porary
Ġthem e
Ġwind ow
Ex ternal
Ġutil ized
ER C
Ġtow els
Ġdecision s
ĠHaw k
Ġpract ice
Ġtermin alling
Ġvertical s
Ġsal vage
Ġpartn erships
ĠSun s
Ġla unch
Ġla undry
Ġtelecommun ication
Ġrecycl ed
ĠWork place
ĠWork force
Ġext ensive
Ġext ended
ĠDev ice
Ġsw im
Ġintr astate
Ġsever e
Ġ186 6
Ġ186 8
Ġ187 5
ĠIm aging
Ġwh en
ĠHer bert
ĠHer cules
ĠHer itage
Ġaggreg ate
Ġcapac itors
Ġvirt ually
Ad v
Ġpos ition
Ġpos itive
Ġmolec ular
Ġiss ued
ĠMult i
Ġsuper markets
Ġprop ulsion
ĠSw itzerland
ĠMod el
ĠMod ules
Ġconcentr ated
Ġbar rel
ĠGold en
Ġfacilit ates
ĠSpring field
Ġsil ver
Ġpromot ional
Ġbre ast
ili ary
ĠMicro soft
ĠBenef it
Ġep oxy
ĠWh ite
Ġstock holders
ĠConnect ed
Ġmethod s
sp onsored
Ġinj ury
Ġpul p
Ġpow der
Ġbak ed
ĠSur face
ĠMy ers
ĠMor gan
Ġrem ain
ĠBi ologics
ĠRay mond
ĠRestaur ants
Ġrest ore
Ġliquef action
Ġteleph ony
Ġparticip ants
Ġrobot ic
Un iversal
def ined
Ġcos metic
Ġbear ing
ĠSand s
ĠGo Health
ĠLi u
Ġroll ing
Ġatt ached
ĠExper iences
Ġrecord s
Ġoccup ational
Ġoccup ancy
Ġsand wich
ĠPe ople
Ġdeploy ment
Ġeconom y
ĠHam pton
Ġlever aging
Ġmodern ization
Ġwareh ouses
vol tage
vest net
Ġturn key
Ġaer ial
ĠCR E
ĠKn oll
Ġinfect ions
Ġbel ts
Ġbow ls
ĠSnack s
Ġhar vest
ĠDenn ison
Ġrun ning
Ġlarg est
ĠGil bert
ĠUp work
ĠStud ios
ĠVac ation
Ġcolor ants
Ġhydrocar bons
Ġavail able
Ġdocu ment
Cent ral
Ġmark ing
Ġwhe el
Ġearn ings
ogen ic
ĠLaur en
Ġstabil ized
Ġroom s
Ġdetect ors
Ġimplant able
Ġspray ers
Ġcab inet
orial ization
Ġprof its
ĠPan ama
ĠPol and
Ġconver ters
ĠRuss ell
Ġnit rogen
Ġey e
ĠDomin ican
ĠGen omics
Ġadjust able
Ġgastro intestinal
Ġchrom atography
ĠBrad ley
Ġimmunotherap y
Ġacceler ate
Ġreservoir s
Ġvisual ization
high way
Ġox y
Ġreb uild
Ġtox ic
ĠVinc ent
ĠBrent wood
Ġammon ia
Ġnotebo ok
ĠLeon ard
ĠPetro leum
ĠBroadcast ing
ĠNichol as
Ġfinan ces
ĠTob acco
Ġmerg ers
ĠItal ian
ĠDul uth
Ġconsol es
Ġdistr icts
Ġann ual
Ġelectr ification
Ġchocol ate
ĠAnth ony
Ġknow ledge
aux ite
ĠAssoc iation
ĠTermin als
Ġremov al
Tex as
jac ent
str ategic
Ġet ch
Ġstain less
Ġscr ap
ĠIda ho
Ġseek ing
Ġaesthe tic
ĠSher win
ivetr ain
ĠBuff alo
ĠHart ford
Ġra ising
Ġsuff ering
odon tic
Ġelast omer
ĠAdmin istration
Ġju ice
Ġthermop lastic
Ġrenov ation
Ġhistor ical
ulo se
yps um
Ġtact ical
Ġinfras tructures
Ġfail ure
olver ine
Ġburg ers
Ġbarg es
Ġaux iliary
ĠSug ar
admin istered
ĠMitche ll
Ġreim bursement
ĠBalt imore
ĠNebr aska
ĠDubl in
ĠHonol ulu
Ġrub ber
ĠWarr en
ĠCommon wealth
ĠReyn olds
Ġchass is
ovolta ic
ĠAnadark o
ĠMarcell us
Ġlocomot ives
ĠDistribut ed
cretion ary
Ġneurodeg enerative
ĠOutfit ters
Ġabras ives
Ġsandwich es
" )
' '
1 4
2 3
6 6
7 1
A A
A G
A Y
A ss
A MC
B C
B R
B e
B ay
B uilt
C F
C G
C N
C as
C ore
D P
D el
D av
D onald
E O
E l
F A
F o
G u
G aming
H ar
H el
H ill
H igh
H ub
H VAC
I Y
I m
K R
L A
L I
L ive
L ink
M y
M an
M on
M as
M id
M od
N I
N u
N ex
N GL
N ext
O C
O n
O ne
P D
P I
P M
P s
P er
P RO
R C
R y
R ing
R ob
S a
S te
S oftware
S mart
T h
T ri
U s
U se
V al
W ork
W orld
W estern
Y N
a es
a mer
a ac
a ub
a wn
a mental
b r
b t
b at
b ank
b our
b ore
b ott
b uy
b den
c at
c ue
c ular
c asualty
c ode
c erts
c Best
c romb
d erground
e z
e it
e ans
e ters
f ect
f rom
f aces
g s
g as
g ate
g ie
g iano
h ite
h azardous
i at
i ar
i as
i per
i ology
k a
k i
k n
l ic
m al
m it
m edical
o ard
o ker
o ose
p an
p ack
p enter
p aper
p ret
p urchase
r x
r ate
r aft
r ban
s w
s ens
s ignal
t ure
t ension
u gment
u ge
v oy
w ash
x imately
y d
y ville
z he
z ard
Ã ©
Ġ +
Ġ ur
an ium
in ational
in ish
er a
er ica
er red
es a
and s
en ergy
on i
on ial
on ucle
he y
he in
he alth
he ld
Ġs pe
Ġs af
Ġs ide
Ġs lot
Ġs ourced
Ġs auc
Ġt echn
Ġt ire
Ġt ick
Ġt apes
Ġt asks
at us
Ġin fr
Ġin cur
Ġin land
al u
Ġc ans
Ġc ush
ent ley
ro id
ic ult
or al
or ac
Ġp est
Ġp ell
Ġp all
Ġp erm
Ġp aving
Ġp izza
Ġp onto
Ġp neum
Ġo ph
Ġo xide
Ġo lig
ion ics
Ġf ric
Ġf ill
Ġf inal
is ker
ĠT A
ĠT i
ĠT al
ĠT ax
ĠT ys
ĠT urb
ĠT RS
ĠT roy
ĠT TEC
as th
as anton
om et
om ers
it r
it ude
Ġthe aters
Ġthe ft
ol ar
ol lo
ol ph
Ġm il
Ġm ort
Ġm issions
ĠI ss
Ġse ven
Ġpro gress
re ty
re pr
Ġw ay
Ġw rap
Ġw holes
Ġw ound
Ġb un
Ġb low
Ġb out
Ġb arge
Ġb attle
Ġb uilt
ag ers
Ġcom mand
Ġd il
Ġd ur
Ġd am
Ġd ay
Ġd ock
Ġd uty
Ġd ialysis
Ġa x
Ġa qu
Ġa ch
Ġa ugment
ĠC K
ĠC ast
ĠC lement
ĠC urt
ĠC ricut
us ed
us ers
el ity
el log
un ts
un ge
un eral
ut es
ĠS M
ĠS al
ĠS ar
ĠS um
ĠS ie
ĠS cre
ĠS afe
ĠS ynd
il an
il ization
il iated
et ary
ad d
ad or
ad ena
erv ed
id ers
id ay
id son
lo ro
Ġhe mat
ĠM T
ĠM r
ĠM ort
ĠM ines
ĠM ixed
ĠM ah
ĠM aid
ĠM echanical
ĠM ilton
ĠM err
ĠM esa
ĠA M
ĠA qu
ĠA id
ĠA st
ĠA gr
ĠA ub
ĠA ero
ĠIn g
Ġth ings
Ġth reat
Ġth orac
Ġen zy
tr aded
le en
le asanton
th reat
ĠIt aly
ch o
ch er
Ġre fr
Ġre market
Ġre comm
ĠP S
ĠP and
ĠP ot
ĠP ork
ĠP orts
ĠP Cs
ĠP oin
ĠP izza
ĠP urchase
ĠP atterson
ĠP leasanton
Ġwas h
Ġfound ation
ud ed
ud son
iv eline
Ġcon tainment
Ġcon ventional
Ġcon cepts
Ġg am
Ġg ard
Ġg ain
Ġg rap
Ġg ives
Ġg rid
ĠB an
ĠB re
ĠB io
ĠB aton
ĠB ald
ĠB uilder
Ġengag e
Ġprov en
st op
st yle
st ocks
Ġman ned
ir k
ir ror
ĠR ing
ĠR ac
ĠR ow
ĠR ales
ĠR anch
ĠE R
ĠE T
ĠE V
ĠE li
ĠE SG
ĠE rik
ĠN ext
ĠN athan
Ġde ath
Ġde term
Ġh ose
Ġh iring
Ġh oney
Ġh azardous
Ġfor ward
Ġn ort
Ġn am
Ġn orth
Ġn ight
Ġn ature
Ġn iche
Ġn ormal
ĠF I
ĠF ar
ĠF eng
ĠF orm
ĠF rost
ĠF eminine
Ġe ith
Ġe asy
Ġon c
Ġon ly
Ġon go
ĠD X
ĠD ol
ĠD ay
ĠD ry
ĠD ra
ĠD ining
ĠH ir
ĠH ass
ĠH ef
ĠH ond
ĠH erman
Ġr ace
Ġr ural
Ġr ack
Ġr ide
Ġr ight
Ġr az
Ġl id
Ġl ap
Ġl ibr
Ġl isted
Ġl anguage
ĠO s
ĠO le
ĠO ver
ĠO ld
ĠO scar
ul ating
ĠG M
ĠG er
ĠG am
ĠG all
ĠG ra
ĠG ames
ĠG uy
ĠG lass
ĠG raphics
ĠG irl
am o
am ins
em a
act us
act ants
act ories
ĠW he
ĠW ard
ĠW eb
ĠW ool
ĠW aters
ĠW aste
ĠW arner
ĠW erner
ĠW olverine
ig en
ĠL or
ĠL iv
ĠL od
ĠL uc
ĠL enn
ĠL ind
ĠL arge
ĠL uxury
ĠL arry
ans on
ans ion
ab it
ip es
ip ing
im mer
ust ice
ect omy
Ġfol ding
Ġsu rety
orp or
Ġv i
Ġv ibr
Ġv ector
od ial
od ulation
ĠJ ag
ĠJ enn
ĠJ ason
ĠJ osh
ĠJ Frog
Ġdis h
Ġdis rupt
ure a
ot o
ot ide
ap ital
ap tive
ver n
um s
Ġac o
Ġac etate
ĠU GI
ell ing
ell ation
ay ette
Ġst ages
Ġst ocks
iz zard
cess ion
Ġan im
Ġlo t
Ġlo ad
Ġlo yal
ew ear
tern s
truct ive
ens ic
ber cromb
Ġpr edom
ith ms
ĠPro p
Ġtrans ition
Ġtrans itional
Ġres ale
Ġdevelopment s
Ġex pos
Ġex ha
co ck
co vers
Ġad m
Ġad vert
ain t
ain st
Ġor ders
ĠCom merce
Ġ( "
ĠSt andard
ĠK a
ĠK ate
ĠK reme
ĠK umar
pr ime
Ġco ke
Ġco ordin
ĠV T
ĠV it
ĠV inyl
ge ons
able ment
pl atform
pl ant
pl iance
pl unk
Ġdesign ers
Ġcr ack
ub a
ub le
Ġwell s
ear ance
ĠEn vestnet
ĠEn ablement
pt ic
pt ide
Ġappl ied
fr ont
ĠCo pp
ĠCo ok
ĠCo ca
ĠCo oling
Ġch anging
Ġch anges
Ġch ronically
ĠNew ton
iss aries
rom ine
rom echanical
ĠTr ade
ĠTr aditional
uro ra
oc iated
oc rine
ile y
Ġautom ates
harm a
ov e
ĠMan power
Ġdel i
ĠAs ian
ĠAs pen
ĠDe p
ĠDe ep
ĠDe bt
ĠSe g
ĠSe aly
ĠFr agr
Ġag on
Ġag ainst
ĠInd ones
ĠInd emnity
onal coholic
Ġinter segment
Ġport s
Ġim m
ann ed
Ġpre p
Ġpre clinical
Ġbe en
Ġbe am
Ġbe ef
pos es
Ġal low
Ġal gor
ĠAn n
ton e
Ġadv ancing
ph a
ph one
Ġintegr al
Ġintegr ations
Ġintegr ating
Ġsm elting
ĠCh am
ĠCh ile
ĠCh ili
ĠCh andler
Ġcap s
Ġsubs cr
Ġout let
Ġsh ower
Ġsh akes
Ġref ines
Ġref inancing
Ġref inery
Ġreg ul
Ġsp ect
Ġsp end
Ġsp ares
Ġbi os
air ie
Ġins erts
olv e
ection ery
Ġro ot
Ġro of
ĠRes p
Ġmet allurgical
Ġmet allic
Ġapp earance
ra ising
Ġmult inational
Ġli abilities
Ġmain ly
ĠMed Surg
ish ments
iel ding
Ġdr iving
Ġwork st
ĠCon crete
ĠCon tin
ĠCon venience
ĠCon rad
ĠCon tainers
Ġsmall er
pro ducing
Ġcol ors
ienc ies
Ġpat terns
ĠAl tern
ĠAl ign
Ġopt ics
Ġexp ansion
Ġpur poses
ĠAd vertising
ĠAd ams
ĠComp onent
ĠDis ney
Ġfl ags
Ġinvest ig
Ġpar ent
ĠWill is
ĠWill iston
Ġval ve
Ġval idation
Ġdi ode
Ġdi etary
dr ink
ĠPl c
ĠPl us
ĠPl ace
ĠPl astics
enn ial
Ġmod ified
Ġmod ule
ĠCl ass
ĠCl ayton
ĠBe er
yn e
Ġspecial ist
Ġspecial izing
Ġdirect ional
ĠAf lac
ĠSc hein
Ġstr ong
ĠAll ied
ĠAll iance
Ġk n
Ġk raft
ĠCol or
ĠCol lect
ĠCol onial
Ġj eans
ĠCar mel
ilit ating
aw ay
ĠPr es
ĠPr int
ĠPr airie
rid ge
ĠTex tron
ps ych
Ġhand held
arg o
ĠChar leston
ĠFranc is
ĠBr anch
ĠBr ady
ri er
Ġ195 0
Ġ195 1
Ġ195 4
Ġrepair s
Ġent repr
oly bden
Ġdeb ilitating
sh ire
sh ops
sh irts
reg ional
Ġcomb ine
Ġcomb ining
se eds
yl er
ene urs
orn ey
ĠDavid son
Ġnot es
Ġ192 1
ĠSp ine
ĠSp ade
ĠSp ectrum
ĠSp irits
Ġover all
Ġgr ass
ĠEd en
ĠElectric ity
rop ic
unct ional
Ġ194 0
Ġfil ms
Ġhyd rop
au gh
Ġcre ated
Ġsur plus
Ġsub st
ĠThom pson
ĠAdv antage
Ġhelp ing
ĠAc coun
Ġoptim izing
ĠFl u
ĠOr gan
rit ten
loc ks
Ġ191 2
Ġ191 4
Ġ191 6
ĠMon itoring
ĠBl izzard
amp ing
Ġcollect ing
Ġtax es
Ġpoly ethylene
Ġpoly ureth
ĠSch a
abl ished
Ġbr ain
ĠSm all
ĠAir line
ĠEl astic
Ġph osph
Ġform ed
Ġform ulation
Ġresp ective
gred ient
Ġneuro surg
Ġneuro psych
Ġrec ording
Ġrec apital
Ġ188 7
Ġcand y
ĠRo ad
ĠRo uge
ĠHar ley
Ġcenter ed
ĠMet ro
ĠMet ropolitan
ĠBasin s
ris py
Ġpharm a
ĠIr rigation
Ġselect ed
ĠOut let
ĠOut patient
Ġtrain s
Ġgroc eries
Ġprotect s
ĠRichard son
Ġsign als
Ġsign ature
Ġmicro phones
Ġmicro wave
ĠInter ests
ĠUn um
ĠUn allocated
ĠUn iform
ĠUn derground
Ġeff ect
Com p
Com pliance
Ġcy cl
Ġrel ating
ĠWal ker
ĠWil son
Ġclass room
Ġaud iences
Ġcomplex es
Ġprem ier
eff ective
Ġab out
Ġab lation
ĠAg greg
ĠHe ad
ĠHe ating
ĠHe avy
ĠAnaly sis
Ġflo od
ĠNor way
ĠOpt im
ĠOpt oelect
ĠGr ant
we ight
Ġy og
Ġfund amental
itt ed
Ġaf ter
Ġaf ford
ĠProt ocol
CO M
CO T
St op
Ġcoun try
ĠIntegr ity
ĠEduc ational
Ġca used
Ġopportun ity
Ġbl ack
Ġev aluation
Ġev alu
ĠManufact ured
Ġpot ash
Ġutil ization
cons isting
Ġdown load
ĠMot ors
Ġtow er
ĠHy d
ĠHy giene
Ġarray s
Ġpremium s
top s
Ġsal ons
Ġpric e
Ġmov ement
Ġsta ff
Ġsatell ites
Ġfast ening
ĠAm os
ĠAm azon
ĠContract ing
ner wear
Ġintr a
Ġintr ac
Ġoc cur
ĠVal ue
Ġ186 4
Ġ187 0
Ġlabel ing
ĠBlack stone
Ġderiv ative
hib rx
Ġtub e
Ġtub ular
ĠTre x
ĠIm port
Ġaff ili
ĠBar ry
ĠBlo omfield
Ġdemand ing
ĠWe itzman
Ġappro ximately
Ġir rad
Ġpos itioning
Ġob lig
Ġiss u
Ġiss ues
Ġglob e
ĠGl enn
Ġprin ters
Ġvacc ine
ĠTem pur
ĠIs aac
ĠSB C
ĠAppl ications
Ġcontin ue
Ġlubric ant
Ġship pers
Ġfin ishing
Ġbar code
ĠAC I
ĠAC MI
ĠFuel ing
ĠGold stein
Ġcook ies
Ġunivers ities
ĠMcC ormick
Ġcurr ency
ĠTimber lands
Ġblo ck
Ġav ionics
ĠMal ibu
ĠAmer istar
ĠPharm acy
ĠEv ents
ĠEv aluation
ĠOEM s
Ġtransm issions
Ġlevel s
Ġpop ulations
Ġpow ders
Ġfut ure
ĠTel ecom
ĠSur plus
ĠMe ad
ĠBi ot
ĠBel lev
ĠRay theon
Ġrest oration
Ġrest orative
Ġindex es
ĠInvest or
ĠCarl sb
ĠInstru mentation
ĠEmploy er
Ġvirtual ization
AP AC
def erred
na issance
ĠCy tek
ĠPack age
Ġconf ectionery
ĠWin chester
Ġatt end
ĠExper ience
ĠBroad band
Ġfraction ating
vis ta
ret ch
ĠCustom ers
ĠSing h
ĠPoly mers
ĠPoly olef
ĠPrem ier
Ġtool ing
ĠHam ilton
ĠGro cery
Ġrede velop
Ġsignal ing
Ġantib odies
ĠHawai ian
Ġcertific ate
Ġpublish ers
Ġul tr
inv asive
Ġcal cium
Ġbrid ges
ĠStruct ured
ĠSky West
ĠRog ers
ĠEr gen
ĠEmer ging
ĠEmer yville
Ġdeck ing
ĠDown stream
Ġconsult ancy
ĠKn ight
ĠExec ution
Ġpreserv ation
Ġearth moving
Ġapproach es
Re illy
Ġpath way
Ġbel ow
ĠMur ray
ĠMur phy
Ġrecon naissance
Ġreli able
Ġdec or
Ġren al
Ġresid ual
Ġprevent ive
ynd ham
Ġswitch ing
Ġauthor ities
Ġdocu mentation
Ġveget ables
As ia
Ġintern ally
Ġmark eters
Ġwhe at
Ġdest ination
ĠCard iovascular
Ġevery day
ĠLaur ence
ĠJo e
Ġaccept ance
Ġcoil ed
Ġaction able
Ġrot or
Ġrot ary
Ġattract ive
Ġattract ions
Ġexpand ed
Ġhyper tension
ĠPrin ting
war ding
Ġsanit izing
Ġticket ing
Ġdat ab
ĠClear ing
ĠSirius XM
ĠAud io
ĠEar th
ĠDomin ion
ĠLincoln shire
Ġgastro enter
ĠRec ord
ĠRec ipe
Ġinterconnect s
Ġrefer ence
Ġdress ings
Ġcolle ge
Ġcolle ges
Ġimmunotherap ies
Ġfibro sis
ĠAcquisition s
Equ ity
Par ty
Reg ulated
Ġbed ding
Ġbath room
Ġdess ert
Ġdess erts
ĠSens itive
ĠPop ular
ĠEst ablished
ĠFabric ation
Ġegg s
Ġvit amins
ĠProgram s
ĠProgram ming
Ġexplo itation
Ġreduc ed
Ġreduc ing
Ġyear ly
Ġefficient ly
ĠBarb ara
Ġbenchmark ing
clo ud
Ġcater ing
Ġcart ons
Ġbott les
ĠCamp bell
unting ton
ĠMos aic
ĠBern ard
ĠHew lett
Ġlamin ate
ĠLow ell
Ġtrial s
Ġresist ance
ĠVen ue
Ġestabl ishments
ĠSeab orne
ĠPhill ip
ĠRoyal ty
Ġcorrect ional
Ġperish ables
Ġauthent ication
ĠFreder ic
Ġesc row
Ġdermat ology
dem and
deal er
Ġuro logy
Ġsy ru
Ġster ilization
Ġswe et
rot id
ĠTot al
ĠTow able
Ġdom ain
ĠCat alysts
ĠSil ver
ĠMag giano
ĠMaur ice
ĠPum ps
ĠBey ond
ĠBurg er
Ġasp ects
Ġhos es
ĠDyn amics
ĠHP E
ĠHers hey
ĠLif estyle
imens ional
Ġtranspar ent
ĠCommod ities
ĠKap lan
ĠRecycl ing
ĠCob alt
ĠDeal erships
ĠConsum ables
Ġsecurit ization
Ġneurom odulation
ĠExt reme
ĠFlav ors
ĠOrth op
ĠMonro e
Ġminim ally
ĠRobot ics
Ġbread th
ĠWhit ney
Ġaeros ol
Ġbottl ed
Gener al
Â® ,
Ġarter y
engine ered
Ġterrit ories
ĠIH OP
ĠSta ffing
adv ised
ĠAX S
ĠPas adena
ĠPep si
Ġtown homes
ĠEth anol
Ġlet ters
ĠLew is
Ġaccom mod
Ġstim ulation
inant ly
Ġreson ance
Ġcours es
ĠVict or
Ġpretz els
Ġrobo ts
ĠReserv oir
Ġscient ists
Ġsubstant ially
Ġpolyolef in
Ġguid ance
ĠStrateg ies
Ġcathe ters
ĠPhilipp ines
Ġremain ing
Ġharvest ing
Dav idson
sens itive
Ġsauc es
Ġtick ets
Ġinfr ared
Ġoph thal
Ġfric tion
ĠTys ons
Ġbout ique
Ġach ie
ĠCurt is
ellog g
ĠScre ening
ĠAgr ibusiness
threat ening
Ġremarket ing
Ġrecomm end
ĠPoin te
ĠBald win
Ġhoney comb
Ġnam ely
Ġeith er
Ġongo ing
ĠHef ty
Ġlibr aries
ĠJosh ua
bercromb ie
Ġpredom inantly
Ġexha ust
ĠVinyl s
ĠFragr ances
ĠIndones ia
Ġalgor ithms
Ġsubscr ibers
Ġflags hip
Ġentrepr eneurs
olybden um
Ġphosph ate
ĠAggreg ates
Ġoblig ations
ĠBellev ue
ĠCarlsb ad
ĠPolyolef ins
. )
. .
1 3
1 9
2 50
4 0
4 5
A c
A v
A ppl
A TM
A vid
B G
B I
B lo
B oston
B road
B ridge
C D
C V
C X
C he
C ro
C or
C lo
C le
C ab
C ustom
C har
C ash
C oh
C lear
C ino
D X
D u
D es
D en
D iamond
E A
E K
E d
E ast
E ss
E nov
E SA
E COM
F G
F X
F or
F ol
F ort
F MS
F ront
G G
G ro
H e
H orn
I G
I Cs
J M
J ohn
K ey
K leen
L V
L am
L eg
L NG
L TL
M P
M e
M o
M ed
M ur
M ac
M arket
M ware
M art
M icro
M RO
M edical
M ueller
N C
N V
N Y
N e
N ow
N SO
N EX
O K
O R
O U
O V
O p
O w
O wn
O ld
O ff
O ps
O cean
P N
P ac
P od
P ower
Q M
R es
R en
R ad
R ay
R ev
R oll
S e
S on
S il
S ter
S im
S ystems
S ys
S ky
S FE
S olar
S tone
T A
T er
T ec
T ime
T AP
T arget
U M
U l
U TE
V is
W R
W al
W ood
W arner
X P
Z oom
a ut
a que
b us
b el
b il
b est
b anking
b ear
b ags
b order
c i
c an
c ol
c ard
c av
d ering
d ered
d ev
d rous
d eep
d raw
d imensional
e eland
f are
f ast
f ight
f ined
f acing
f unction
f acial
f eit
g ro
g ot
g ets
g reen
h u
h us
h osp
h oh
i ations
i od
i ard
i ative
i asis
i ends
i ological
i Gas
k o
k or
k osh
k ali
l ad
l le
l ife
l ish
l ins
l ined
l umber
m b
m p
m en
m or
m ed
m os
m ons
m ixed
m ade
m aking
n al
n as
n ie
n ame
o z
o ch
o cl
o ists
p ace
p har
p ection
p ne
p ensing
p rice
r un
r ies
r ie
r ites
r enia
s ch
s ay
s ales
s ven
s ohn
s eling
t us
t able
u o
u ine
u ver
u ay
v a
v i
v or
v iv
v ision
v ian
v ington
w er
w ing
w ise
w ight
w oods
w here
w oven
y e
y on
y ber
y ear
y ron
y dr
Ġ ion
Ġ age
Ġ orp
Ġ umb
Ġ âĢľ
Ġ ethylene
Ġ urea
an ial
an over
in z
in cl
in ding
in eries
in cluding
in fect
er wear
er field
er osis
es ec
and ing
en h
en ic
en ess
en umb
on ing
on is
on ding
on ly
on cology
he l
he ter
he lf
he ads
he patitis
Ġs ervic
Ġs ess
Ġs am
Ġs out
Ġs ix
Ġs over
Ġs ized
Ġs aw
Ġs alt
Ġt or
Ġt om
Ġt un
Ġt ight
Ġt ape
at al
at ts
Ġin ks
Ġin contin
Ġin put
Ġin gest
Ġc as
Ġc og
Ġc uring
Ġc aul
Ġc asing
Ġc ode
Ġc ups
ent own
ent hal
ro ok
ro ke
ro ads
ro phy
ic el
ic ut
ic op
ic ot
ic ron
ic ient
ic ators
or ter
or ia
or thern
or iasis
ed e
ed o
ed en
ed ar
ar ches
ar fare
Ġp or
Ġp ure
Ġp anc
Ġp ie
Ġp aid
Ġp ict
Ġp ension
Ġp oints
Ġp asta
Ġp awn
Ġp oker
Ġo ld
Ġo lefins
ment ive
Ġf ine
Ġf ash
Ġf ish
Ġf ind
Ġf ruit
Ġf arms
Ġf eder
is y
is or
is ch
is ely
ĠT B
ĠT G
ĠT o
ĠT en
ĠT ar
ĠT ol
ĠT ower
ĠT own
ĠT oll
ĠT ool
ĠT itanium
ĠT icket
ĠT RI
ĠT aco
ĠT aub
ĠT yler
as al
as ers
as onal
as ier
as ification
om on
om ic
om el
ct er
it ing
it ter
it os
it ory
it iatives
ol e
ol ation
ol ia
ol ling
ol ators
Ġm al
Ġm olding
Ġm ountain
Ġm alls
Ġm owers
Ġm oist
Ġm irror
ĠI an
ĠI SG
ĠI FC
ĠI CE
ĠI BM
ĠI FP
Ġse ating
Ġse wer
Ġse asonal
Ġpro state
Ġpro active
Ġw ing
Ġw ave
Ġw aff
Ġw ait
Ġw arfare
Ġb is
Ġb us
Ġb ery
Ġb raz
Ġb rick
Ġb anners
Ġb auxite
ag ency
ag well
Ġcom mission
Ġcom edy
Ġd en
Ġd on
Ġd ent
Ġd ate
Ġd im
Ġd ie
Ġd ose
Ġd ynamic
Ġa id
Ġa ids
Ġa ero
Ġa war
Ġa uctions
Ġa pne
ĠC z
ĠC ro
ĠC re
ĠC el
ĠC ad
ĠC ort
ĠC ab
ĠC ay
ĠC ross
ĠC orn
ĠC LE
ĠC ards
ĠC ylinders
ĠC MBS
ĠC actus
us ter
us ement
us hed
us hes
el is
el ch
un sw
ut er
ut ers
ut ility
ut ral
ut ches
Ġcomp l
ĠS D
ĠS l
ĠS el
ĠS ut
ĠS ter
ĠS id
ĠS ud
ĠS ab
ĠS pe
ĠS uc
ĠS av
ĠS eas
ĠS ustain
ĠS atell
ĠS leep
ĠS iding
ĠS plunk
il ent
il ers
il gr
ter ra
et ing
et ta
et ric
et ically
ad r
ad uate
ad igm
ur a
ur ts
ur ally
ur asia
qu ake
qu encing
qu alified
ers ions
Ġis lands
Ġis omer
id ad
id ence
id ian
id elity
lo ves
Ġhe dging
Ġhe patitis
ĠM E
ĠM ol
ĠM ile
ĠM edit
ĠM ore
ĠM ong
ĠM eter
ĠM echan
ĠM ilitary
ĠM aster
ĠM eston
ĠM eyer
ĠM iche
ĠM oody
und o
und le
ĠA x
ĠA pe
ĠA ME
ĠA uction
ĠA WS
ĠA urora
ĠIn hibrx
ĠIn itiatives
duct ors
Ġth en
Ġen clo
tr ess
tr ate
tr ans
tr ip
tr ain
tr ade
tr aditional
tr acker
le arn
th orne
th ropic
ess on
ch ron
ch arge
Ġre ar
Ġre ad
Ġre cl
Ġre pl
Ġre vol
ĠP X
ĠP u
ĠP ul
ĠP ly
ĠP ick
ĠP ier
ĠP SE
ĠP iping
ĠP JM
Ġfound ry
ud a
ud get
iv al
iv ities
iv ia
gag ement
Ġcon ven
Ġcon tribution
Ġcon cession
Ġto il
Ġto uch
Ġg et
Ġg if
Ġg ravel
Ġg ypsum
Ġg loves
est o
est anding
ĠB M
ĠB ab
ĠB art
ĠB ob
ĠB end
ĠB erm
ĠB uck
ĠB ond
ĠB aking
ĠB asic
ĠB itcoin
ĠB SI
ĠB entley
ĠB undle
Ġengag ing
cl usion
cl erosis
st on
st rom
st ellation
ir m
Ġinclud ed
ĠR P
ĠR ag
ĠR ud
ĠR af
ĠR ight
ĠR ath
ĠR ose
ĠR aw
ĠR aj
ĠR NG
ĠR ao
ĠR ena
ĠR idge
ĠE M
ĠE ich
ĠE ff
ĠE ug
ĠE cho
ĠE QM
ĠE urasia
Ġas best
ĠN M
ĠN o
ĠN im
ĠN ap
ĠN ex
ĠN ature
ĠN urse
ĠN elson
Ġh am
Ġh um
Ġh ow
Ġh ub
Ġh orm
Ġh aving
Ġh orizon
Ġh unting
Ġh erb
ort on
Ġn umer
Ġn ative
Ġn ich
Ġn ick
Ġn ano
Ġn onalcoholic
Ġn icot
Ġn orthern
ĠF ut
ĠF le
ĠF ul
ĠF ace
ĠF ix
ĠF inal
ĠF urniture
ĠF ert
ĠF usion
ĠF eed
ĠF ibers
ĠF lyn
ĠF ERC
ĠF argo
ĠF unctional
Ġe commerce
ĠD a
ĠD u
ĠD ar
ĠD est
ĠD ot
ĠD ew
ĠD ick
ĠD iet
ĠD iesel
ĠD orado
ĠD IS
ĠD ayton
ĠD IY
ĠD mit
ĠD wight
ĠH at
ĠH ank
ĠH igh
ĠH end
ĠH erm
ĠH ost
ĠH ug
ĠH uman
ĠH ern
ĠH old
ĠH SA
ĠH arol
ĠH anes
ĠH aven
ĠH abit
ĠH anover
Ġr he
Ġr ates
Ġr ac
Ġr ain
Ġr end
Ġr anch
Ġr ides
Ġr enewables
Ġr acing
Ġl ig
Ġl ens
Ġl ink
Ġl ateral
Ġl iners
Ġl iner
Ġl inger
ĠO k
ĠO ll
ĠO TC
ĠG ill
ĠG ables
ĠG round
ĠG etty
am ed
am as
am inan
am ount
ark ling
ac ed
ac ity
em p
em s
em eter
op tical
ĠW S
ĠW V
ĠW es
ĠW et
ĠW iz
ĠW ith
ĠW end
ĠW agn
ĠW alt
ĠW ars
ĠW iley
ĠW yndham
ĠW elch
ig i
ig gs
ĠL y
ĠL an
ĠL und
ĠL ive
ĠL ang
ĠL ux
ĠL illy
Ġtr ash
Ġtr uss
Ġtr ips
arket ing
im ates
im inal
Ġsu c
orp tion
Ġv iv
Ġv ide
Ġv end
Ġv iew
os a
os s
os in
od a
od ef
ĠJ ul
ĠJ am
ĠJ oint
ĠJ ustin
ĠJ oy
ĠJ ared
Ġdis abled
Ġdis pers
Ġdis covers
if ies
if ically
ech t
ank lin
ot y
ot ing
ot ain
ot echnical
ib ur
ap a
ap ing
ver ter
um min
um ulation
for mer
Ġac cur
Ġind ications
ĠU pton
ĠU GG
ell ar
ay a
ay age
pe ptide
Ġst op
Ġst ack
Ġst amping
Ġst retch
Ġst arches
iz ens
iz able
iz ant
iz oph
cess ing
ow en
ow itz
Ġother wise
ric h
Ġlo ts
Ġlo ading
ew ire
ew art
ens ers
ens ible
ber l
Ġpr ior
ĠPro duc
ĠPro vo
Ġtrans ca
Ġtrans istors
Ġres in
Ġres il
Ġres ident
Ġres tructuring
Ġres cue
ll ium
ill ery
ill ips
Ġex ist
ors hip
co ated
Ġcustom s
Ġad her
Ġad jacent
Ġad aptive
Ġwith draw
Ġtechnolog ical
erg rad
Ġor e
Ġor ches
Ġor dering
ĠCom m
ĠCom mand
gr ading
gr aving
ĠSt o
ĠSt ation
ĠSt ream
ĠSt anton
mun ition
ĠK er
ĠK ro
ĠK ib
ĠK FC
ĠK rispy
ĠK ellogg
pr ivate
Ġco ast
Ġco ach
Ġco urse
ĠV I
ĠV i
ĠV is
ĠV el
ĠV eter
ĠV ander
ĠV anco
ĠV lad
anc he
anc aster
ons ter
ition ers
pl es
pl anes
pl aced
ĠRe v
ĠRe ven
ĠRe covery
ĠRe ading
ĠRe creation
ult ative
Ġcr yst
Ġcr aft
Ġcr uis
Ġcr ystal
Ġcr ushed
ub e
av or
ast atic
Ġcl ad
Ġcl imate
Ġcl utches
Ġmed ication
Ġstor m
Ġest rogen
Ġprocess or
ĠEn gagement
nit ive
ly m
pt o
work ing
Ġappl ies
ĠCo al
ĠCo ating
ĠCo ach
ĠCo vington
Ġch oice
Ġch airs
Ġch oose
ob il
Ġle af
Ġle ather
tain s
cur y
rom etry
ĠTr ail
ĠTr iple
ĠTr avis
ant is
ant ir
oc ation
oc cup
end el
end ale
Ġcont roll
Ġcont aminan
ĠProduct ivity
ru its
ass ociated
ĠMan agers
bs ter
ual comm
Ġact uators
ĠAs surance
hol e
ĠDe erfield
ĠSe b
ĠNorth brook
Ġfac ing
Ġfac ultative
ĠFr ench
ĠFr anco
ĠFr iday
Ġag ro
Ġinter im
Ġinter faces
Ġinter pret
Ġport als
ĠCons ul
ĠCons hoh
Ġpower ful
Ġ18 0
Ġim pair
ann y
Ġaccess ed
Ġal coholic
Ġal arms
ĠAn a
ĠAn tero
Ġund ergrad
edit e
hip s
Ġhome buy
Ġintegr in
Ġsm ok
ĠCh en
ĠCh ad
ĠCh arter
ĠCh lor
ĠCh urch
ĠCh ild
Ġfr aud
ĠOper ated
ĠOper ational
Ġsol ve
Ġnon peptide
Ġair frame
ĠMar ina
Ġactiv ation
Ġactiv ated
Ġactiv ely
Ġactiv ator
ich annel
ee k
ee ker
Ġpay out
Ġout erwear
ĠMid western
Ġsh if
Ġsh ave
Ġsh irts
Ġsh afts
Ġref inance
Ġref urb
Ġreg ulation
Ġreg asification
ks ide
ks hire
Ġsp a
Ġsp arkling
Ġtreat y
Ġanaly tic
Ġro ck
oh ydr
Ġne utral
âĢ ĵ
ety l
Ġcar tr
Ġcar bons
Ġinvolv ing
anch ored
ree ze
Ġmet astatic
ĠCan yon
ie u
Ġcloud s
Ġapp raisal
Ġ197 4
Ġsc al
Ġsc anning
Ġsc ores
Ġmult ip
Ġmult im
ten stein
Ġdr iver
Ġdr ivetrain
Ġdr ayage
Ġwork loads
ĠCon way
ĠCon cepts
ĠSouth field
ĠSouth west
ĠSouth western
Ġtrad ed
pro t
Ġcol ocation
Ġmon ox
Ġmon ocl
ĠTrans port
Ġat rophy
ug al
ord an
ĠMarket place
ĠAl ber
ĠAl zhe
ĠAl kali
ĠAl phar
Ġopt ic
Ġexp edite
ĠAd am
ĠAd just
ĠAr cBest
iam s
ograp hic
ĠComp ute
ĠComp ensation
ĠComp ound
Ġcard io
ĠBank ers
ĠDis cover
Ġgro oming
Ġfl ame
Ġfl ights
Ġpar ame
Ġge other
Ġge otechnical
bo e
bo rough
bo oks
bo charg
Ġhy dr
ok u
ivers ity
istr ies
Ġclin icians
min ster
Ġint ended
Ġint imate
Ġint imates
Ġbroad er
Ġval u
Ġar ts
dr ive
Ġend ow
Ġend ocrine
ĠPl ains
enn an
Ġmod ification
ĠCl in
ĠCl ar
ĠCl ay
ĠCl ients
ĠBe ef
ĠEx ton
Ġliqu or
man agement
Ġpet s
ock en
Ġdirect ed
Ġcer eals
eg a
ec ker
Ġstr ess
Ġstr ike
Ġsystem ic
ĠAll entown
Ġk in
ĠCol lins
Ġpublic ation
ĠCar Max
ĠCar penter
ime ter
Ġorigin ations
ho e
Ġinc ident
Ġinc orpor
ĠZ ero
ĠZ immer
ĠZ eeland
ĠPr ime
ĠPr att
ĠPr uss
Ġhel icop
Ġcontract ed
Ġhand le
Ġhand bags
ĠWest minster
Ġlog ic
Ġconnect or
ĠBr it
ĠBr ink
ĠBr aint
Ġadmin ister
Ġpurch ased
ĠLo ews
Ġfranch isor
ang ers
Ġcond uit
Ġhosp ice
Ġrepair ing
Ġent ry
oly tic
ĠRober ts
Ġste ato
Ġme ats
ME D
Ġlight weight
Ġindependent ly
Ġemploy ed
sh kosh
Ġcomb inations
se a
se cond
Ġorganiz ational
ĠBro s
ĠBro omfield
Ġcell ulose
Ġam usement
Ġam munition
ĠAut onom
Ġnot ably
Ġ192 5
ĠCent ury
Ġgr ades
Ġgr afts
Ġgr aduate
In v
li ke
Ġcomput ational
ĠMc G
ĠMc N
Ġ194 9
Ġinstall s
Ġfe ature
Ġ190 0
Ġ190 8
Ġ190 9
pres ent
Ġmach ining
Ġmach ined
ĠSh ot
ĠSh aw
au ge
Ġfre estanding
ĠPh osph
Ġ193 2
Ġsur geons
Ġsub ject
Ġsub way
Ġsub urban
ĠAc cept
Ġtravel ers
ĠBo x
ĠBo oth
uild ers
ĠMin i
ĠMin eral
ĠMin ute
Ġtransact ional
ĠFl at
rit os
Ġup d
Ġup scale
Ġup grade
Ġup grading
Ġsav ing
ars en
Ġmetal working
esh are
loc ation
ward s
ĠMon ey
ĠBl ake
ĠBl uff
Ġarr anging
Ġtele health
Ġpe er
Ġdeal ership
Ġliv er
oper ating
oper ative
oper ators
Ġmeas ures
Ġrail car
Ġrail cars
Ġcondition ers
Ġqu arry
Ġqu alified
ĠSch o
ĠApp s
Ġassoc iations
Ġbr ass
ĠSm ucker
ĠMI SO
ĠEl astics
Ġmerchand isers
Ġinf otain
Ġph ase
Ġph ilan
Ġgen etics
Ġgen etically
Ġform at
Ġform ations
Ġline ar
Ġ189 0
Ġ189 1
Ġ189 3
Ġneuro vascular
Ġneuro science
Ġrec ogn
ĠLog an
ĠRef und
rem ities
ĠPark s
ĠRo th
ĠRo ofing
lows erve
Ġadd itive
ĠAnd re
Ġsens itive
Ġchar gers
Ġmin ts
Ġmar inas
ĠAZ EK
ĠLe ased
Ġso il
Ġso ap
Ġso ups
ulf ur
Ġty p
row d
row th
row itz
ĠIr win
Ġselect ively
Ġprotect ing
Ġfire places
Ġfire fight
ĠInter state
ĠInter connect
Ġgu est
Ġgu ard
ĠUn iversity
Ġimmun ology
Ġimmun ological
Ġimmun odef
Ġshe ll
Ġcor ros
log ene
ĠIns ights
ĠIns pection
Ġrefriger ators
Com munity
Ġcat aly
orm el
ĠWal den
force ments
Ġstream s
Ġstream lines
ĠMedic ine
Ġpain ting
Ġpass ive
ĠMO SFE
Ġbiot ech
Ġhydro xide
Ġper f
Ġper iod
Ġper tains
Ġab ove
ĠAg encies
ĠDr ive
ĠDr iver
ĠHe at
ĠHe ights
ĠHe inz
Ġrad iation
Ġstud ies
Ġstud io
Ġimp lements
arm a
Ġmus ical
Ġmus cular
ĠNor man
ĠDi abetes
ĠGr ain
imber ly
Ġcarbon ate
Ġ4 8
ĠQ ue
ĠQ ualcomm
Ġy outh
Ġart ists
Ġsk ill
Ġfund raising
Ġder ive
Ġfract ional
RO UTE
iqu id
ĠX box
Ġfabric ates
ĠPar ent
ĠRock y
ĠRock et
ĠRock ies
ĠRock land
Ġacc umulation
Ġcoun seling
Ġarchitect s
En ter
Ġrequ iring
Ġvol ume
Ġconsist ent
Ġcompress ing
inn acle
Ġsustain ment
Ġca uses
Ġcur tain
Ġbl end
Ġbl ue
Ġbl ends
ify ing
Ġpres ent
Ġpres ence
Ex p
car bon
Ġsch izoph
ĠCam den
elect ronics
ĠPer kins
Ġclos et
Tr ac
Tr ans
Tr ust
Ġten able
ĠPaper s
Ġtow ing
Ġ17 8
Ġ17 9
ĠHy de
ĠHaw thorne
Ġdispos ing
Ġpract itioners
Ġexec ut
Ġexec ute
Ġactive wear
Ġagree ment
raul ics
Ġaddress es
Ġaddress ing
ipp s
Ġsal on
Ġsecure ly
ĠSun oco
ĠPet e
Ġill iquid
Ġpost paid
Ġpost second
ĠMiss iles
ĠWork s
ĠWork ers
Ġreserv ations
Ġext remities
Ġscre ens
ĠGreen wood
ĠDiagnost ic
Americ a
Americ as
Ġsnack ing
Ġintr aven
Ġmix ing
Ġbet ting
Ġlead ership
Ġ187 7
Ġfeed stocks
Ġperform s
ĠSim ply
ĠRos em
ĠRos enthal
ĠRob inson
ĠDivision s
ĠOn c
ĠOn line
ĠOn tar
press ion
Ġaggreg ation
Ġnews paper
Ġpartic ular
Ġguaran ty
Ad ded
Ad vis
Ġte ach
Ġpos itions
Ġmolec ules
Ġiss uing
ĠGl endale
ĠLa Sal
Ġtrack er
Ġsuper market
Ġcla im
Ġshare holder
Ġcardi ology
now fl
ĠIs lands
ĠSa uc
ĠSw eden
Ġconcentr ate
ays ia
Ġany where
Ġassess ments
Ġ185 1
Ġ185 2
Ġ185 3
Ġ185 7
Ġrob ust
Health care
LE D
LE TE
Ġfin ishes
ĠTest ing
Ġbar riers
ĠAR V
ĠAct ivision
ĠAct ivities
ulin um
ĠCoun cil
connect ed
Ġguarante es
ik i
nes ville
err ain
Ġwall board
Ġbre ak
ĠChe f
ĠCor al
ĠMal vern
ĠMal aysia
ĠAmer iGas
ĠBur ke
Ġep is
Ġdisp ensers
ĠConnect icut
Ġcert ification
GI C
Ġpow ers
Ġpow dered
los ure
ĠRail ing
ĠLong Horn
ape ake
Ġorth odontic
ĠCompl iance
ĠCarl son
ĠCarl isle
Ġphot ovoltaic
Ġparticip ation
fl are
uid ewire
Ġtur key
Ġtur bocharg
Ġfree z
Ġmem orialization
Ġwear ables
Ġdoc kside
ĠCy ber
ĠSand y
ĠSand ra
ĠFair field
ĠHol land
Ġrig ging
ĠOak s
ĠOak land
ĠWin ter
ĠEng lish
Ġbroadcast ing
Ġoccup iers
Ġchem istries
ĠTur f
ret t
Ġborrow ing
ĠMad den
Ġgo als
Ġdeploy s
ĠGro ve
ĠGro sven
ĠWire line
Ġprint ed
Ġunders erved
Ġspons ored
Ġdiagn os
Ġcondens ers
ĠQu aker
ĠFoot wear
ou los
Ġedit orial
Ġinit iatives
Ġcement ing
Ġfarm ers
ĠCR M
ĠMo ore
ĠMax well
ĠFleet Net
ĠDown ers
ĠOl iver
ull en
Ġconsult ation
Ġconsult ative
ĠVer izon
Ġprec isely
Ġbiom ass
Ġbiom edical
Ġbiom etric
ĠMcL ennan
Ġpreserv e
Ġearth quake
Ġobject ives
Ġintermedi aries
Bl ue
Con nect
Ġz inc
Ġz ero
Ġtimber lands
Ġcust odial
Ġcivil ian
Ġbow el
Ġbow ling
ĠSnack ing
ĠMel ville
ĠMel bour
ĠPartn ership
Ġdec orative
Ġhar ness
Ġlarg er
Ġlarg ely
Ġvess el
ĠVac ations
Ġunif orm
Ġalloy s
Ġbook ing
ĠMcK inney
Ġfeat uring
Ġreceiv able
Ġauthor ized
ĠComplet e
Pl us
Rock et
ots ie
Ġi Gaming
Ġps oriasis
Ġobs erv
Ġobs tructive
ism ic
Ġabs orb
Ġabs orption
ĠShe l
perform ing
Ġgre ater
Ġearn ed
Ġdist ance
Ġdist illers
ĠUnit i
Ġstabil ization
Ġcoil s
Ġcontact s
Ġmonet ize
ĠArk oma
ĠPrin ce
ĠSuper markets
ĠOrigin ation
ĠSmart S
Ġsynd icated
Ġsynd rome
Cr edit
Fr anklin
Sp irit
Ġsulf ate
Ġinsur ed
Ġinsur ing
Ġcab in
Ġceil ings
Ġmy asth
Ġmy osin
Ġcomm issions
ĠCell ular
Ġrein forced
Ġrein forcements
ĠPat ient
ĠBus ey
ĠBut ter
ĠBill erica
ĠRem ediation
ĠRuss ia
ĠEar l
ĠEll iot
Ġdep endent
Ġey ewear
ĠDes ign
Ġ36 0
ĠPrinc eton
ĠBrad street
Ġradi ators
Ġradi ology
Ġfibro tic
hal ation
pur pose
Ġpick up
oling o
Ġmat rix
ĠCer ity
ĠSho pping
ĠRub in
ĠRub ber
ĠDer iv
ĠDur ham
Ġrapid ly
Ġvit ro
ĠJacob s
ĠJacob son
Ġpatent ed
Ġexplo its
ĠExp edia
Ġammon ium
Ġnotebo oks
ĠPhot onics
Ġsurf aces
Ġyear s
ĠNichol s
Ġdigit ally
Ġdigit izes
Col umb
Col ony
Ph illips
Str ike
hand ling
Ġtim ing
Ġcamp uses
Ġprofit ability
Ġbott ling
ĠCD X
ĠCV L
ĠCV R
ĠSol ution
ĠMagn us
Ġconvey ing
ĠBor isy
ĠBern stein
ĠRod ney
ĠFil ms
ĠFil tration
ĠHay nesville
ĠHard ware
Ġtrim mers
Ġpredic tive
ucle ic
Ġextr usions
Ġextr uded
Ġestabl ished
ĠPlan et
Ins ight
ĠPhill ips
Ġcharacter ization
Ġperish able
ĠFreder ick
Ġpsych iatric
Ġesc al
Ġdistinct ive
MA X
oD B
Ġpol ishing
Ġomn i
Ġomn ichannel
Ġcompet itive
illo facial
ĠInnov ations
Ġrepos itioning
Ġrecover ing
Ġremod eling
Ġdeter g
Ġdeter min
Ġnav igation
ĠFast ening
osc opy
ĠEnd oscopy
curr ing
curr ency
Ġnecess ity
Ġnecess ary
Ġmetro logy
ĠConvers ational
Ġtelem arketing
Ġsubordin ate
Ġsubordin ated
ount ed
ĠSchw ab
ĠSchw artz
Ġinflamm atory
Ġdiff icult
ĠEvans ville
Ġconfigur ation
Ġconfigur able
Ġfertil izers
Ġsulfur ic
Ġsusp ended
Ġsusp ension
Ap ollo
Em ploy
Su ite
Will iams
hatt an
link ed
Ġcast ing
Ġpav ement
Ġpione ering
Ġpigment s
Ġfix ation
ĠIdent ification
Ġproble m
ĠCin ema
ĠCas a
ĠCall away
ĠSund ance
Ġreman ufactured
ĠPhys ical
Ġgar age
ĠBed ford
ĠBates ville
ĠBry an
ĠRand all
ĠRam on
ĠEN ROUTE
Ġdegrad er
ĠON TAP
ĠOt to
ĠGh ana
ĠGard ens
ĠGame Stop
ĠGPU s
ĠLex ington
Ġdiscip line
Ġstart up
Ġanch or
Ġanhy drous
ĠProvid ence
Ġelim ination
Ġcoupl ings
ĠFraming ham
Ġinteract ions
ĠChamp ion
Ġcarb ide
Ġemp owers
Ġworksp ace
ĠAlb any
Ġjour ney
Ġincent ives
Ġmeter ing
ĠSupplement al
Ġsubmar ines
ĠGreens boro
ĠElk hart
ĠLead ership
Ġmicrob iological
Ġshel ving
Ġcatalog s
ĠAgricult ure
ĠSuns eeker
Adv anced
Ġwheel ed
Ġtoxic ology
Be am
aes ars
cat heter
pack aged
wash ers
Ġur anium
onucle otide
Ġspe ech
Ġincur red
Ġponto on
Ġpneum atic
Ġmil k
Ġmort ar
Ġdil ig
Ġdam age
ĠCast le
ĠClement e
ĠSynd icate
ĠIng alls
Ġthorac ic
ĠPand ora
Ġgam ma
Ġgard ening
ĠBan ana
ĠRing Central
ĠER COT
Ġnort heastern
ĠDra per
ĠOver ton
ĠGam ble
ĠWhe els
ĠLor enz
ĠLod ging
ĠLenn ar
Ġvibr ation
Ġdish washers
Ġaco ustic
Ġloyal ty
Ġexpos ure
ĠVT X
Ġcrack ers
ĠSeg undo
Ġregul ates
Ġspect rometry
Ġworkst ations
ĠCollect ion
Ġhydrop onic
ĠAccoun ting
Ġpolyureth ane
Ġneurosurg ery
Ġeffect ively
Comp ass
Ġyog urt
Ġafford ability
Ġaffili ates
Ġirrad iation
Ġattend ance
Ġrotor craft
Ġdatab ase
Ġgastroenter ology
Ġophthal mic
Ġfriction less
Ġachie ve
Ġrecommend ations
Clo ud
Fol io
NSO L
Own ed
aut omotive
bear ing
lumber ger
mp qua
Ġorp han
Ġumb rell
incl air
esec ake
enumb ra
Ġservic ed
Ġsess ions
Ġsam ples
Ġsover eign
Ġincontin ence
Ġcog nitive
Ġpict ure
Ġfash ions
ĠTown s
ĠTicket ing
Ġbery llium
Ġbraz ing
Ġawar eness
Ġapne a
unsw ick
ĠSatell ite
ilgr im
Ġisomer ization
ĠMechan ics
ĠMiche lle
ĠApe x
Ġenclo sures
learn ing
Ġrevol ution
ĠPly mouth
Ġconven ient
Ġgif ts
ĠEug ene
Ġasbest os
Ġham burg
Ġhorm one
Ġnich es
Ġnick el
Ġnicot ine
ĠFert il
ĠFlyn n
ĠHern don
ĠHold co
ĠHarol d
Ġlinger ie
emeter y
ĠWiz ards
ĠWagn er
Ġvide os
ummin s
Ġtransca rotid
Ġadher ence
ĠVanco uver
ĠReven ue
ĠTrail er
occup ied
Ġcontaminan ts
ĠConshoh ocken
Ġundergrad uate
Ġhomebuy ers
Ġmonox ide
Ġmonocl onal
ĠAlzhe imer
ĠAlphar etta
Ġparame ters
Ġgeother mal
ĠPruss ia
Ġhelicop ters
ĠBraint ree
Ġsteato hepatitis
ĠAccept ance
ĠElastics earch
Ġinfotain ment
Ġphilan thropic
Ġfirefight ing
Ġimmunodef iciency
Ġcorros ion
ĠMOSFE T
Ġschizoph renia
Ġpostsecond ary
Ġintraven ous
ĠOntar io
Advis or
ĠLaSal le
nowfl ake
Ġturbocharg ers
ĠGrosven or
ĠMelbour ne
+ ,
0 5
2 0
2 2
2 7
2 00
3 0
3 5
3 6
3 7
5 45
7 5
9 75
? ,
A F
A t
A id
A tr
A ff
A lex
A ris
A viation
A partment
A van
A res
A SG
A NG
A ero
A AR
A gency
B F
B er
B anking
B erg
B anc
B NA
B oy
B enz
B rook
C P
C T
C y
C an
C in
C er
C at
C it
C ad
C iv
C am
C all
C ast
C ost
C ann
C hip
C hes
C SG
C MS
C ode
C annabis
C AL
C TS
C hen
C rown
C ogn
D E
D R
D e
D i
D o
D or
D is
D ef
D yn
D oor
D uty
D eal
D IS
D ana
D SO
D ollar
E B
E C
E E
E Q
E ra
E agle
F L
F l
F s
F ive
F ast
F ly
F ish
F iber
F ox
F NA
F itness
F lu
F actSet
F isker
F yber
F idelity
G K
G X
G ent
G ap
G lob
G oods
G NA
G BT
G oody
G reen
G etty
H I
H L
H P
H er
H ess
H are
H am
H ot
H ost
H aul
H ilton
H ER
H PC
H untington
I C
I ll
I ron
I CO
I SG
I CS
J oy
K D
K n
K r
K im
K enn
K KR
L H
L M
L a
L e
L o
L y
L ine
L ak
L enn
L ock
L ind
L AP
L incoln
M G
M L
M ag
M et
M ir
M ark
M ater
M ain
M att
M ature
M IS
M edia
M etal
M ait
N S
N ation
N ord
N DX
O B
O S
O T
O m
O t
O pen
O mn
P H
P P
P R
P e
P it
P et
P ad
P ort
P ure
P ath
P ublic
P enn
P rop
P rice
P AT
P DC
P TC
P atterson
P NM
P innacle
Q L
Q ual
R G
R L
R s
R el
R eal
R NA
R oy
R MS
R EIT
R hythm
S D
S R
S W
S o
S em
S ab
S um
S ystem
S ens
S pr
S ix
S pro
S ame
S urgical
S ource
S elect
S PS
S hares
S ea
S nap
T D
T H
T e
T o
T w
T en
T re
T op
T ab
T ru
T erm
T ree
T enn
T wo
T RA
T ravel
U I
U t
U SA
U rban
V H
V T
V ent
V ia
V ee
V ict
V IA
W D
W ar
W ell
W ash
W olf
W CS
W aste
X p
Y S
Y X
Y LE
Y GM
Z A
a e
a us
a un
a ine
a its
a ith
a uss
a edics
b a
b ing
b re
b ies
b ors
b ass
b ee
b ase
b ec
b enef
b orn
b ars
b ohydr
c er
c al
c ity
c ine
c ap
c ustom
c ome
c ker
c ings
c ks
c hem
c ah
c ane
c hed
c ert
c ili
c ulators
c asses
d s
d ar
d am
d ash
d ie
d ep
d ock
d ah
d let
d iversified
d uit
d oster
d ensity
d yne
e ur
e qu
e ce
e velopment
e user
e ptic
e phone
f us
f il
f its
f our
f ee
f air
f uel
f oods
f irst
f ills
f ired
f luent
f izer
f inder
f actants
g us
g ans
g overn
g ium
g oods
g rowth
h i
h n
h or
h ow
h ard
h ang
h uman
h ousing
h aven
i h
i y
i ro
i ate
i ments
i end
i ery
i els
i ability
i ances
i pers
i ena
i Pl
i Fi
i ologic
i Time
j a
j u
j ection
j ug
k ar
k ing
k am
k os
k ens
k ill
k ov
k ind
k ley
k jet
k eletal
l ar
l ab
l ap
l ist
l ery
l ich
l ord
l imit
l ifer
l borough
m es
m und
m ant
m osp
m ach
m ax
m ec
m eal
m echanical
m ored
m olec
m aster
m obiles
m ounted
n s
n or
n ers
n ate
n am
n ot
n ia
n orth
n eg
n oy
n uts
o it
o id
o os
o ices
o oth
p lo
p ac
p act
p ot
p ta
p ell
p ill
p ire
p ost
p ath
p ie
p ool
p inn
p ired
p kins
p acks
p oints
p itas
r ial
r ess
r ain
r ise
r ight
r isk
r ane
r ink
s v
s er
s ion
s et
s ess
s ystem
s truct
s pecialty
s olv
s ection
s evi
s helf
t i
t v
t ed
t iv
t est
t ities
t ice
t ual
t ures
t man
t ier
t reat
u ar
u ment
u per
u qu
u ard
u ant
u itive
u los
u Sign
u arding
v y
v als
v ens
v ents
v ron
v ador
v amo
w ers
w ine
w orld
w eg
w itz
x on
y a
y o
y x
y es
y cl
y les
y ker
y son
y ards
y py
y roid
y Mac
y wine
z o
z os
z ure
z io
Ġ "
Ġ .
Ġ x
Ġ quarter
Ġ ide
Ġ icon
Ġ ''
Ġ âĢĵ
an on
an qu
an ia
an te
an oc
an ied
an ular
an ley
an imal
in ic
in tr
in ts
in os
in sur
in ton
in ite
in ame
in clusive
in forced
in forcement
in idad
in verter
er d
er ink
er que
es en
es co
es con
es ky
es ciences
es la
and r
and y
and al
and Me
en b
en al
en ex
en viron
en berg
en feld
on in
on ce
on ary
on stant
on ka
he us
he et
he im
Ġs om
Ġs un
Ġs tern
Ġs co
Ġs of
Ġs pl
Ġs end
Ġs ending
Ġs ocks
Ġs oph
Ġs clerosis
Ġs oda
Ġt in
Ġt il
Ġt iss
Ġt end
Ġt rop
Ġt alk
Ġt win
Ġt ung
Ġt aver
Ġt errain
at z
at re
at os
at ost
at ica
at Am
at meal
Ġin her
Ġin organ
Ġin gredient
Ġin nerwear
Ġin got
Ġin halation
Ġin kjet
Ġin nate
al a
al ta
Ġc ity
Ġc yst
Ġc ord
Ġc ables
Ġc off
Ġc ulin
Ġc ements
Ġc opy
ent a
ent in
ent or
ro x
ro ck
ro bed
ic er
ic ity
ic ating
ic ide
ic ian
ic itation
ic Jack
ic iencies
or f
or is
or ates
or iz
or ized
or ters
or ama
or lym
ed le
ed ition
ed ging
ed ible
ar i
ar l
ar u
ar atus
Ġp in
Ġp as
Ġp ers
Ġp ies
Ġp ud
Ġp ine
Ġp ant
Ġp ools
Ġp ush
Ġp ests
Ġp ipes
Ġo atmeal
ing les
ing ham
ion ic
ion ing
Ġf ace
Ġf ant
Ġf air
Ġf ax
Ġf usion
Ġf ume
Ġf eminine
Ġf acial
Ġf actors
Ġf uneral
Ġf actories
Ġf ruits
is w
is an
is ource
is odes
ĠT E
ĠT Y
ĠT s
ĠT w
ĠT an
ĠT ro
ĠT as
ĠT ess
ĠT ab
ĠT ech
ĠT able
ĠT our
ĠT ail
ĠT up
ĠT ime
ĠT aft
ĠT ang
ĠT ustin
ĠT unic
ĠT ID
ĠT oy
ĠT ony
ĠT ao
ĠT ea
ĠT arry
ĠT AS
ĠT ucker
ĠT arget
ĠT eva
ĠT isch
as as
as ant
as ota
as da
as bro
om ew
om iss
om ax
om etry
it hic
it ures
it ux
it led
it ively
ĠThe ir
ĠThe me
ĠThe atre
Ġthe at
ol as
ol et
ol ition
ol ub
ol ten
ol one
ol ites
ol ute
ol astic
Ġm un
Ġm ac
Ġm ens
Ġm ale
Ġm ist
Ġm ice
Ġm ats
Ġm illing
Ġm old
Ġm ask
Ġm amm
Ġm itigation
Ġm olybdenum
ĠI C
ĠI th
ĠI ce
ĠI CS
ĠI FS
ĠI PG
ĠI gor
ĠI onis
Ġse als
Ġse ason
Ġse quencing
Ġse ismic
Ġpro ce
Ġpro cur
Ġpro pos
Ġpro lifer
Ġof ten
re qu
re iber
re li
re porting
re cycl
re portable
re course
re fined
re inforced
Ġw el
Ġw et
Ġw ines
Ġw ant
Ġw ings
Ġw ax
Ġw ills
Ġw ays
Ġw oul
Ġw ere
Ġw oven
Ġw ild
Ġw ipes
Ġw ritten
Ġw ipers
Ġb and
Ġb ion
Ġb it
Ġb ag
Ġb id
Ġb le
Ġb ab
Ġb ra
Ġb ases
Ġb eds
Ġb acter
Ġb enton
Ġb odies
Ġb romine
Ġb locks
Ġb inding
Ġb onding
Ġb udget
Ġb anqu
ag on
ag ment
ag ery
ag her
ag han
ag gregated
ag uay
ag lar
Ġd ust
Ġd ia
Ġd ural
Ġd ating
Ġd ra
Ġd iam
Ġd omest
Ġd ys
Ġa im
Ġa way
ĠC P
ĠC S
ĠC X
ĠC ut
ĠC ur
ĠC ess
ĠC arter
ĠC op
ĠC od
ĠC line
ĠC ong
ĠC ME
ĠC ats
ĠC rop
ĠC hed
ĠC off
ĠC NA
ĠC NG
ĠC GI
ĠC GM
ĠC asinos
ĠC IN
ĠC anton
ĠC PU
ĠC rown
ĠC orning
ĠC ERC
ĠC edar
ĠC boe
ĠC aesars
ĠC emetery
ĠC ummins
us o
us ing
us ch
us able
us hy
el t
el ers
el le
el st
el ot
el ia
el ix
el eman
un e
un ter
ut ter
ut ch
ut ters
ut tle
Ġcomp ar
Ġcomp rom
Ġcomp action
Ġcomp elling
ĠS A
ĠS er
ĠS on
ĠS per
ĠS lo
ĠS od
ĠS ure
ĠS erg
ĠS io
ĠS oft
ĠS ant
ĠS up
ĠS ax
ĠS yl
ĠS ier
ĠS ource
ĠS ourcing
ĠS elect
ĠS PS
ĠS hoen
ĠS eries
ĠS AR
ĠS ull
ĠS ny
ĠS idney
ĠS ector
ĠS TR
ĠS ignal
ĠS TAC
ĠS elig
ĠS omers
ĠS ulfur
ĠS inclair
ĠS nowflake
ĠS GK
ĠS NDX
ĠS YGM
il on
il tr
il low
il ance
il io
il son
il ene
il ox
il dren
il roy
ter iors
et o
et ies
et ab
et ime
et izers
per ity
ad er
ad ies
ad ia
ad ium
ad der
ad dy
ur i
ur on
ur as
ur ity
ur bs
ur land
ur ier
ur ification
qu are
ers ma
erv atory
Ġis olators
id ed
id em
id ized
id ges
lo p
lo on
lo ck
Ġhe av
Ġfo il
Ġfo ss
ĠM u
ĠM ing
ĠM as
ĠM olding
ĠM ist
ĠM ak
ĠM otive
ĠM ered
ĠM ep
ĠM au
ĠM old
ĠM acy
ĠM eal
ĠM itch
ĠM aking
ĠM unicipal
ĠM RO
ĠM ortgages
ĠM oving
ĠM aum
ĠM aver
ĠM ueller
ĠM olybdenum
ĠM onster
ĠM obil
ĠM endel
und er
und ers
ĠA G
ĠA N
ĠA T
ĠA V
ĠA v
ĠA ron
ĠA ld
ĠA ff
ĠA man
ĠA MEA
ĠA partment
ĠA ES
ĠA EP
ĠA qua
ĠA SP
ĠA uctions
ĠA vista
ĠA bercrombie
ĠA ECOM
ĠA zure
ĠIn tr
ĠIn ks
ĠIn ternal
ĠIn patient
ĠIn gredient
ĠIn nerwear
ĠIn ductors
ĠIn jection
Ġth re
Ġth read
Ġth yroid
Ġen c
Ġen roll
Ġen abled
Ġen forcement
Ġen robed
tr ia
tr ie
tr uck
tr usions
le e
le ased
le gi
th o
th age
th ouse
ess ed
ĠIt ems
ch at
ch ar
ch ool
ce a
Ġre ct
Ġre port
Ġre pt
Ġre tain
Ġre pro
Ġre vers
Ġre load
Ġre cycle
Ġre put
Ġre comb
Ġre organ
Ġre lease
Ġre entry
Ġre purchase
Ġre curring
Ġre usable
ĠP G
ĠP M
ĠP R
ĠP U
ĠP y
ĠP om
ĠP ad
ĠP ear
ĠP ets
ĠP att
ĠP oint
ĠP ool
ĠP egas
ĠP RO
ĠP urs
ĠP ipe
ĠP GI
ĠP ont
ĠP app
ĠP oints
ĠP ermanent
ĠP TI
ĠP enumbra
ĠP ilgrim
ĠP urification
Ġproduct ive
Ġhead s
Ġheadquarter s
ates t
ud der
ud dy
iv a
iv an
iv ed
iv ago
iv iral
iv Care
Ġcon gest
Ġcon certs
Ġto ps
Ġto oth
Ġto otsie
Ġg al
Ġg um
Ġg all
Ġg our
Ġg ird
Ġg ulf
Ġg ather
Ġg raphic
Ġg utters
est em
est one
est yles
ĠB R
ĠB a
ĠB as
ĠB ag
ĠB id
ĠB os
ĠB od
ĠB ure
ĠB enn
ĠB ets
ĠB arg
ĠB illing
ĠB au
ĠB atter
ĠB rew
ĠB attle
ĠB alls
ĠB ush
ĠB erman
ĠB erry
ĠB anco
ĠB oney
ĠB aum
ĠB rick
ĠB ali
ĠB enton
ĠB KE
ĠB auxite
ĠB PM
ĠB romine
ĠB locks
ĠB CX
ĠB yron
ĠB rett
ĠB ilox
cl ient
cl ede
st en
st ack
st art
st able
st ash
st ock
st andard
st atic
Ġthrough put
ir a
ir an
ĠR x
ĠR id
ĠR ate
ĠR ig
ĠR ip
ĠR im
ĠR ap
ĠR ural
ĠR av
ĠR out
ĠR hy
ĠR atings
ĠR ights
ĠR az
ĠR itz
ĠR NA
ĠR CM
ĠR apid
ĠR acing
ĠR PO
ĠR MBS
ĠR hythm
ĠR oto
ĠR OV
ĠR olling
ĠR oku
ĠE B
ĠE vel
ĠE uro
ĠE CS
ĠE conom
ĠE AME
ĠE DG
ĠE RP
ĠE GR
ĠE CG
ĠE wing
Ġas eptic
ĠN A
ĠN D
ĠN I
ĠN L
ĠN g
ĠN at
ĠN ed
ĠN ar
ĠN ess
ĠN ir
ĠN ow
ĠN iss
ĠN ob
ĠN our
ĠN iger
ĠN ano
ĠN BC
ĠN ucleic
ate au
Ġde com
Ġh og
Ġh all
Ġh ire
Ġh ous
Ġh ats
Ġh arm
Ġh alf
Ġh azard
Ġh ouses
Ġfor est
Ġfor ec
Ġfor ensic
Ġfor warding
Ġfor feit
Ġn yl
Ġn urse
Ġn erve
Ġn Cino
Ġn asal
ĠF E
ĠF as
ĠF id
ĠF ine
ĠF ork
ĠF erg
ĠF ass
ĠF int
ĠF ixed
ĠF ind
ĠF urn
ĠF arn
ĠF ishing
ĠF itch
ĠF ores
ĠF erry
ĠF ruit
ĠF ull
ĠF FE
ĠF PL
ĠF arms
ĠF DA
ĠF SS
ĠF PD
ĠF RC
ĠF uneral
ĠF ayette
ĠF irm
ĠF lowserve
Ġe ight
Ġe ven
Ġe Cash
Ġe asier
Ġe Plus
Ġe Banking
Ġon to
Ġon bo
Ġon site
ĠD as
ĠD em
ĠD og
ĠD ank
ĠD ow
ĠD uc
ĠD ors
ĠD ear
ĠD ist
ĠD ex
ĠD uck
ĠD ane
ĠD ietary
ĠD ustin
ĠD rew
ĠD NA
ĠD rey
ĠD TE
ĠD airy
ĠD ialysis
ĠD enton
ĠD anny
ĠH s
ĠH em
ĠH op
ĠH um
ĠH ors
ĠH ub
ĠH ey
ĠH off
ĠH ush
ĠH uss
ĠH uff
ĠH omer
ĠH alf
ĠH CM
ĠH ull
ĠH PC
ĠH icks
ĠH ette
ĠH aim
ĠH BO
ĠH edge
ĠH AY
ĠH unts
ĠH udson
ĠH anson
ĠH untington
ĠH OK
ĠH orton
ĠH ormel
ĠH edging
ĠH unter
Ġr ib
Ġr ating
Ġr ich
Ġr iver
Ġr iders
Ġl im
Ġl ay
Ġl ith
Ġl ug
Ġl enses
Ġl amp
Ġl inks
Ġl ength
Ġl itigation
Ġl itter
Ġl ieu
Ġl adies
Ġl atest
ĠO T
ĠO p
ĠO ur
ĠO bs
ĠO ah
ĠO SB
ĠO shkosh
ĠO LAP
ul a
ul um
ul der
ul ator
ĠG P
ĠG i
ĠG ay
ĠG ron
ĠG rap
ĠG rid
ĠG ene
ĠG room
ĠG erman
ĠG raphic
ĠG CM
ĠG LP
ĠG ypsum
ĠG YN
ĠG amer
ĠG eek
ĠG uidewire
am f
am el
am et
am ine
Ġcons ervation
ts y
ts on
ts ev
ts ville
ac a
ac on
ac ons
ac itors
em on
em itting
em aker
pp ed
pp ies
act ic
act ices
act uring
act uators
low ers
op en
op ia
op oly
op tic
ĠW D
ĠW i
ĠW ent
ĠW hich
ĠW als
ĠW ear
ĠW ob
ĠW ak
ĠW ade
ĠW agering
ig o
ig ating
ig ible
ig ilance
ĠL on
ĠL ess
ĠL ans
ĠL ib
ĠL ay
ĠL ill
ĠL ub
ĠL ower
ĠL ist
ĠL af
ĠL ath
ĠL ev
ĠL yn
ĠL au
ĠL ights
ĠL ink
ĠL umber
ĠL AN
ĠL ithium
ĠL ucky
ĠL ynn
ĠL iang
ĠL itigation
ĠL ancaster
ĠL GBT
Ġtr ib
Ġtr iple
Ġtr ends
Ġtr ench
Ġtr aum
Ġtr actors
Ġtr aits
Ġtr ivago
ans wers
ab in
ab ody
ab eth
ab olic
ab oard
ab asas
ip ar
ip it
ip ation
ip las
im m
im o
im an
im es
im ir
im ab
im ble
im mel
im etry
im plant
ect on
ect ed
Ġfollowing s
orp hic
Ġv ast
Ġv ault
Ġv ersions
os y
os ky
od ic
ĠJ as
ĠJ et
ĠJ oh
ĠJ ama
ĠJ AN
ĠJ ean
ĠJ iang
ĠJ oung
ĠJ ustice
ĠJ ordan
Ġdis k
Ġdis place
Ġdis trict
Ġdis cretionary
Ġdis charge
Ġdis aggregated
if th
if unction
ine a
ine g
ure ate
ot ional
ot tenstein
Ġmarket able
olog ie
ib ot
ib les
ap t
ap ro
ap ed
ap ar
ap ad
ap ort
ver in
ver aging
ver ged
um en
um ed
um bo
Ġac re
Ġac ry
Ġind emnity
Ġind icators
ĠU l
ĠU PS
ĠU AN
ĠU rea
ĠU sed
ĠU rban
ĠU mpqua
ĠU ser
ell y
ell ed
ell ers
ell ular
yst yn
Ġst ent
Ġst ov
Ġst ev
Ġst reet
Ġst acks
Ġst icks
Ġst atus
Ġst roke
ty k
ty pe
iz io
iz abeth
all ation
Ġan ten
ric s
ric ulum
Ġlo ads
Ġlo tion
Ġlo unge
ew are
ew all
ew ood
ew ares
Ġpl c
Ġpl ug
Ġpl anners
Ġpl aque
ace au
ard i
ard ant
ard ja
ens en
sur ing
sur face
te a
ĠPro prietary
ĠPro be
ĠPro cter
ĠPro Connect
Ġtrans cript
Ġtrans plant
uc or
uc us
uc ose
Ġdevelopment al
ill er
ill ment
ill ard
Ġex it
Ġex hib
Ġex press
Ġex cell
Ġex cav
co a
co st
co ok
ign a
ign anc
Ġad s
Ġdistrib utions
Ġtechnolog ically
Ġequ ine
erg ic
erg izer
Ġor gans
ĠCom bat
gr a
gr id
Ġel f
Ġel der
Ġel ement
Ġel igible
igh ing
igh thouse
ĠSt ations
ĠSt one
ĠSt arr
ĠSt abil
ĠSt agwell
ĠSt ewart
Ġgas k
meric a
meric h
mun ications
mun ology
ĠK om
ĠK re
ĠK iss
ĠK ath
ĠK ra
ĠK az
ĠK oll
ĠK ool
ĠK ush
ĠK now
ĠK LE
ĠK eds
ĠK la
ĠK KR
ĠK irk
ĠK och
ĠK emp
ĠK arma
ĠK imberly
ĠK onstant
ĠK urland
art en
art ment
art land
pr ise
pr ints
Ġelect ronically
Ġco ats
Ġco verages
Ġco urts
ĠV o
ĠV an
ĠV ect
ĠV os
ĠV ale
ĠV iet
ĠV IT
ĠV antage
ĠV TR
ĠV istar
ĠV Mware
ĠV PN
Ġdes truction
ĠCA M
ĠCA LV
ĠCA PP
anc ers
ons e
ons orship
pl ate
pl ane
ĠRe ed
ĠRe ad
ĠRe fr
ĠRe ev
ĠRe ady
ĠRe ese
ĠRe use
ĠRe entry
ĠRe present
ĠRe inforcement
Ġass ay
Ġass ays
ult ure
ult ant
ult aneous
oft op
Ġcr ush
Ġcr ani
Ġcr anial
Ġcr iminal
Ġus age
Ġreal ize
ub ble
ines e
av a
av es
av ans
av co
tail ored
ast ating
Ġmed ications
Ġwell be
Ġwell bore
Ġest im
ĠEn dom
ĠEn gage
ĠEn voy
ĠEn vi
ĠEn graving
ĠEn tities
Ġholding s
ly le
fr esh
fr iend
ĠCo il
ĠCo ver
ĠCo ve
ĠCo ke
ĠCo urt
ĠCo terra
Ġch oline
Ġch illers
Ġle ak
Ġle ft
cur sion
rom atography
ist or
ist ol
ist icated
ĠTr u
ĠTr av
ĠTr end
ĠTr uly
ĠTr uth
ĠTr inidad
oc uSign
end age
end itures
Ġcont ing
Ġcont amin
ĠProduct XM
ak s
ak is
ile ps
Ġcare ers
ĠUnited Healthcare
our g
our n
Ġoil seeds
ru ker
Ġgener ations
ov ers
enter al
ass ium
ĠMan n
ĠMan hattan
erm ore
Ġcommun icating
ĠY an
ĠY oung
ĠY once
Ġact ing
ĠAs phalt
hol ster
ĠDe e
ĠDe cision
ĠDe Fr
ĠDe ere
ĠDe Bo
ĠSe ed
ĠSe ating
ĠSe iber
ĠSe ca
ĠSe aling
ĠSe gregated
ĠSe iders
ĠSe kar
ĠSe aport
Ġtre ated
ey ond
ĠSan j
ĠSan ford
ĠSan uk
Ġnetwork ed
ĠFr ies
ĠFr isco
ĠFr itz
ĠFr iends
ĠFr acturing
Ġag es
ĠInd ices
ous and
Ġinter ment
Ġinter con
Ġinter rog
ĠCons ultant
Ġpower ing
Ġpower bo
Ġpower train
Ġ18 18
Ġ18 23
ight on
Ġim ports
Ġim agery
Ġpre ferences
Ġbe g
Ġbe an
Ġbe ams
Ġbe acons
Ġengine er
Ġun b
Ġun r
Ġun ion
Ġun ble
Ġun mat
Ġun coated
Ġun refined
ient ial
Ġal ert
Ġal umina
Ġal logene
Ġal doster
Ġclo se
fol k
ĠAn t
ĠAn alog
ĠAn na
ĠAn gie
Ġsecur ing
Ġcorp oration
Ġadv ant
Ġadv ising
ph al
ph oma
ph ys
ph ere
Ġintegr ate
ef ish
ef fer
ef ield
Ġsm el
ry s
ry or
ry ing
ĠCh i
ĠCh er
ĠCh ang
ĠCh att
ĠCh ao
ĠCh aud
ĠCh ester
ĠCh ildren
ĠCh inese
ĠCh romatography
Ġfr ies
Ġfr ame
Ġfr agment
Ġcap ability
Ġsol ids
Ġsol ving
Ġsol vents
Ġsol icitation
Ġnon performing
Ġair port
Ġair field
Ġair borne
ĠMar iet
ĠMar vin
ĠMar lborough
ĠMar max
ich ap
ich loro
ee v
ee pers
ath on
Ġpay ors
Ġpay loads
Ġout bo
Ġout board
Ġout put
ĠMid dlet
Ġsh ot
Ġsh ipment
Ġsh ield
Ġsh orts
Ġsh amp
Ġsh opper
Ġsh orter
Ġsh uttle
Ġsh aped
Ġref inish
Ġref ineries
Ġsales force
Ġreg eneration
Ġreg enerative
cr est
Ġsp ans
Ġsp atial
Ġsp read
Ġsp irits
Ġsp irit
Ġbi of
Ġunder wear
Ġunder car
Ġunder pinn
air d
Ġtrust ee
Ġins truct
Ġins ulated
Ġins ects
Ġins ulating
ĠTh ese
ĠTh read
ĠTh under
ĠTh ousand
Ġanaly z
Ġro ute
Ġro uting
Ġro uters
Ġro oftop
Ġloc ate
Ġloc ating
Ġloc ator
Ġbo at
Ġbo ots
Ġbo ilers
Ġdev astating
oh it
ld on
Ġcar pet
Ġcar ries
Ġcar casses
ĠRes ale
ĠRes istors
ĠIndustr y
Ġmet hyl
ĠCan a
ĠCan opy
ie b
ie ver
Ġapp oint
Ġapp eals
Ġapp aratus
Ġapp etizers
Ġapp endage
ra h
ra el
ra ham
Ġsc rew
Ġsc oring
Ġsc anners
Ġsc ope
Ġmult id
Ġmult ifunction
Ġserv ed
Ġmain land
ĠMed ina
ten berg
ten zio
ish ment
ish ers
Ġem b
Ġem ission
Ġem itting
Ġem otional
Ġdr um
Ġdr iven
Ġdr iveline
ols on
Ġwork er
Ġwork load
Ġwork site
ĠCon vert
ĠCon cent
ĠCon centr
ĠCon ifer
ĠCon ferences
ĠCon certs
ĠCon duit
ied mont
Ġbank ed
Ġbank rupt
ĠMA X
ĠMA CI
pro ved
Ġwater proofing
ĠTrans catheter
Ġat mosp
Ġat rial
ug gets
ĠAl ice
ĠAl arm
ĠAl cohol
ĠAl umina
ĠAl pha
ĠAl va
ĠAl amed
mission ing
Ġopt o
Ġopt ion
Ġexp orters
Ġexp enditures
Ġpur ity
Ġpur ify
Ġpur ifications
ĠAd ler
ĠAd elson
ĠAd jacent
ĠAr ch
ĠAr ab
ĠAr mon
ĠAr uba
ep ower
ograp h
ĠComp lement
Ġprofess ions
int ensive
ĠBank Mobile
ĠDis k
ĠDis ability
ĠDis cretionary
ĠDis pensing
ious ly
Ġinstit ution
ĠElect romechanical
Ġcent r
Ġfl ight
Ġpar enteral
ax ter
Ġhy br
ok ee
ok ane
ok ai
ĠIndustrial s
istr a
Ġint ent
Ġint ro
Ġint ensity
ĠWill ard
Ġval id
Ġval ues
dr ide
Ġend osc
Ġend odontic
Ġend points
ĠPA MC
ĠPA CE
ĠPl ain
ĠPl att
ĠPl aces
ĠPl umbing
ĠPl ayer
ĠPl asma
ĠPl anned
ĠPl atts
artn er
artn ey
Ġcapital ize
Ġall ied
enn a
ĠCl ess
ĠCl ubs
Ġret ro
Ġret inal
Ġret ention
ĠBe an
ĠBe ck
ĠBe ats
ĠEx port
ĠEx cel
ĠEx changes
ĠEx teriors
ĠEx trusions
man ufactured
Ġgeograp hy
ock et
ĠSc ent
ĠSc ores
ĠSc anner
ĠSc iPl
eg ro
eg lass
eg uarding
Ġstr and
ĠAll ison
ĠHome Advisor
ĠHome Goods
Ġk ill
Ġk ios
Ġk itch
Ġk itting
Ġk eep
Ġk orlym
ĠSte ers
ind s
ind ustr
ind ex
ĠCol in
ĠCol mar
Ġvari ants
Ġvari eties
Ġj un
Ġj ust
Ġj ob
Ġj ustice
Ġj oists
Ġpublic ly
ĠCar ver
ĠCar los
ĠCar riers
ĠCar bohydr
ĠCar thage
ĠCar lyle
Ġorigin ate
Ġorigin ators
ho tron
ne ider
ne edle
ins ky
ins pired
aw s
aw ood
ĠZ i
ĠZ at
ĠZ ell
ĠZ io
ĠZ uk
ĠZ hang
ĠPr esto
ĠPr actices
ĠHo ugh
ĠHo rowitz
rid ing
ps hire
ters burg
Ġhel ium
Ġhand pie
ĠWest ford
ĠWest chester
ĠWest phal
ick ness
Ġlog o
Ġlog ging
ĠFranc escon
Ġed ible
Ġconnect ions
ĠBr ass
ĠBr iggs
ĠBr unswick
ĠBr istol
Ġpurch asers
Ġgeographical ly
ri or
ri ad
ĠCO NSOL
Ġneed le
ang o
ang ler
ĠMay field
Ġcond iments
Ġ195 3
Ġent ering
Ġent hus
ĠUt ica
Ġste ering
Ġste aks
Ġexpl ore
her ic
Ġme ans
ME T
ĠCare y
ĠCare er
ĠCare free
ĠCare Credit
Ġlight ning
ĠJun o
Ġcle ar
reg s
reg ular
Ġcomb iners
ĠNetwork ed
Ġhard wood
cy te
Ġinterest ed
Ġorganiz e
yl am
ĠBro ck
ĠBro thers
Ġlab s
Ġlab els
ĠLife S
ĠLife cycle
Ġit iner
ĠCap acitors
ĠJune au
Ġcell ulos
ĠAut hor
ĠPower pay
Ġnot ifications
Ġouts ource
ĠEqu ator
Ġ192 2
ĠProcess es
ĠProcess or
ĠSp a
ĠSp ark
ĠSp iral
ĠSp icer
ĠSp onsorship
ĠSp okane
Ġover riding
ĠCent ennial
Ġgr illing
Ġgr ains
ĠEd mond
ĠEd win
ĠEnter gy
Ġimpro ves
Ġimpro ving
In nov
In dependent
li en
let a
let ica
rop lex
rop ologie
ĠMc M
ĠMc Donald
ĠAustr ia
Ġ194 2
ĠGe ospatial
Ġinstall ing
Ġinstall ers
Ġbiop harma
der ived
ern a
Ġ190 7
ier e
Ġche w
Ġfil es
Ġfil ing
ĠCr an
ĠCr est
ĠCr aft
ĠCr ystal
ĠSh ay
ĠSh ield
ĠSh ah
ĠSh ave
ĠSh erman
ĠSh ops
ĠSh ielding
ĠBrand on
ĠBrand ed
ĠBrand ing
ĠBrand XM
ĠAustral asia
tical ly
eng er
Ġcre m
cript ed
cript ions
Ġ193 6
ane an
Ġsur viv
Ġsub m
Ġsub markets
Ġsub surface
ĠAss emblies
ĠAdv ance
ĠAdv ice
ded icated
sc opic
ĠAc id
ĠAc ademic
ĠAc etate
ĠAc etyl
Ġtravel ing
Ġclean room
ĠBo oks
ĠBo ots
ĠBo yd
ĠBo ersma
emb ourg
utr ients
ĠMin or
ĠMin net
Ġoptim izes
ĠFl ight
ĠFl ash
ĠFl ags
ĠOr tenzio
AC I
AC O
AC T
Ġup s
Ġup on
Ġup front
Ġup holster
ĠAtl antis
ĠWater town
ĠThomas ville
mon ia
Ġwe ight
Ġwe ighing
Ġ191 0
Ġ191 1
Ġ191 3
Ġpart itions
ĠClo thing
ĠClo sures
ĠClo sure
ĠClo rox
Ġcompos ition
Ġcompos itions
ĠMon te
ĠMon oline
ĠMon arch
ĠMon aco
ĠMon aghan
Ġland ing
Ġland fill
Ġland fills
Ġcollect s
Ġarr anges
Ġtele hand
Ġtax ation
Ġpe ening
oper ated
Ġpoly meric
Ġpoly ols
Ġpoly vin
Ġpoly ester
Ġpoly prop
Ġmeas ur
ĠCal der
ĠCal cium
ĠCal abasas
Ġrail ing
Ġrail heads
play ing
ĠSecur ed
Ġqu artz
ĠSch m
ĠSch u
ĠSch iff
ĠSch uster
ĠSch lumberger
ĠSch immel
ĠSch ottenstein
ĠApp raisal
ĠApp Folio
Ġassoc iates
Ġbr ack
Ġbr ings
Ġbr ake
ĠSm oke
ĠSm elting
ĠAir stream
ĠAir borne
ĠAir frame
ĠAir planes
ĠEl m
ĠEl mer
ĠEl izabeth
Ġlocal ized
az a
Ġinf ant
Ġinf lation
Ġtherm o
Ġtherm ost
Ġgen ome
Ġgen omics
Ġgen uine
Ġgen omic
ĠDen mark
Ġresp ect
Ġmedic are
Ġ189 4
Ġ189 6
Ġaltern ators
Ġrec ent
ĠLog ic
ĠLog stash
Ġ188 1
aid ed
Ġinnov ations
ĠPark ing
ĠRo und
ĠHar bors
Ġadd itional
ĠAnd roid
itch ing
oll s
Ġmin i
Ġmin or
Ġmar row
Ġdet ention
ĠMet Life
ĠLe o
ĠLe eds
ĠLe erink
ĠLe awood
Ġdeliver ies
Ġso und
Ġso up
Ġso aps
Ġenable ment
cept ion
ĠPay ne
Ġlif ting
Ġlif etime
Ġlif estyles
ulf illment
Ġpack ing
ĠOut comes
ĠOut side
ĠOut do
Ġsho e
Ġgroc ers
asc a
Ġmicro electronics
Ġmicro actuators
Ġback up
Ġback haul
Ġback ground
Ġback packs
Ġback plane
ĠInter est
ĠInter ventional
Ġgu ests
ĠUn regulated
ĠTherap y
Ġfranchise e
EM S
EM T
cu it
cu its
cu los
Ġcor onary
ĠStr and
ĠStr ip
ĠStr ayer
ĠStr auss
ĠStr yker
ĠIns ulation
Ġrefriger ants
Ġeff orts
Ġeff ects
Ġsmart phone
Com m
Com ms
Ġrel ax
ĠEm il
ĠEm met
ĠEm bass
ĠWal d
ĠWal ton
ĠWil d
ĠWil low
Ġstream lined
Ġclass ic
ĠMedic ines
App le
Ġcomplex ity
ĠDan bury
Ġprem ises
eff ect
eff icient
Ġhydro electric
ĠBancorp oration
Ġab road
ĠAg tech
ĠAg ilent
ĠDr inks
ĠDr ivetrain
ĠDr iveline
ĠHe ini
Ġrad ius
ĠOil s
ĠOil seeds
Ġstud s
Ġflo ating
Ġmus culos
ĠSem i
ĠSem iconductors
Ġnutr aceutical
ĠFood Tech
ĠDi odes
ĠOpt ions
ĠOpt imal
ĠGr ay
ĠGr anular
Ġcarbon ated
Ġdiffer ences
we et
Ġ4 01
Ġy oung
Ġsk ills
Ġcut lery
itt ance
Ġbuy out
Ġbuy outs
ĠInst allation
ĠPort ugal
ĠPort noy
Ġconduct ing
ĠLas ers
Ġtransform s
Ġtransform ations
ĠFranch ised
CO R
CO V
IT T
IT Y
St and
St ore
St ock
St orage
iqu es
ox olone
ĠX R
ĠX ie
ĠX oom
Ġsim ulators
Ġsim ultaneous
Ġsyn c
Ġsyn thes
Ġsyn gas
Ġfabric ating
itz er
ĠPar ty
ĠPar aguay
ĠRock ville
Ġhouse keeping
Ġcoun ty
Ġfresh ly
En er
En core
lor ide
met al
tin ent
olis m
agr am
Ġvol umes
Ġdisord er
ĠAngel o
Ġcompress or
Ġcompress ed
Ġcompress ors
ĠEdward s
ĠCloud flare
NA A
lin er
lin ary
inn on
inn ers
Ġca pped
Ġcur riculum
Ġthem ed
Ġbl ank
Ġbl ending
Ġbl acks
Ġbl ades
ĠPeter son
ĠPeter bil
Al b
Al ign
car rying
Ġpot ent
Ġpot assium
elect romechanical
ĠPer ipher
ĠDel i
ĠDel ek
ĠWell s
ĠWell bore
Ġclos ure
Ġclos ely
Ġeffic iencies
Tr ip
Tr ack
Tr iever
cons olidated
ict ion
aran te
Ġmass ive
Ġdown hole
Ġcomplet ions
ĠMart ech
Ġdecision ing
ĠHy brid
ĠHaw kins
Ġsupp ress
Ġdispos ition
Ġunderw ritten
Ġunderw rites
cond itioning
Ġ5 2
Ġsal ad
Ġsal ty
Ġpric ed
ĠIll ness
ĠBuilding s
ĠLeas es
ĠVir tual
ĠCont ent
ĠSteph ens
Ar ch
Ar row
Ar ray
Ġsta ke
ask ar
ask Us
Ġmemb rane
ĠCru z
ĠAm ir
ĠAm bulatory
ĠAm monia
ĠPre paration
ĠPre pared
ĠRed man
ĠRed evelopment
ĠJeff erson
Ġext reme
ĠDev Ops
Ġscre en
ĠContract or
ĠContract ed
ĠGreen berg
ID EX
TE L
Ġsw ap
Ġintr usion
Ġoc cas
Ġmix ers
ĠSpr ings
ĠLab el
ĠVal ves
ĠVal uation
Ġlead ers
Ġ186 9
Ġ187 1
Ġ187 6
Ġ187 8
Ġfeed back
ĠBlack Rock
Ġperform ed
ĠTre ace
ĠTre vor
ĠIT T
ĠIm ages
ĠIm pact
ĠIm munology
Ġaff airs
Ġaff inity
Ġaff iliated
ĠSim ple
ĠMil k
ĠMil pitas
ĠMac au
ĠBlo om
ĠBlo ch
ĠBlo od
ĠRos s
ĠRob ins
Ġdemand s
ĠFor ged
ĠFor ensic
ĠFor warding
ĠDo uble
Ġlub e
ĠOn es
ĠOn shore
ĠOn cology
ĠWe is
ĠWe iss
ĠWe bster
ĠWe etab
uff les
ĠUS B
ĠUS AC
press o
Ġlearn ers
Ġaggreg ated
Ġhomeown er
Ġenhance ment
Ġenhance ments
Ġcollab orations
Ad Colony
IS PR
Ġir regular
Ġte a
Ġte am
Ġob tain
Ġiss uer
Ġrece ive
Ġrece ives
Ġrece ivers
ĠGl aceau
ĠLa unch
ĠLa Cro
ĠLa clede
Ġtrack ers
Ġsuper comp
Ġsuper vis
Ġshare holders
Ġinsp ect
ano oga
Ġtext iles
ĠTem porary
ĠTem ple
Ġmill ennial
ĠIs rael
Ġsecond arily
Ġprop ylene
ĠSw iss
ĠSw anson
ĠMod els
ĠMod ular
ĠAppl iances
ĠPal antir
ĠNe ed
ĠNe il
ĠNe eleman
ĠLoc als
Ġany one
Ġcontin ents
Ġ185 0
Ġ185 9
Ġmeth ane
Ġlubric ation
Ġlubric ating
LE X
Ġtank er
Ġtank ers
Ġincre asing
ĠMill ichap
ĠAC H
ĠAC V
ĠAP J
ĠNutr ient
ĠNutr itional
ĠFo undry
ĠFlow ers
ĠFlow back
ĠGold man
Ġtransport ed
Ġcook ed
Ġcook ware
ĠCoun try
Ġfacilit ating
Ġunivers ity
connect s
ĠMcC artney
ĠAdvis or
Ġguarante e
FS C
FS S
cos a
nes ter
err anean
Ġsil ica
ĠTimber land
ĠTimber Tech
Ġpromot es
Ġpromot ing
Ġbal anced
Ġbal ancing
Ġbal loon
ĠChe ck
ĠChe esecake
ĠCor ey
ĠCor rugated
ĠCor respondent
ĠCenter Point
ĠMal col
ĠMobile ye
ĠMicro inverter
Ġgear ed
Ġgear ing
Ġep it
Ġep ileps
ĠWh ats
Ġdisp ense
Ġtransm itting
ĠSegment s
Ġbox board
comp ass
comp anied
Ġinj ection
Ġinj ured
Ġbut ter
Ġdry wall
ĠCarol inas
ĠSur factants
ĠSur iname
ĠMe als
ĠMe eting
ĠMy ron
Ġreag ent
ĠBi op
ĠBi omet
ĠBel gium
ĠRel iability
ĠRail car
ĠRail road
ĠFirst Energy
Ġconstruct ed
ĠWall a
ĠWall et
ĠWall board
Ġindex ing
ĠInvest ing
Ġkey s
Ġmeet ings
Ġphot o
Ġphot on
Ġphot om
Ġphot onics
ĠEmploy ers
Ġparticip ates
Pro gress
Un ion
Ver it
Ver tex
fl ight
fl ash
fill ed
gar ment
na as
Ġcross overs
Ġfurn aces
Ġwear able
ĠCy bersecurity
ĠSout heastern
ĠPack et
ĠPack aged
ĠPerm itting
ires an
ĠNE ER
ĠHand y
ĠHand ler
Ġrig s
ĠWin ston
ĠLi ability
Ġvis ibility
ĠUSA NA
ĠKe hoe
contin ent
contin ental
Ġatt acks
Ġatt orney
ĠExper is
ĠExper iential
Ġfraction ates
Am ph
rad i
Ġsand al
Ġinhib it
Ġinhib itors
ĠTim es
ĠTim ken
Ġsepar ately
Ġborrow ings
etr ack
ĠAL LETE
ĠPe tersburg
ĠPoly mer
ĠPoly ureth
ĠPrem ise
Ġdeploy ing
Ġhost ed
ĠDirect ional
ĠHam pshire
ĠGro unds
ĠWy omiss
ĠJay co
Ġstation ery
Ġcover ings
ĠEnviron ment
ĠChrist ian
ĠChrist ensen
product ion
cont rol
Ġdiagn ose
Ġventil ating
ĠQu est
ĠQu ant
ĠFoot Joy
GE N
GE V
de avor
vol ume
Ġcal or
Ġcal ibr
Ġchic kens
ĠCR ISPR
ĠStruct ural
ĠSalt water
ĠSubs ystems
ĠSubs criptions
ĠMo ines
ĠMo mentive
ĠMax x
ĠPatric ia
ĠBell Ring
ĠRF ID
ĠEr ie
ĠEmer gency
ĠEmer ald
Ġecos ystems
ĠDown s
ĠDown town
ĠOl ive
Ġconsult ants
ĠLic ense
ĠLic ensed
ĠStan ford
ĠVer tically
Ġprec ipit
ĠAnnu ity
ĠMarc iano
Ġbiom aterials
Ġflat bed
Ġflav or
Ġflav ored
ĠBrown e
Ġcontainer board
Ġpreserv ing
ĠMotor ized
ĠMotor home
ĠMotor cycles
Ġintermedi ary
10 7
Con stellation
Con tinent
ES T
ES CO
Re pl
Re ady
ha euser
Ġz ones
inet ics
Ġpath ology
ĠSqu ad
adem y
ĠMel vin
ĠAb el
ĠAb bott
ĠAb ilene
Ġrecon cil
Ġrecon cili
Ġremot ely
ĠPartn ering
Ġhar sh
ĠDet ection
ĠHow ley
Ġlumber yards
Ġlimit ations
Ġresid ents
Ġresid uals
Ġextract s
Ġelectro des
ĠVac uum
Ġprevent ing
ĠAnton y
Ġcapt ive
Ġcapt uring
Ġreflect ive
Ġempower ing
Ġempower ment
ĠDisplay s
ĠMcK esson
ĠMcK innon
ĠAcqu iring
ampa ign
ĠClean ing
Ġauthor ity
ĠComplet ions
Ġdocu ments
Co V
Cent ers
IA M
Mar riott
Mar athon
Pl ains
SB U
Ġi Ph
Ġi Pad
Ġobs ervation
Ġmake up
Ġmechan ics
Ġabs olute
ĠShe ldon
ĠShar ed
ĠMem orialization
ĠMain line
ĠMain street
Ġgre en
Ġgre ase
Ġgre ases
ĠEp ay
ĠEp oxy
ĠEp icel
ĠEp isodes
Ġdeg rees
Ġnear ly
Ġearn s
ĠHill rom
ĠWorth ington
ĠLight ing
ĠJo an
Ġdist ill
Ġstabil izers
Ġplay ers
ĠKr ish
ĠKr aft
ĠKr ystyn
ĠPrin cess
ĠSuper vision
ĠApple bee
Ġdough nuts
Ġrecruit ing
Ġrelationship s
Ġimplant ation
Ġsponsors hip
Ġseamless ly
Ġdesktop s
Ġessential s
Fr esh
North west
PO GEN
ced es
cip linary
Ġes presso
Ġsanit izers
atch ing
Ġfle ece
Ġprof iles
Ġwaf ers
Ġbot ulinum
Ġcomm issaries
Ġcomm itted
ĠCell ulose
ĠSub sea
ĠSub aru
ĠSub urbs
ĠMer rell
ĠMer cedes
ĠAer ial
ĠAud it
Ġrecept ors
ĠPan orama
ĠPol aris
ĠPars ons
Ġconver ting
ĠBus ter
ĠBus ch
ĠBut ler
ĠBru ker
ĠBarn ey
ĠBarn ett
ĠRun off
ĠRem ittance
ĠEver core
ĠEver north
ĠEver fresh
ĠNord ion
ĠNord ics
Ġhist ory
Ġnit ric
Ġnit rate
ĠDun can
ĠDun lop
ĠHouse hold
ĠHouse keeping
ĠGu inea
ĠGar ments
ĠWare housing
osh op
Ġadjust ing
ĠCompos ite
Ġchrom e
Ġ184 7
Ġrefer red
Ġmetab olism
Ġattribut ed
ĠArg osy
Ġcombat ants
Ġlandsc aping
Ġradi op
Ġacceler ated
ĠEmployee XM
Ġunderstand ing
Ġschedul ing
AT X
An cillary
An tero
Cal ifornia
Cal Gas
Gr ath
Par amount
SE Q
ST REIT
Tel co
prem ium
tz er
Ġspec ies
Ġspec ified
Ġspec ifically
aron is
ĠTV s
Ġmat ters
Ġmat tress
Ġmag icJack
Ġmiss iles
ĠCer ro
ĠCer amic
ĠSk eletal
ĠSens ors
ĠSho oting
ĠMen omon
ĠMat son
ĠMat rix
Ġtox in
ĠBer kshire
ĠBer kley
ĠBer ardi
irl pool
ĠRV s
ĠEst Ã©
ĠFin ished
ĠFin Tech
ĠDer rick
ĠDur wood
ĠProte ins
ĠVinc i
Ġcred ential
Ġchalleng ing
eyer haeuser
ĠExp edited
ĠExp edition
ĠPhot onic
ĠPhot oshop
Ġsurf actants
Ġupgrad ed
Ġvacuum s
Ġperipher als
Ġpotato es
ĠPeru vian
ĠPetro chemical
Ġcompound ing
ĠLabor atory
ĠForest ar
Ġcontinu ity
ĠMorris ville
investment s
Ġinitial ly
Black stone
ĠMatthew s
Ġbenchmark s
Ġcondominium s
Air line
Ch urch
Cl ark
OEM s
Sc ale
Str ategic
cut ting
deg ree
imer a
enz ie
Ġsl ab
Ġsl ush
Ġtim es
Ġtim eshare
Ġcamp ing
Ġcamp us
ĠTe gra
ĠTank s
ĠTank ers
Ġmerg er
Ġdoor bell
ĠCN N
ĠCN S
ĠMC AC
ĠMos kov
ĠMagn olia
lev ant
ĠItal ia
Ġgate way
Ġgate ways
ĠRoll ed
ĠRoll ins
ĠNav al
ĠDul les
ĠHay ward
ĠHew itt
Ġlamin ated
Ġconsol e
ĠLiqu id
ĠLiqu ids
ĠLiqu idation
Ġsugar cane
Ġdistr essed
Ġpredic table
Ġresist ant
Ġelectr ified
ĠVen mo
Ġcry ogenic
Ġcry pto
Ġcharter ed
Ġchips ets
ĠTruck ing
ĠSeab oard
Ġ183 2
Ġ183 3
Ġ183 7
ĠAnth ropologie
Ġpurs ue
Ġpurs uing
Ġpurs uant
ĠArt ificial
Ġstrength en
ĠAssoc iates
Ġcharacter istics
Ġcollateral ized
ĠOptum Health
ĠOptum Rx
ĠOptum Insight
Ġsimpl er
Ġsimpl ify
Ġauthent ic
ĠActive wear
ĠSocial Code
ĠTermin alling
Ġpsych osis
Ġdermat itis
Aut o
Aut omotive
Br ight
IM T
Mer cury
Ro ad
Ro yal
Ro oter
South west
We ather
bl ast
des k
des ign
deal ers
pre cision
Ġuro log
Ġsouth west
Ġcase goods
Ġpol itical
Ġpod cast
Ġpod cas
ĠTot e
Ġdom ains
ĠCir cuit
ĠCement ing
Ġcompet itively
ĠAD I
ĠAD ESA
ĠInnov ation
lease back
Ġrepos itory
Ġrecover ies
Ġremod elers
ĠPum ping
ĠBey ster
ĠBurg iss
ĠBah ama
ĠBah amas
Ġasp ir
ĠNu ance
Ġdem ographic
Ġdem olition
Ġhos iery
Ġnav al
ĠFast eners
ĠHel ix
ĠWolf e
ĠWolf speed
ĠLam bert
ĠLam from
ĠLif esciences
ĠJer ome
Ġindirect ly
Ġtranspar ency
ĠCommod ity
ĠKim pton
ĠRecycl ed
ĠEnd point
ĠDeal ership
ĠDevelop ed
ĠDevelop ments
ĠDevelop mental
ĠConsum able
Ġalign ment
Ġalloc ation
Ġalloc ations
Ġadvance ment
ĠMarsh all
Ġroad ways
ĠConvers e
prop elled
Ġtelem atics
orning star
Ġgran ite
Ġgran ular
Ġgran ules
Ġweather proofing
Ġinflamm ation
ĠRosen berg
ĠRosen bl
ĠRobot ic
ĠGlen view
ĠLauder dale
ĠNeuro technology
ĠNeuro science
ĠAPI s
Ġpolicy holders
ĠTerminal ing
ĠCustomer XM
Ġfertil izer
Ġbottl ers
Ġpediatric s
12 5
All iance
GR ID
Nor thern
Su per
Sal em
oro sc
inter est
Ġsnow mobiles
Ġsitu ations
Ġsitu ated
Ġinject able
Ġpil ot
Ġpav ers
Ġpione ered
Ġfix tures
ĠTub ing
ĠTub ular
ĠIdent ity
Ġproble ms
Ġbur ritos
Ġbird s
Ġbrew eries
ĠCit i
ĠCit izens
ĠCall on
ĠCry o
ĠCry sv
elig ible
ĠSen ior
ĠSen iors
ĠScr ipps
ĠMir ab
ĠMach ine
ĠMach ines
ĠAk ron
ĠAk cea
ĠAth leta
ĠInf iltr
Ġreman ufact
ĠPhys ician
Ġconst ipation
Ġgl az
Ġgl ucose
ĠBed ding
ĠBerg er
ĠBerg man
ĠBak ken
ĠRand olph
ĠRad nor
ĠEN R
Ġdegrad ation
Ġhors e
Ġhors epower
ĠFol ey
ĠHu ang
ĠOw en
ĠOw ens
ĠGard ner
employ ed
ĠWo estem
ĠWr ight
ĠWr angler
ĠWat son
ĠWond er
ĠWond erland
ĠLap in
ĠLap iplas
ĠLex us
ĠLeg acy
Ġanch ored
Ġanhy dride
ĠProvid er
Ġelim in
Ġelev ators
Ġelev ator
munity Bio
ĠKar am
Ġcoupl ers
ĠVol umes
Ġapply ing
ĠDec orative
Ġimport ed
Ġimport ant
Ġprev alent
Ġprev iously
ĠChamp ions
Ġemp ty
Ġworksp aces
ĠAlb uqu
ĠPlay tex
Ġincent ive
Ġentr ance
Ġsurvey ing
Ġsubmar ine
ĠBoard walk
Ġquant ities
Ġdoct ors
Ġshel ters
ĠAgricult ural
ĠSuns et
Ġbarrel s
Ġoxy gen
Ġrebuild s
Ġelastomer ic
66 975
Ass emblies
Del ek
Har mon
High way
LI SA
Man ufactured
NGL s
Next Era
Rob ot
Sa aS
Th ermal
iat ry
kn ee
lic ensing
Ġsaf ely
Ġsaf eguarding
Ġtechn icians
Ġtechn iques
Ġcush ions
Ġcush ioning
Ġpell et
Ġpell ets
Ġpall ets
Ġpall iative
Ġperm its
Ġolig o
Ġolig onucleotide
ĠTi oga
ĠTurb ine
itr ans
ĠIss uer
Ġwrap s
Ġbun ion
Ġblow ers
Ġdur able
Ġdock ing
Ġax les
Ġaugment ed
Ġaugment ation
ĠSM B
ĠSal vador
ĠSar asota
ĠSie gel
Ġhemat ology
ĠAub urn
ĠAub rey
ĠAero Tech
Ġenzy me
Ġenzy mes
Ġrefr actory
ĠPot ash
ĠPot tery
ĠPorts mouth
Ġgrap hite
ĠBre ast
ĠBio energy
ĠRac etrack
ĠRow e
ĠET Ps
ĠNathan iel
Ġdeterm ine
Ġdeterm ines
Ġnight life
ĠFar rell
ĠForm ing
ĠForm ula
Ġonc olytic
ĠDX TRA
ĠDay force
ĠHir sch
ĠHass enfeld
ĠHond a
ĠHond uras
Ġraz or
Ġlid ar
Ġlap tops
ĠGer ard
ĠGall agher
ĠGra ham
ĠGra inger
ĠWool ford
ĠWarner Media
igen ics
ĠLiv ermore
Ġvi olation
ĠJag deep
ĠJenn ie
Ġanim ation
Ġanim als
ĠProp ane
ĠProp ulsion
Ġadm issions
Ġadvert ise
Ġadvert isers
ĠKa uf
ĠKa iser
Ġcoordin ate
Ġcoordin ated
ĠVit amin
ĠCopp ell
ĠCopp ola
ĠCook ing
ĠManpower Group
ĠAspen Tech
ĠDeep ak
Ġagon ist
Ġagon ists
Ġprep are
Ġprep regs
ĠCham berl
Ġbios im
Ġroot ed
ĠResp iratory
ĠResp onse
ĠContin ental
ĠAltern ative
ĠAltern atives
ĠAlign er
Ġinvestig ations
ĠPlace ment
Ġkn ee
Ġkn own
ĠPres cription
ĠPrint ed
Ġsubst ation
ĠFlu ids
ĠOrgan ization
Ġneuropsych iatric
Ġrecapital ization
Ġrecapital izations
ĠRoad house
Ġcycl ing
ĠOptim um
ĠOptim ization
ĠOptoelect ronic
ĠOptoelect ronics
Ġevalu ating
ĠHyd raulic
ĠHyd raulics
Ġintrac ellular
Ġissu ers
Ġissu ance
ĠTelecom munications
ĠBiot ech
Ġredevelop s
ĠRecord s
ĠRecord ed
Ġsyru p
Ġsyru ps
Ġsweet eners
ĠOrthop edics
ĠOrthop aedics
ĠPepsi Co
Ġaccommod ation
Ġaccommod ations
Ac adia
Appl ied
Cle an
Cab letica
Ess ential
Front ier
He artland
Mur phy
Ow ens
Ren Telco
Roll ed
Ster ling
Ter ad
WR D
Wood ford
dev ice
hosp ital
infect ives
Ġsout heastern
Ġtor ches
Ġtom ography
Ġtun nel
Ġtight ly
Ġinput s
Ġcas ings
Ġcaul ks
Ġpanc akes
Ġpie zo
Ġold er
Ġfeder ally
ĠTB D
ĠTen ant
ĠTol edo
Ġmal ignanc
Ġmirror s
ĠICE E
Ġwaff les
Ġbis cuits
Ġbus bars
Ġden im
Ġdon or
Ġdim mable
ĠCz ech
ĠCre ator
ĠCad bury
ĠCab ot
ĠCay man
ĠCross Lab
ĠCLE C
Ġcompl ications
ĠSut ardja
ĠSter igenics
ĠSab ine
ĠSuc cess
ĠSav ings
ĠSeas ons
ĠSustain ability
ĠMol okai
ĠMedit erranean
ĠMong oDB
ĠMeter ing
ĠAx is
Ġread iness
ĠPu ppies
ĠPSE G
ĠBM W
ĠBab cock
ĠBob by
ĠBerm uda
ĠBuck le
ĠRaf ael
ĠRena ud
ĠEich ner
ĠEff ects
ĠEcho Park
ĠNex tracker
Ġhum id
Ġhorizon tal
Ġherb icides
Ġnumer ous
ĠFut ures
ĠFle ming
ĠFul ler
ĠFace book
ĠFix d
ĠDu olingo
ĠDest inations
ĠDot dash
ĠDick inson
ĠDayton a
ĠDmit ri
ĠHend erson
ĠHug o
Ġrhe um
Ġrac ino
Ġrend ered
Ġlig ands
Ġlink ing
Ġliner board
ĠOll ie
ĠWS FS
ĠWes ley
ĠWars aw
ĠLan ier
ĠLux embourg
Ġsuc cess
Ġviv o
Ġvend ors
ĠJul ie
ibur ton
former ly
izant es
ĠProduc ed
Ġorches trate
ĠComm issaries
ĠKer kor
ĠKro ger
ĠVis ibility
ĠVel oc
ĠVeter inary
ĠVlad imir
ĠRev olve
Ġcryst als
Ġcruis ers
ube Smart
Ġcontroll ers
ĠSeb ree
ĠFranco is
Ġimpair ed
Ġshif ters
Ġrock et
Ġcartr idges
Ġscal able
Ġmultim edia
prot ected
ĠAdjust ments
Ġvalu able
Ġendow ments
ĠClin ics
ĠClar ence
Ġkin ases
ĠBrit ish
Ġadminister ing
ĠAutonom y
Inv estment
ĠPhosph ates
Ġupd ates
ĠScho enberg
Ġrecogn ized
ĠAndre as
Ġtyp ically
rowd Strike
ĠRocket dyne
Enter prise
Ġcurtain wall
Ġ179 2
ĠRosem ont
Ġnewspaper s
Ġparticular ly
Ġteach ing
ĠSauc ony
Ġepis odic
Ġdiagnos ing
Ġharness es
ĠShel ton
ĠSmartS ide
Ġmyasth enic
ĠButter field
ĠDeriv atives
Columb ia
Ġescal ator
Ġdeterg ents
Ġdetermin ation
Employ ed
Ġjourney s
Ġdilig ence
ĠLorenz ini
Ġumbrell a
ĠTowns hip
ĠMechanics ville
Ġhamburg ers
ĠFertil izantes
545 66975
Berg en
Can ada
Cad ence
Ches apeake
Chen iere
Deal er
Lak eland
Mait re
Om ega
Omn ic
Penn yMac
Prop ulsion
Ut ility
Wash ington
bre aker
benef it
cah n
dah l
govern mental
limit ed
molec ule
pill ar
struct ured
sevi i
uper t
weg ian
ycl es
ypy r
Ġquarter s
Ġicon ic
insur ed
environ ment
Ġsom atost
Ġstern drive
Ġsof as
Ġsoph isticated
Ġtiss ues
Ġtrop onin
Ġtung sten
Ġtaver ns
Ġinher ent
Ġinorgan ic
Ġcyst ic
Ġcoff ees
Ġculin ary
oriz ons
Ġpas try
Ġpud ding
Ġpant ies
Ġfant asy
isource Bergen
ĠTable ware
ĠTup elo
ĠTunic a
ĠTID AL
ĠToy ota
ĠTarry town
ĠTAS ER
asda q
omax illofacial
Ġmun itions
Ġmens wear
ĠIth aca
Ġprolifer ation
recycl ed
Ġwel ded
Ġwoul d
Ġbab ies
Ġbenton ite
Ġbudget ing
Ġdia pers
Ġdra wn
Ġdomest ically
Ġdys function
Ġaim ed
ĠCut ting
ĠCess na
ĠCod man
ĠCong don
ĠChed dar
ĠCPU s
elot on
ĠSper ry
ĠSod ium
ĠSure ty
ĠSio ux
ĠSoft gel
ĠSup reme
ĠSax on
ĠSAR S
ĠSull ivan
ĠSny der
ĠSTAC K
ĠSelig sohn
ĠSomers et
ĠSYGM A
Ġheav ily
Ġfoss il
ĠMered ith
ĠMep sevii
ĠMau i
ĠMaum ee
ĠMaver ick
ĠAqua Beam
ĠASP AC
ĠIntr astate
legi ant
Ġreport ed
Ġrept iles
Ġrevers e
Ġreput ational
Ġreorgan ization
ĠPegas us
ĠPurs uit
ĠPGI M
ĠPapp as
Ġgour met
Ġgird ers
ĠBure au
ĠBarg ain
ĠBatter y
ĠBrew ery
ĠBilox i
ĠRap ids
ĠRav naas
ĠRhy z
ĠEvel yn
ĠEconom ic
ĠNiss an
ĠNob le
ĠNour ish
ĠNBC Universal
Ġdecom missioning
Ġhous ewares
Ġharm ful
Ġforec losure
Ġnyl on
ĠFerg us
ĠFass on
ĠFint ech
ĠFind lay
ĠFarn ell
ĠFores try
ĠFFE LP
Ġonbo arding
ĠDem and
ĠDors ey
ĠDist illery
ĠDrey fus
ĠHop kins
ĠHoff ler
ĠHuss ey
ĠHette en
ĠHOK A
Ġlim estone
Ġlith ography
Ġlug gage
ĠObs ervatory
ĠOah u
ĠOLAP LEX
ĠGay lord
ĠGron dahl
ĠGroom ing
ĠWals h
ĠWob urn
ĠWak efield
ĠLans ing
ĠLaf ayette
ĠLath am
ĠLGBT Q
Ġtraum a
implant ation
ĠJoh ann
ĠJama ica
ĠJAN Z
Ġdisplace ment
Ġacry lic
Ġstov es
Ġanten nas
Ġtranscript omics
Ġexcell ence
Ġelder ly
ĠStabil ized
ĠKath iresan
ĠKLE IN
ĠKla us
ĠViet nam
ĠVIT AS
ĠCALV IN
ĠRefr actories
ĠReady Cap
ĠRepresent ation
Ġcrani omaxillofacial
Ġwellbe ing
ĠEnvi roplex
friend ly
Ġcontamin ated
ĠDeFr anco
ĠDeBo er
ĠSeca ucus
Ġintercon nection
Ġinterrog ate
Ġunble ached
Ġunmat ched
Ġallogene ic
ĠChatt anooga
ĠChaud h
Ġairfield s
ĠMarmax x
Ġoutbo und
ĠMiddlet on
Ġshield s
Ġshamp oos
Ġspirit ual
Ġunderpinn ings
ĠThread needle
ĠConvert ed
ĠConcent ra
ĠConcentr ates
Ġbankrupt cy
Ġatmosp heric
ĠAlamed a
ĠComplement ary
Ġhybr ids
ĠSciPl ay
Ġkitch ens
ĠCarbohydr ate
hotron ics
ĠHough ton
ĠAuthor ity
ĠEquator ial
ĠMinnet onka
Ġupholster ed
Ġtelehand lers
Ġpolyvin yl
Ġpolyprop ylene
ĠSmoke able
ĠOutdo ors
ĠEmmet t
ĠEmbass y
Ġmusculos keletal
Ġsimultaneous ly
ĠPeterbil t
ĠPeripher als
Ġoccas ional
ĠWeetab ix
ĠLaCro ix
ĠMalcol m
Ġepileps y
ĠPolyureth anes
ĠWyomiss ing
Ġreconcil iation
Ġreconcili ations
ĠiPh one
ĠMenomon ee
ĠEstÃ© e
ĠExpedition ary
ĠMoskov itz
Ġcrypto currency
Ġpodcas ts
ĠCrysv ita
ĠInfiltr ator
ĠWoestem eyer
ĠLapiplas ty
ĠAlbuqu erque
ĠChamberl ain
Ġmalignanc ies
Ġsomatost atin
