{"<s>":0,"<pad>":1,"</s>":2,"<unk>":3,"<mask>":4,"!":5,"\"":6,"#":7,"$":8,"%":9,"&":10,"'":11,"(":12,")":13,"*":14,"+":15,",":16,"-":17,".":18,"/":19,"0":20,"1":21,"2":22,"3":23,"4":24,"5":25,"6":26,"7":27,"8":28,"9":29,":":30,";":31,"<":32,"=":33,">":34,"?":35,"@":36,"A":37,"B":38,"C":39,"D":40,"E":41,"F":42,"G":43,"H":44,"I":45,"J":46,"K":47,"L":48,"M":49,"N":50,"O":51,"P":52,"Q":53,"R":54,"S":55,"T":56,"U":57,"V":58,"W":59,"X":60,"Y":61,"Z":62,"[":63,"\\":64,"]":65,"^":66,"_":67,"`":68,"a":69,"b":70,"c":71,"d":72,"e":73,"f":74,"g":75,"h":76,"i":77,"j":78,"k":79,"l":80,"m":81,"n":82,"o":83,"p":84,"q":85,"r":86,"s":87,"t":88,"u":89,"v":90,"w":91,"x":92,"y":93,"z":94,"{":95,"|":96,"}":97,"~":98,"¡":99,"¢":100,"£":101,"¤":102,"¥":103,"¦":104,"§":105,"¨":106,"©":107,"ª":108,"«":109,"¬":110,"®":111,"¯":112,"°":113,"±":114,"²":115,"³":116,"´":117,"µ":118,"¶":119,"·":120,"¸":121,"¹":122,"º":123,"»":124,"¼":125,"½":126,"¾":127,"¿":128,"À":129,"Á":130,"Â":131,"Ã":132,"Ä":133,"Å":134,"Æ":135,"Ç":136,"È":137,"É":138,"Ê":139,"Ë":140,"Ì":141,"Í":142,"Î":143,"Ï":144,"Ð":145,"Ñ":146,"Ò":147,"Ó":148,"Ô":149,"Õ":150,"Ö":151,"×":152,"Ø":153,"Ù":154,"Ú":155,"Û":156,"Ü":157,"Ý":158,"Þ":159,"ß":160,"à":161,"á":162,"â":163,"ã":164,"ä":165,"å":166,"æ":167,"ç":168,"è":169,"é":170,"ê":171,"ë":172,"ì":173,"í":174,"î":175,"ï":176,"ð":177,"ñ":178,"ò":179,"ó":180,"ô":181,"õ":182,"ö":183,"÷":184,"ø":185,"ù":186,"ú":187,"û":188,"ü":189,"ý":190,"þ":191,"ÿ":192,"Ā":193,"ā":194,"Ă":195,"ă":196,"Ą":197,"ą":198,"Ć":199,"ć":200,"Ĉ":201,"ĉ":202,"Ċ":203,"ċ":204,"Č":205,"č":206,"Ď":207,"ď":208,"Đ":209,"đ":210,"Ē":211,"ē":212,"Ĕ":213,"ĕ":214,"Ė":215,"ė":216,"Ę":217,"ę":218,"Ě":219,"ě":220,"Ĝ":221,"ĝ":222,"Ğ":223,"ğ":224,"Ġ":225,"ġ":226,"Ģ":227,"ģ":228,"Ĥ":229,"ĥ":230,"Ħ":231,"ħ":232,"Ĩ":233,"ĩ":234,"Ī":235,"ī":236,"Ĭ":237,"ĭ":238,"Į":239,"į":240,"İ":241,"ı":242,"Ĳ":243,"ĳ":244,"Ĵ":245,"ĵ":246,"Ķ":247,"ķ":248,"ĸ":249,"Ĺ":250,"ĺ":251,"Ļ":252,"ļ":253,"Ľ":254,"ľ":255,"Ŀ":256,"ŀ":257,"Ł":258,"ł":259,"Ń":260,"an":261,"in":262,"er":263,"es":264,"and":265,"Ġand":266,"en":267,"on":268,"he":269,"Ġs":270,"Ġt":271,"at":272,"Ġin":273,"al":274,"Ġc":275,"ent":276,"ro":277,"ic":278,"or":279,"ed":280,"ar":281,"Ġp":282,"Ġo":283,"ing":284,"ion":285,"ment":286,"Ġf":287,"is":288,"ĠT":289,"as":290,"om":291,"ct":292,"it":293,"ĠThe":294,"Ġthe":295,"ol":296,"Ġm":297,"ĠI":298,"Ġse":299,"Ġpro":300,"Ġof":301,"re":302,"Ġw":303,"Ġb":304,"ag":305,"Ġcom":306,"gment":307,"Ġd":308,"Ġsegment":309,"Ġa":310,"ĠC":311,"us":312,"el":313,"un":314,"ation":315,"ut":316,"Ġcomp":317,"ĠS":318,"il":319,"ter":320,"et":321,"per":322,"ad":323,"ur":324,"qu":325,"ers":326,"uct":327,"erv":328,"Ġis":329,"Ġcompan":330,"Ġcompany":331,"ervic":332,"id":333,"lo":334,"Ġhe":335,"Ġfo":336,"ĠM":337,"und":338,"ĠA":339,"ial":340,"ĠIn":341,"duct":342,"Ġth":343,"Ġen":344,"tr":345,"ervices":346,"le":347,"th":348,"Ġoper":349,"ess":350,"ies":351,"ĠIt":352,"ch":353,"ce":354,"Ġre":355,"ĠP":356,"gh":357,"Ġproduct":358,"arter":359,"Ġwas":360,"čĊ":361,"Ġhead":362,"quarter":363,"Ġheadquarter":364,"Ġheadquartered":365,"Ġfound":366,"Ġfounded":367,"ates":368,"Ġservices":369,"ud":370,"rou":371,"iv":372,"gag":373,"Ġcon":374,"Ġto":375,"Ġg":376,"est":377,"ution":378,"ĠB":379,"Ġ1":380,"mer":381,"Ġengag":382,"Ġproducts":383,"cl":384,"Ġprov":385,"st":386,"Ġman":387,"rough":388,"Ġthrough":389,"ir":390,"Ġoperates":391,"Ġengages":392,"cial":393,"clud":394,"Ġinclud":395,"age":396,"ĠR":397,"ĠE":398,"Ġas":399,"ĠN":400,"ate":401,"Ġde":402,"Ġh":403,"ĠInc":404,"Ġfor":405,"ort":406,"are":407,"Ġn":408,"ĠF":409,"Ġby":410,"Ġe":411,"Ġon":412,"ĠD":413,"ĠH":414,"Ġr":415,"Ġl":416,"Ġ19":417,"ĠO":418,"ical":419,"ul":420,"Ġsegments":421,"ĠG":422,"utions":423,"ations":424,"am":425,"ark":426,"Ġcons":427,"ts":428,"ac":429,"em":430,"olutions":431,"pp":432,"hic":433,"act":434,"low":435,"op":436,"ĠW":437,"og":438,"ig":439,"ĠL":440,"ity":441,"Ġtr":442,"ance":443,"iness":444,"usiness":445,"ans":446,"ther":447,"ab":448,"arket":449,"Ġoff":450,"ip":451,"im":452,"ust":453,"ect":454,"lowing":455,"Ġfol":456,"Ġprovid":457,"Ġsu":458,"Ġfollowing":459,"vel":460,"orp":461,"Ġv":462,"ated":463,"agement":464,"os":465,"Ġbusiness":466,"ision":467,"od":468,"ĠJ":469,"Ġdis":470,"if":471,"ding":472,"Ġ2":473,"ine":474,"ure":475,"ech":476,"ank":477,"ot":478,"Ġsolutions":479,"Ġmarket":480,"olog":481,"ib":482,"ap":483,"ver":484,"Ġinv":485,"ta":486,"hich":487,"um":488,"Ġwhich":489,"velop":490,"uf":491,"for":492,"Ġoffers":493,"ities":494,"Ġac":495,"Ġmanagement":496,"ufact":497,"Ġind":498,"ĠU":499,"Ġprovides":500,"echn":501,"Ġdevelop":502,"ĠCorp":503,"ell":504,"mercial":505,"yst":506,"Ġmanufact":507,"ustr":508,"alth":509,"Ġprovision":510,"ay":511,"pe":512,"Ġincludes":513,"ive":514,"echnolog":515,"Ġst":516,"ystem":517,"ork":518,"ty":519,"Ġ20":520,"form":521,"iz":522,"cess":523,"estment":524,"ow":525,"all":526,"als":527,"Ġother":528,"Ġan":529,"inan":530,"ia":531,"its":532,"ppl":533,"ric":534,"Ġlo":535,"ics":536,"Ġconsis":537,"ew":538,"Ġcommercial":539,"Ġpl":540,"tern":541,"Ġfir":542,"ace":543,"trib":544,"ard":545,"truct":546,"ens":547,"ystems":548,"ber":549,"sur":550,"Ġpr":551,"Ġfirm":552,"ith":553,"Ġconsists":554,"olding":555,"te":556,"ĠPro":557,"Ġtrans":558,"ents":559,"anking":560,"Ġinvestment":561,"Ġres":562,"ary":563,"Ġindustr":564,"surance":565,"port":566,"uc":567,"Ġthat":568,"Ġdevelopment":569,"ustom":570,"ll":571,"ill":572,"Ġincluding":573,"Ġex":574,"ors":575,"ater":576,"ational":577,"co":578,"Ġcustom":579,"ign":580,"of":581,"Ġ&":582,"Ġad":583,"Ġdistrib":584,"ĠIts":585,"Ġwith":586,"ale":587,"inancial":588,"ain":589,"Ġtechnolog":590,"Ġequ":591,"erg":592,"Ġor":593,"ĠCom":594,"io":595,"gr":596,"ĠServices":597,"Ġmanufactur":598,"ire":599,"Ġel":600,"har":601,"Ġ(":602,"ural":603,"igh":604,"orate":605,"ĠSt":606,"Ġgas":607,"meric":608,"mun":609,"ital":610,"ack":611,"ĠK":612,"ware":613,"art":614,"ome":615,"pr":616,"Ġinclude":617,"Ġsystems":618,"Ġits":619,"pecial":620,"ĠAmeric":621,"Ġelect":622,"rand":623,"ĠOther":624,"Ġco":625,"Ġhealth":626,"ergy":627,"ĠV":628,"ge":629,"ications":630,"Ġdes":631,"ĠCA":632,"umer":633,"Ġoperations":634,"able":635,"ipment":636,"anc":637,"ons":638,"ition":639,"pl":640,"Ġdesign":641,"ĠRe":642,"Ġass":643,"ult":644,"Ġmarkets":645,"oft":646,"les":647,"'s":648,"lated":649,"Ġcr":650,"Ġus":651,"cus":652,"Ġreal":653,"ub":654,"ines":655,"av":656,"ily":657,"ating":658,"tail":659,"ast":660,"Ġcustomers":661,"Ġretail":662,"wn":663,"ĠSolutions":664,"atural":665,"Ġcl":666,"Ġmed":667,"Ġwell":668,"roup":669,"Ġstor":670,"Ġequipment":671,"oftware":672,"Ġest":673,"Ġinsurance":674,"Ġprocess":675,"ear":676,"ower":677,"Ġfinancial":678,"ĠEn":679,"nit":680,"Ġfocus":681,"Ġ199":682,"Ġholding":683,"Ġ200":684,"Ġbanking":685,"ly":686,"Ġaut":687,"Ġestate":688,"pt":689,"work":690,"ener":691,"ervice":692,"Ġappl":693,"fr":694,"ood":695,"ering":696,"Ġtechnology":697,"Ġdistribution":698,"atform":699,"Ġbrand":700,"ĠCo":701,"lob":702,"ealth":703,"Ġch":704,"Ġ201":705,"ĠNew":706,"Ġnatural":707,"iss":708,"ternational":709,"ments":710,"ob":711,"Ġle":712,"etwork":713,"tain":714,"ased":715,"ility":716,"ilities":717,"cur":718,"Ġproper":719,"rom":720,"Ġ198":721,"ist":722,"Ġbusinesses":723,"ific":724,"pecialty":725,"af":726,"enc":727,"ĠTr":728,"lobal":729,"ant":730,"ident":731,"Ġmanufacture":732,"Ġsoftware":733,"ide":734,"Ġplatform":735,"orth":736,"ex":737,"nited":738,"uro":739,"Ġown":740,"Ġrelated":741,"Ġmarketing":742,"oc":743,"Ġsell":744,"out":745,"end":746,"Ġcont":747,"Ġsuch":748,"ĠProduct":749,"ĠGroup":750,"ĠCorporate":751,"ĠAmerica":752,"ak":753,"ile":754,"gine":755,"Ġindustrial":756,"ata":757,"Ġcare":758,"ĠUnited":759,"Ġprim":760,"portation":761,"Ġals":762,"Ġalso":763,"our":764,"ortgag":765,"ife":766,"Ġautom":767,"ron":768,"Ġfocuses":769,"harm":770,"care":771,"ties":772,"Ġoil":773,"ehic":774,"ory":775,"Ġenergy":776,"ru":777,"ice":778,"Ġgener":779,"ail":780,"Ġare":781,"Ġconsumer":782,"eas":783,"ov":784,"osp":785,"Ġproduction":786,"Ġsale":787,"enter":788,"ass":789,"ions":790,"ĠMan":791,"lect":792,"bs":793,"uil":794,"ery":795,"Ġsuppl":796,"ients":797,"ual":798,"erm":799,"Ġdel":800,"Ġcommun":801,"tructure":802,"ĠY":803,"Ġbro":804,"Ġact":805,"ĠAs":806,"hol":807,"ĠDe":808,"pport":809,"ortgage":810,"ence":811,"ise":812,"ĠSe":813,"ĠNorth":814,"aterial":815,"Ġtre":816,"ey":817,"tegr":818,"to":819,"ĠSan":820,"ĠInternational":821,"Ġasset":822,"Ġfac":823,"Ġdata":824,"fras":825,"Ġdeliv":826,"Ġnetwork":827,"ĠFr":828,"Ġacqu":829,"Ġloans":830,"ĠStates":831,"ost":832,"Ġag":833,"ional":834,"ĠInd":835,"based":836,"ous":837,"onal":838,"Ġinter":839,"Ġvehic":840,"ĠProducts":841,"arily":842,"frastructure":843,"Ġport":844,"ĠCons":845,"Ġpower":846,"Ġ18":847,"Ġapplications":848,"Ġprimarily":849,"ight":850,"Ġim":851,"aly":852,"Ġfrom":853,"ĠTX":854,"ann":855,"ales":856,"Ġfood":857,"truction":858,"Ġpre":859,"Ġbe":860,"Ġengine":861,"urope":862,"pos":863,"Ġun":864,"igital":865,"Ġaccess":866,"ient":867,"Ġal":868,"Ġclo":869,"ĠTechnolog":870,"ĠNY":871,"fol":872,"ue":873,"ĠAn":874,"duc":875,"aging":876,"ĠEurope":877,"ĠHolding":878,"ton":879,"Ġund":880,"els":881,"idential":882,"ants":883,"ĠBanking":884,"ix":885,"edit":886,"Ġsecur":887,"hip":888,"Ġcorp":889,"rol":890,"ices":891,"Ġhome":892,"Ġadv":893,"ĠYork":894,"ph":895,"Ġintegr":896,"ef":897,"over":898,"Ġsm":899,"Ġservice":900,"Ġtransportation":901,"Ġinst":902,"ash":903,"utical":904,"Ġvar":905,"aceutical":906,"Ġmanufactures":907,"Ġhealthcare":908,"Ġsells":909,"ry":910,"ĠCh":911,"ange":912,"Ġfr":913,"harmaceutical":914,"ĠManagement":915,"ĠOper":916,"obile":917,"Ġcap":918,"ore":919,"aterials":920,"Ġsol":921,"Ġused":922,"ative":923,"ories":924,"Ġsupport":925,"ian":926,"ker":927,"ings":928,"Ġnon":929,"Ġportfol":930,"Ġmortgage":931,"Ġair":932,"ĠMar":933,"Ġelectric":934,"Ġactiv":935,"Ġsubs":936,"Ġmanufacturing":937,"),":938,"line":939,"erap":940,"ich":941,"Ġproperties":942,"ersonal":943,"Ġmedical":944,"ach":945,"ee":946,"ath":947,"overn":948,"Ġspecialty":949,"Ġpay":950,"Ġout":951,"ubl":952,"ĠMid":953,"Ġlife":954,"ission":955,"cing":956,"ss":957,"ĠCommercial":958,"Ġsh":959,"Ġref":960,"Ġsales":961,"Ġreg":962,"Ġcorporate":963,"cr":964,"ks":965,"ages":966,"ivid":967,"Ġstorage":968,"Ġprocessing":969,"ĠHoldings":970,"Ġsp":971,"Ġbi":972,"ized":973,"Ġunder":974,"ĠOperations":975,"air":976,"ember":977,"Ġtrust":978,"ization":979,"Ġtreat":980,"Ġfacilities":981,"Ġins":982,"ite":983,"Ġconstruction":984,"Ġdistribut":985,"ĠTh":986,"olv":987,"Ġdigital":988,"ection":989,"ober":990,"erform":991,"hem":992,"Ġanaly":993,"Ġro":994,"Ġloc":995,"Ġenter":996,"Ġbo":997,"Ġbrands":998,"Ġportfolio":999,"Ġdev":1000,"outh":1001,"oh":1002,"Ġproduc":1003,"Ġglobal":1004,"Ġne":1005,"ld":1006,"âĢ":1007,"ety":1008,"ĠInv":1009,"ong":1010,"onents":1011,"Ġinfrastructure":1012,"uilding":1013,"ium":1014,"Ġcar":1015,"ĠRes":1016,"Ġinvolv":1017,"ĠIndustr":1018,"com":1019,"rap":1020,"anch":1021,"ree":1022,"Ġdiseas":1023,"Ġmet":1024,"ĠCan":1025,"ense":1026,"ie":1027,"isition":1028,"ase":1029,"formation":1030,"coun":1031,"Ġcloud":1032,"ting":1033,"Ġapp":1034,"ada":1035,"Ġ197":1036,"ivate":1037,"ĠHealth":1038,"otive":1039,"Ġdevelops":1040,"earch":1041,"ĠAsia":1042,"land":1043,"ra":1044,"Ġgovern":1045,"fess":1046,"own":1047,"Ġresidential":1048,"Ġactivities":1049,"ered":1050,"Ġsc":1051,"Ġmult":1052,"Ġli":1053,"Ġtechnologies":1054,"Ġcontrol":1055,"ven":1056,"Ġserv":1057,"Ġmain":1058,"Ġ196":1059,"Ġindivid":1060,"ff":1061,"ream":1062,"ership":1063,"loy":1064,"ĠMed":1065,"ĠRet":1066,"ten":1067,"ish":1068,"ĠEnergy":1069,"hemical":1070,"iel":1071,"inance":1072,"ending":1073,"Ġpersonal":1074,"Ġacquisition":1075,"Ġem":1076,"erformance":1077,"Ġdr":1078,"Ġtherap":1079,"Ġindustry":1080,"ross":1081,"ols":1082,"Ġwork":1083,"ĠCon":1084,"urg":1085,"ĠFinancial":1086,"Ġcredit":1087,"ronic":1088,"ohn":1089,"ĠInvestment":1090,"gan":1091,"ied":1092,"Ġcomponents":1093,"tract":1094,"inancing":1095,"ining":1096,"Ġbank":1097,"agn":1098,"ĠSouth":1099,"ĠMA":1100,"ĠBusiness":1101,"Ġtrad":1102,"Ġsmall":1103,"pro":1104,"con":1105,"ev":1106,"Ġcol":1107,"Ġmon":1108,"Ġwater":1109,"ĠTrans":1110,"hy":1111,"ienc":1112,"son":1113,"up":1114,"Ġat":1115,"ives":1116,"ateg":1117,"Ġconsum":1118,"ug":1119,"Ġmobile":1120,"Ġhigh":1121,"ipel":1122,"ĠJohn":1123,"ĠReal":1124,"Ġpat":1125,"Ġaccoun":1126,"Ġsupplies":1127,"Ġintegrated":1128,"âĢĻ":1129,"ĠCanada":1130,"dle":1131,"eb":1132,"ord":1133,"ĠSystems":1134,"ĠMarket":1135,"ĠAl":1136,"Ġdepos":1137,"gram":1138,"ĠTechnologies":1139,"mission":1140,"Ġinformation":1141,"ental":1142,"Ġopt":1143,"ĠInsurance":1144,"state":1145,"Ġprivate":1146,"Ġexp":1147,"Ġvehicles":1148,"Ġpur":1149,"ĠAd":1150,"ĠAr":1151,"Ġoperation":1152,"irect":1153,"ep":1154,"iam":1155,"ises":1156,"Ġcompanies":1157,"ograp":1158,"ĠComp":1159,"ĠConsumer":1160,"nect":1161,"Ġcard":1162,"Ġprofess":1163,"ublic":1164,"Ġdevices":1165,"uel":1166,"int":1167,"ĠBank":1168,"ĠDis":1169,"ious":1170,"Ġstores":1171,"Ġassets":1172,"Ġinstit":1173,"Ġgro":1174,"ĠElect":1175,"tics":1176,"Ġut":1177,"Ġcent":1178,"Ġfl":1179,"Ġfinancing":1180,"ĠGlobal":1181,"ables":1182,"Ġclients":1183,"ising":1184,"Ġinvest":1185,"orld":1186,"Ġprogram":1187,"unds":1188,"Ġonline":1189,"ourc":1190,"Ġinvolved":1191,"Ġpar":1192,"asin":1193,"Ġmaterials":1194,"Ġge":1195,"amily":1196,"Ġacross":1197,"cover":1198,"Ġproperty":1199,"Ġaccessories":1200,"ax":1201,"bo":1202,"ploy":1203,"ures":1204,"Ġhy":1205,"acific":1206,"Ġorgan":1207,"ackaging":1208,"Ġgovernment":1209,"fer":1210,"ling":1211,"ok":1212,"ication":1213,"ivers":1214,"Ġrange":1215,"uly":1216,"verage":1217,"ĠIndustrial":1218,"ck":1219,"oration":1220,"istr":1221,"ĠSpecialty":1222,"Ġclin":1223,"ĠRetail":1224,"ject":1225,"min":1226,"Ġint":1227,"isk":1228,"ĠWill":1229,"Ġresearch":1230,"Ġindustries":1231,"Ġequity":1232,"oods":1233,"Ġbroad":1234,"cre":1235,"ular":1236,"Ġval":1237,"ĠCommun":1238,"istics":1239,"Ġmainten":1240,"Ġmaintenance":1241,"par":1242,"Ġdi":1243,"idi":1244,"ports":1245,"holes":1246,"Ġtreatment":1247,"aur":1248,"Ġar":1249,"Ġtel":1250,"ĠJuly":1251,"Ġsubsidi":1252,".,":1253,"dr":1254,"Ġprot":1255,"term":1256,"Ġend":1257,"ĠPA":1258,"ĠPl":1259,"ĠEast":1260,"artn":1261,"Ġautomotive":1262,"Ġcapital":1263,"ield":1264,"Ġall":1265,"erosp":1266,"enn":1267,"Ġmod":1268,"ĠCl":1269,"Ġoperating":1270,"Ġret":1271,"ĠBe":1272,"ĠEx":1273,"anced":1274,"tainment":1275,"Ġbroker":1276,"Ġliqu":1277,"erospace":1278,"man":1279,"ude":1280,"igin":1281,"Ġgeograp":1282,"holesale":1283,"fense":1284,"yn":1285,"Ġpet":1286,"Ġtheir":1287,"ĠIL":1288,"lex":1289,"ose":1290,"ock":1291,"iences":1292,"ience":1293,"Ġspecial":1294,"Ġdirect":1295,"ĠAf":1296,"Ġcommunications":1297,"icon":1298,"Ġcompr":1299,"ĠSc":1300,"Ġlending":1301,"irement":1302,"Ġdiseases":1303,"ral":1304,"Ġcer":1305,"Ġbuilding":1306,"Ġinvestments":1307,"rug":1308,"eg":1309,"ids":1310,"Ġengineering":1311,"ixed":1312,"Ġproduces":1313,"ets":1314,"Ġtools":1315,"ĠEstate":1316,"ĠWilliam":1317,"ec":1318,"vers":1319,"Ġstr":1320,"ators":1321,"ico":1322,"stream":1323,"Ġrisk":1324,"Ġleas":1325,"Ġvarious":1326,"ources":1327,"Ġsystem":1328,"ĠAll":1329,"ĠHome":1330,"Ġvehicle":1331,"vent":1332,"Ġk":1333,"any":1334,"ĠSte":1335,"ellig":1336,"Ġadvis":1337,"ve":1338,"ind":1339,"Ġtest":1340,"Ġperformance":1341,"ĠCol":1342,"ĠNov":1343,"ames":1344,"uck":1345,"afety":1346,"Ġvari":1347,"Ġdeposit":1348,"Ġclinical":1349,"Ġj":1350,"erch":1351,"Ġpublic":1352,"omes":1353,"itical":1354,"ĠCar":1355,"ability":1356,"ime":1357,"ency":1358,"Ġgeneration":1359,"ina":1360,"arel":1361,"Ġfinance":1362,"Ġorigin":1363,"aft":1364,"Ġdelivery":1365,"Ġsecurity":1366,"ho":1367,"ne":1368,"pair":1369,"ins":1370,"Ġinc":1371,"Ġful":1372,"aged":1373,"ilit":1374,"Ġelectronic":1375,"place":1376,"Ġdesigns":1377,"ulting":1378,"Ġcrude":1379,"Ġowns":1380,"Ġsupply":1381,"Ġanalytics":1382,"agnost":1383,"covery":1384,"eut":1385,"related":1386,"Ġuse":1387,"Ġenterpr":1388,"Ġconsumers":1389,"Ġcenters":1390,"aw":1391,"Ġ3":1392,"ĠZ":1393,"inc":1394,"Ġpipel":1395,"ille":1396,"ĠPr":1397,"estaur":1398,"utional":1399,"Ġnew":1400,"ĠHo":1401,"ouse":1402,"Ġdistributes":1403,"Ġparts":1404,"Ġbrokerage":1405,"iconduct":1406,"ĠNovember":1407,"rid":1408,"ond":1409,"ĠTex":1410,"Ġproject":1411,"ird":1412,"rica":1413,"ternet":1414,"ĠProper":1415,"ĠAmericas":1416,"ĠMarch":1417,"ps":1418,"Ġchemical":1419,"ington":1420,"Ġfuel":1421,"Ġmid":1422,"ters":1423,"Ġhel":1424,"ĠPacific":1425,"Ġcontract":1426,"Ġhand":1427,"ĠDav":1428,"ĠGas":1429,"ĠWest":1430,"endent":1431,"Ġpayment":1432,"ĠMiddle":1433,"ĠAfrica":1434,"aper":1435,"ick":1436,"arg":1437,"isco":1438,"ctober":1439,"ĠChar":1440,"ury":1441,"ĠOctober":1442,"Ġlog":1443,"enses":1444,"ĠFranc":1445,"Ġgeograph":1446,"uals":1447,"ville":1448,"Ġed":1449,"one":1450,"tru":1451,"Ġconnect":1452,"ĠBr":1453,"iron":1454,"ĠFL":1455,"ified":1456,"Ġtransmission":1457,"Ġadmin":1458,"Ġapparel":1459,"Ġpurch":1460,"Ġgeographical":1461,"ulated":1462,"ĠLo":1463,"uston":1464,"ally":1465,"Ġfranch":1466,"ependent":1467,"less":1468,"ri":1469,"enef":1470,"ingle":1471,"ĠCO":1472,"ĠAug":1473,"Ġproviding":1474,"Ġneed":1475,"Ġindividuals":1476,"ĠAugust":1477,"cision":1478,"ang":1479,"Ġterm":1480,"Ġfunds":1481,"itor":1482,"uring":1483,"ĠMay":1484,"ĠMex":1485,"Ġcond":1486,"Ġhosp":1487,"Ġ195":1488,"Ġownership":1489,"ake":1490,"Ġgeneral":1491,"Ġserves":1492,"Ġprofessional":1493,"enew":1494,"aries":1495,"Ġmerch":1496,"Ġrepair":1497,"Ġacquir":1498,"hys":1499,"ĠHouston":1500,").":1501,"Ġent":1502,"atory":1503,"oly":1504,"Ġworld":1505,"ĠApr":1506,"Ġreven":1507,"ĠRober":1508,"Ġdeb":1509,"ĠUt":1510,"Ġste":1511,"Ġexpl":1512,"Ġengineered":1513,"ĠTechnology":1514,"Ġprograms":1515,"ĠFrancisco":1516,"Ġadministr":1517,"ĠApril":1518,"her":1519,"oor":1520,"ined":1521,"Ġpharmaceutical":1522,"Ġme":1523,"ĠMich":1524,"Ġlines":1525,"aming":1526,"Ġaccounts":1527,"ĠTexas":1528,"ME":1529,"viron":1530,"Ġsingle":1531,"Ġdrug":1532,"ĠCare":1533,"urn":1534,"Ġlight":1535,"ame":1536,"ĠJan":1537,"ĠJun":1538,"ology":1539,"Ġindependent":1540,"Ġcontent":1541,"Ġemploy":1542,"mod":1543,"ness":1544,"sh":1545,"Ġcle":1546,"asual":1547,"reg":1548,"Ġcomb":1549,"lement":1550,"ĠNetwork":1551,"Ġhard":1552,"ĠOH":1553,"uman":1554,"Ġdeveloping":1555,"Ġsecurities":1556,"Ġboth":1557,"Ġadvisory":1558,"Ġincome":1559,"ĠRobert":1560,"avel":1561,"cy":1562,"mber":1563,"se":1564,"att":1565,"Ġwire":1566,"Ġaerospace":1567,"cember":1568,"Ġdefense":1569,"ĠFeb":1570,"Ġchain":1571,"ruary":1572,"ĠDecember":1573,"ĠSept":1574,"Ġinterest":1575,"Ġorganiz":1576,"ĠMexico":1577,"ĠFebruary":1578,"go":1579,"iation":1580,"tl":1581,"yl":1582,"ene":1583,"Ġinternational":1584,"orn":1585,"ĠSu":1586,"ĠBro":1587,"Ġmanages":1588,"Ġlab":1589,"ĠWealth":1590,"ĠLife":1591,"Ġoffering":1592,"vert":1593,"ideo":1594,"ronics":1595,"athering":1596,"Ġentertainment":1597,"Ġretirement":1598,"iconductor":1599,"ĠDavid":1600,"ĠSeptember":1601,"Ġit":1602,"Ġphys":1603,"Ġsem":1604,"ĠCap":1605,"Ġrestaur":1606,"Ġprovide":1607,"tribution":1608,"Ġmulti":1609,"elligence":1610,"Ġlogistics":1611,"ĠJune":1612,"wear":1613,"Ġcell":1614,"Ġam":1615,"ĠAut":1616,"ĠPower":1617,"Ġnot":1618,"Ġoffice":1619,"Ġcustomer":1620,"Ġouts":1621,"ah":1622,"iet":1623,"oint":1624,"rical":1625,"eral":1626,"Ġfixed":1627,"ĠChic":1628,"ervicing":1629,"ĠEqu":1630,"Ġ192":1631,"ĠJose":1632,"ensing":1633,"ĠProcess":1634,"Ġmedia":1635,"Ġelectricity":1636,"ĠTransportation":1637,"Ġpetro":1638,"service":1639,"uary":1640,"ats":1641,"ĠSp":1642,"ade":1643,"ĠMaterials":1644,"Ġthird":1645,"ley":1646,"Ġengaged":1647,"Ġhuman":1648,"Ġrental":1649,"verages":1650,"izes":1651,"illing":1652,"Ġrefers":1653,"craft":1654,"eutics":1655,"Ġexploration":1656,"ĠJanuary":1657,"inal":1658,"Ġpackaging":1659,"Ġover":1660,"Ġmot":1661,"ĠCent":1662,"Ġgr":1663,"ĠEd":1664,"Ġlic":1665,"iber":1666,"itional":1667,"ĠEnter":1668,"Ġimpro":1669,"Ġinstru":1670,"ĠElectric":1671,"Ġeduc":1672,"Ġorganizations":1673,"In":1674,"li":1675,"let":1676,"way":1677,"wide":1678,"rop":1679,"arn":1680,"ago":1681,"unct":1682,"Ġcomput":1683,"ĠMc":1684,"ĠAustr":1685,"ĠInfrastructure":1686,"merce":1687,"Ġ194":1688,"ĠGe":1689,"iger":1690,"Ġexper":1691,"ĠVA":1692,"Ġcritical":1693,"Ġinstall":1694,"Ġsold":1695,"Ġbiop":1696,"Ġlocated":1697,"ĠDistribution":1698,"Ġdiagnost":1699,"Ġprotection":1700,"Ġleasing":1701,"Ġfull":1702,"der":1703,"iated":1704,"ern":1705,"Ġfe":1706,"Ġwealth":1707,"Ġno":1708,"Ġlong":1709,"Ġ190":1710,"Ġloan":1711,"pres":1712,"Ġplatforms":1713,"ĠCompany":1714,"artners":1715,"ier":1716,"ms":1717,"Ġstruct":1718,"Ġinto":1719,"Ġche":1720,"Ġfil":1721,"ites":1722,"Ġmach":1723,"ĠCr":1724,"ĠSh":1725,"ĠBrand":1726,"Ġconsulting":1727,"ipt":1728,"Ġcost":1729,"atings":1730,"Ġindividual":1731,"Ġinstitutional":1732,"Ġflu":1733,"Ġhyd":1734,"Ġsubsidiaries":1735,"Ġstrateg":1736,"enewable":1737,"ĠAustral":1738,"au":1739,"ael":1740,"tical":1741,"eng":1742,"atin":1743,"Ġcre":1744,"Ġfre":1745,"old":1746,"ĠCity":1747,"ĠPh":1748,"Ġcontain":1749,"Ġvideo":1750,"umb":1751,"Ġcovers":1752,"cript":1753,"urgical":1754,"Ġexpenses":1755,"Ġvalue":1756,"asualty":1757,"Ġbiopharmaceutical":1758,"ior":1759,"ues":1760,"wood":1761,"icro":1762,"orage":1763,"Ġbenef":1764,"uty":1765,"ĠInternet":1766,"Ġrepres":1767,"Ġgroup":1768,"Ġhot":1769,"Ġ193":1770,"ĠGA":1771,"Ġproviders":1772,"ott":1773,"ricult":1774,"ification":1775,"Ġdelivers":1776,"ousing":1777,"Ġadvanced":1778,"Ġpatients":1779,"Ġvariety":1780,"Ġenterprise":1781,"Ġsteel":1782,"The":1783,"ement":1784,"ane":1785,"Ġsur":1786,"Ġwholesale":1787,"Ġsub":1788,"Ġdiscovery":1789,"ĠReg":1790,"Ġapplication":1791,"Ġbranded":1792,"ĠAss":1793,"Ġbeverage":1794,"Ġaircraft":1795,"ĠThom":1796,"ĠAdv":1797,"Ġutility":1798,"Ġprojects":1799,"Ġhelp":1800,"Ġhardware":1801,"ĠChicago":1802,"ĠAustralia":1803,"ded":1804,"field":1805,"part":1806,"sc":1807,"mental":1808,"omest":1809,"ĠAc":1810,"Ġenviron":1811,"acy":1812,"Ġtravel":1813,"ipal":1814,"ize":1815,"Ġprocesses":1816,"Ġtrading":1817,"ĠMarkets":1818,"ĠMichael":1819,"Ġclean":1820,"vertising":1821,"nov":1822,"hed":1823,"Ġsafety":1824,"Ġcash":1825,"leum":1826,"ĠBo":1827,"ĠRich":1828,"emb":1829,"ford":1830,"Ġcommercialization":1831,"uild":1832,"ĠCapital":1833,"ietary":1834,"Ġident":1835,"Ġpum":1836,"utr":1837,"ĠMin":1838,"Ġthroughout":1839,"Ġhomes":1840,"ĠGre":1841,"ĠLatin":1842,"Ġtransact":1843,"ĠAmerican":1844,"Ġelectrical":1845,"Ġautomation":1846,"evision":1847,"Ġoptim":1848,"Ġinstitutions":1849,"Ġpipeline":1850,"omestic":1851,"aul":1852,"eter":1853,"Ġsect":1854,"load":1855,"ĠFl":1856,"ĠOr":1857,"ulation":1858,"echan":1859,"prietary":1860,"Ġchann":1861,"ĠTrust":1862,"Ġagricult":1863,"anning":1864,"Ġmonitor":1865,"Ġintelligence":1866,"Ġcertain":1867,"Ġimprove":1868,"ĠGeor":1869,"AC":1870,"brid":1871,"ging":1872,"lf":1873,"nu":1874,"rit":1875,"Ġup":1876,"Ġsav":1877,"alt":1878,"Ġcanc":1879,"ars":1880,"itals":1881,"ĠAtl":1882,"Ġgoods":1883,"ĠBanc":1884,"ĠWater":1885,"ensive":1886,"off":1887,"Ġmetal":1888,"Ġnovel":1889,"ĠThomas":1890,"hes":1891,"ios":1892,"mon":1893,"oun":1894,"uy":1895,"uis":1896,"esh":1897,"Ġservicing":1898,"Ġfunct":1899,"Ġwe":1900,"loc":1901,"ĠMortgage":1902,"Ġ191":1903,"Ġadvertising":1904,"friger":1905,"Ġdisease":1906,"owned":1907,"board":1908,"Ġcomprises":1909,"Ġhospitals":1910,"ke":1911,"sis":1912,"ward":1913,"roll":1914,"arge":1915,"Ġpart":1916,"Ġproprietary":1917,"Ġdivers":1918,"ĠCT":1919,"ĠClo":1920,"Ġcompos":1921,"ĠSoftware":1922,"ĠMon":1923,"ĠBl":1924,"orts":1925,"Ġland":1926,"amp":1927,"porting":1928,"ights":1929,"Ġcollect":1930,"Ġgrow":1931,"Ġarr":1932,"Ġtele":1933,"Ġneeds":1934,"Ġrepresents":1935,"door":1936,"Ġtax":1937,"round":1938,"Ġpe":1939,"Ġpaper":1940,"asury":1941,"ĠNC":1942,"Ġdeal":1943,"Ġliv":1944,"urement":1945,"ible":1946,"Ġplans":1947,"Ġcommunities":1948,"Ġsolar":1949,"Ġspace":1950,"Ġpetroleum":1951,"Ġeducation":1952,"bon":1953,"face":1954,"oper":1955,"Ġpoly":1956,"Ġmeas":1957,"ĠCal":1958,"ely":1959,"ute":1960,"ĠPharmaceutical":1961,"ivision":1962,"Ġred":1963,"Ġrail":1964,"pec":1965,"izing":1966,"play":1967,"ĠEngine":1968,"ource":1969,"Ġareas":1970,"Ġcommunity":1971,"ĠSecur":1972,"ĠMedical":1973,"ishing":1974,"Ġtherapies":1975,"Ġpatient":1976,"ĠCharles":1977,"Ġcondition":1978,"MEA":1979,"Ġsemiconductor":1980,"Ġrestaurants":1981,"Ġcheck":1982,"Ġsavings":1983,"zen":1984,"Ġqu":1985,"anta":1986,"estern":1987,"ĠSch":1988,"ĠApp":1989,"ĠNJ":1990,"ĠWash":1991,"abl":1992,"ĠJr":1993,"ucks":1994,"Ġassoc":1995,"Ġ2013":1996,"ĠChina":1997,"Ġdebt":1998,"ĠAutom":1999,"Ġinstruments":2000,"market":2001,"wo":2002,"Ġmining":2003,"Ġbr":2004,"Ġbuild":2005,"ĠSm":2006,"etic":2007,"ĠMI":2008,"ĠAir":2009,"ĠPackaging":2010,"Ġgathering":2011,"ĠEl":2012,"ĠDall":2013,"ople":2014,"Ġtrucks":2015,"Ġlocal":2016,"ĠHealthcare":2017,"ĠMedia":2018,"Ġliquid":2019,"Ġmerchand":2020,"Ġrevenue":2021,"Ġchannels":2022,"ĠDallas":2023,"az":2024,"cle":2025,"ening":2026,"Ġsports":2027,"ature":2028,"Ġinf":2029,"rozen":2030,"Ġph":2031,"olf":2032,"Ġdo":2033,"Ġfoot":2034,"Ġtherm":2035,"lear":2036,"ĠPerformance":2037,"Ġgen":2038,"irst":2039,"Ġform":2040,"ĠFinance":2041,"ĠDen":2042,"Ġrenewable":2043,"Ġline":2044,"iple":2045,"ustin":2046,"Ġvac":2047,"Ġresp":2048,"ills":2049,"gred":2050,"Ġmedic":2051,"Ġ1997":2052,"Ġnetworks":2053,"Ġ189":2054,"Ġaltern":2055,"Ġneuro":2056,"Ġcards":2057,"ĠProperties":2058,"GL":2059,"itect":2060,"Ġset":2061,"chitect":2062,"Ġrec":2063,"Ġmanaged":2064,"ĠFoods":2065,"ĠWholesale":2066,"ĠLog":2067,"Ġwithin":2068,"Ġdesigned":2069,"ĠRef":2070,"ave":2071,"Ġ188":2072,"Ġinvestors":2073,"asino":2074,"Ġtelevision":2075,"Ġsubsidiary":2076,"Ġchemicals":2077,"ĠLouis":2078,"cycl":2079,"Ġofferings":2080,"Ġmonitoring":2081,"Ġcancer":2082,"aid":2083,"auty":2084,"eal":2085,"uce":2086,"ones":2087,"Ġtarg":2088,"Ġtwo":2089,"ator":2090,"Ġinnov":2091,"Ġcand":2092,"edic":2093,"rem":2094,"change":2095,"ĠPark":2096,"Ġgaming":2097,"ĠRo":2098,"ĠHar":2099,"ĠHot":2100,"lows":2101,"ĠLP":2102,"Ġprovider":2103,"ĠJames":2104,"Ġadd":2105,"ĠStorage":2106,"ĠKing":2107,"Ġ2007":2108,"hold":2109,"oston":2110,"ĠConstruction":2111,"ĠAnd":2112,"ĠInvestments":2113,"Ġphysical":2114,"Ġdiagnostic":2115,"Ġcosts":2116,"ĠAtlanta":2117,"ĠWashington":2118,"house":2119,"the":2120,"west":2121,"Ġsens":2122,"Ġchar":2123,"Ġcenter":2124,"itch":2125,"oll":2126,"Ġmin":2127,"Ġmar":2128,"Ġself":2129,"Ġdet":2130,"ĠMN":2131,"ĠMet":2132,"ĠAZ":2133,"ĠPipel":2134,"ivity":2135,"ĠBasin":2136,"ĠLe":2137,"echnology":2138,"Ġelectronics":2139,"ances":2140,"Ġmedium":2141,"Ġselling":2142,"Ġdeliver":2143,"Ġbeverages":2144,"ĠResidential":2145,"Ġworldwide":2146,"ĠEquipment":2147,"ĠCentral":2148,"Ġbenefits":2149,"ĠGeorge":2150,"lass":2151,"ris":2152,"viation":2153,"Ġso":2154,"ionals":2155,"ady":2156,"Ġenable":2157,"Ġenables":2158,"cept":2159,"ĠPay":2160,"Ġmanaging":2161,"Ġlif":2162,"ulf":2163,"ĠGener":2164,"aces":2165,"abric":2166,"echnical":2167,"Ġplanning":2168,"Ġmanufacturers":2169,"Ġfocused":2170,"Ġ2009":2171,"encies":2172,"Ġtreasury":2173,"Ġunits":2174,"ĠCommunity":2175,"Ġmiddle":2176,"Ġwireless":2177,"Ġitem":2178,"ĠProcessing":2179,"Ġpeople":2180,"Ġassociated":2181,"ai":2182,"aj":2183,"cill":2184,"ool":2185,"Ġty":2186,"row":2187,"Ġpack":2188,"Ġpharm":2189,"Ġfrozen":2190,"ĠTN":2191,"ases":2192,"itle":2193,"ĠIr":2194,"Ġselect":2195,"Ġwho":2196,"Ġdif":2197,"ured":2198,"Ġreplace":2199,"ĠPartners":2200,"ĠBoston":2201,"ĠNet":2202,"ĠHosp":2203,"ĠOut":2204,"pping":2205,"Ġtrain":2206,"imal":2207,"Ġannu":2208,"Ġ2014":2209,"Ġsho":2210,"Ġmultiple":2211,"Ġprofessionals":2212,"Ġgroc":2213,"party":2214,"Ġprotect":2215,"Ġtesting":2216,"ĠProperty":2217,"Ġpurchase":2218,"Ġadministrative":2219,"shore":2220,"partment":2221,"ĠRichard":2222,"echanical":2223,"Ġchecking":2224,"gredients":2225,"cillary":2226,"SA":2227,"be":2228,"band":2229,"cent":2230,"hensive":2231,"pen":2232,"pat":2233,"tic":2234,"yle":2235,"ink":2236,"Ġsign":2237,"atter":2238,"Ġcateg":2239,"Ġfire":2240,"asc":2241,"Ġmicro":2242,"rehensive":2243,"Ġback":2244,"Ġcomprehensive":2245,"ĠInter":2246,"Ġgu":2247,"Ġhousing":2248,"abilities":2249,"Ġvent":2250,"Ġvir":2251,"ĠUn":2252,"Ġresources":2253,"Ġimmun":2254,"ĠTherap":2255,"ĠIndustries":2256,"ĠCommunications":2257,"Ġfranchise":2258,"ĠUtility":2259,"Ġinstallation":2260,"ĠDenver":2261,"EM":2262,"cu":2263,"Ġshe":2264,"Ġcor":2265,"Ġcasualty":2266,"ĠStr":2267,"log":2268,"ĠAustin":2269,"ĠIns":2270,"Ġthree":2271,"Ġenh":2272,"Ġrefriger":2273,"Ġmanage":2274,"ĠNGL":2275,"ĠFac":2276,"Ġeff":2277,"ĠDie":2278,"ĠHen":2279,"Ġlarge":2280,"ĠOff":2281,"ules":2282,"Ġtruck":2283,"Ġver":2284,"Ġ1993":2285,"Ġ1998":2286,"Ġ1999":2287,"Ġ2004":2288,"Ġsmart":2289,"Ġcontrols":2290,"Ġtherapy":2291,"Ġcoll":2292,"Ġliquids":2293,"vention":2294,"Ġagricultural":2295,"pecific":2296,"Ġfootwear":2297,"Ġcandid":2298,"Com":2299,"dom":2300,"gel":2301,"ney":2302,"Ġcy":2303,"Ġcat":2304,"orm":2305,"ison":2306,"oma":2307,"Ġmaterial":2308,"unic":2309,"ado":2310,"leet":2311,"Ġrel":2312,"ĠEm":2313,"ĠNational":2314,"ĠNatural":2315,"ĠWal":2316,"ĠWil":2317,"ody":2318,"ota":2319,"force":2320,"Ġstream":2321,"Ġclass":2322,"Ġ1996":2323,"Ġ2000":2324,"Ġ2012":2325,"ext":2326,"Ġagencies":2327,"ĠMedic":2328,"Ġtraditional":2329,"Ġspecializes":2330,"ilitary":2331,"Ġhandling":2332,"Ġacquires":2333,"Ġentities":2334,"ĠBrands":2335,"ĠLogistics":2336,"ĠDiego":2337,"App":2338,"nack":2339,"van":2340,"ys":2341,"yal":2342,"insurance":2343,"ederal":2344,"Ġpain":2345,"Ġpass":2346,"omen":2347,"itan":2348,"Ġmission":2349,"Ġwomen":2350,"Ġaud":2351,"Ġcomplex":2352,"ĠSr":2353,"ĠMD":2354,"ĠMO":2355,"iesel":2356,"ĠPersonal":2357,"ĠDan":2358,"ĠDigital":2359,"ults":2360,"ĠWA":2361,"Ġcoatings":2362,"Ġassist":2363,"avy":2364,"Ġ2003":2365,"Ġ2010":2366,"Ġleg":2367,"ĠProduction":2368,"aking":2369,"ourcing":2370,"Ġprem":2371,"Ġprecision":2372,"eff":2373,"Ġsubscript":2374,"Ġpayments":2375,"ĠMidstream":2376,"Ġregional":2377,"Ġbiot":2378,"ĠMarketing":2379,"Ġexperience":2380,"Ġhydro":2381,"ĠBancorp":2382,"Ġtarget":2383,"Ġitems":2384,"ĠTherapeutics":2385,"ĠHenry":2386,"ino":2387,"Ġsurgical":2388,"Ġper":2389,"Ġwhol":2390,"Ġcommod":2391,"Ġab":2392,"eth":2393,"lot":2394,"ĠAg":2395,"ches":2396,"Ġhas":2397,"ĠDr":2398,"ĠHe":2399,"Ġrad":2400,"ĠOil":2401,"Ġoffer":2402,"umin":2403,"velopment":2404,"Ġstud":2405,"Ġ1982":2406,"ĠSanta":2407,"ĠFrank":2408,"Ġimp":2409,"ĠAnaly":2410,"Ġcapabilities":2411,"Ġsciences":2412,"crete":2413,"egas":2414,"ĠUtilities":2415,"Ġadministration":2416,"Ġlabor":2417,"ĠEnterpr":2418,"Ġfreight":2419,"ĠAsset":2420,"Ġliving":2421,"ĠKingdom":2422,"Ġreplacement":2423,"unicipal":2424,"cure":2425,"family":2426,"gen":2427,"mand":2428,"arm":2429,"Ġflo":2430,"Ġfiber":2431,"ised":2432,"Ġmus":2433,"Ġmilitary":2434,"ĠIN":2435,"Ġware":2436,"ĠSem":2437,"ĠSafety":2438,"urnit":2439,"ĠEMEA":2440,"ĠNor":2441,"Ġnutr":2442,"ĠFood":2443,"ĠDi":2444,"ĠOpt":2445,"ĠGr":2446,"ĠWorld":2447,"imber":2448,"Ġ202":2449,"Ġant":2450,"itality":2451,"Ġdesigning":2452,"astic":2453,"Ġ2011":2454,"Ġ1985":2455,"Ġowned":2456,"Ġfacility":2457,"onald":2458,"Ġrefined":2459,"Ġdevice":2460,"Ġcarbon":2461,"Ġinvolves":2462,"ĠTransmission":2463,"ĠPhil":2464,"located":2465,"ĠAutomotive":2466,"Ġdiffer":2467,"Ġgrocery":2468,"urniture":2469,"greg":2470,"ler":2471,"mot":2472,"oice":2473,"pes":2474,"res":2475,"ves":2476,"we":2477,"Ġ4":2478,"ĠQ":2479,"Ġy":2480,"Ġart":2481,"ert":2482,"Ġsk":2483,"Ġcut":2484,"Ġcir":2485,"orado":2486,"Ġfund":2487,"Ġfamily":2488,"Ġfield":2489,"itt":2490,"Ġmunicipal":2491,"rew":2492,"Ġwood":2493,"Ġbuy":2494,"Ġder":2495,"Ġdiesel":2496,"Ġaf":2497,"ĠChemical":2498,"iles":2499,"ads":2500,"urb":2501,"ĠInst":2502,"essure":2503,"ĠPort":2504,"Ġconduct":2505,"estyle":2506,"stage":2507,"Ġnational":2508,"ĠWI":2509,"ĠLas":2510,"ims":2511,"ustain":2512,"ifamily":2513,"Ġplants":2514,"arden":2515,"ĠProt":2516,"Ġtransform":2517,"uclear":2518,"Ġexchange":2519,"Ġusing":2520,"Ġretailers":2521,"Ġ1995":2522,"Ġauto":2523,"Ġchil":2524,"Ġ1984":2525,"Ġ1986":2526,"Ġautomobile":2527,"ĠFranch":2528,"Ġfract":2529,"Ġoutdoor":2530,"commerce":2531,"Ġutilities":2532,"Ġbroadband":2533,"paration":2534,"Ġspecialized":2535,"Ġdirectly":2536,"ĠJoseph":2537,"Ġfluid":2538,"ĠRegulated":2539,"ĠSecurity":2540,"ĠIrv":2541,"Ġtraining":2542,"ascular":2543,"Ġbiotechnology":2544,"CO":2545,"IT":2546,"RO":2547,"St":2548,"cology":2549,"iqu":2550,"ox":2551,"ugh":2552,"ĠX":2553,"Ġsim":2554,"Ġsyn":2555,"Ġtime":2556,"edi":2557,"Ġfabric":2558,"itz":2559,"oline":2560,"Ġdental":2561,"Ġcompli":2562,"ĠService":2563,"ĠAerospace":2564,"ĠInt":2565,"ĠPar":2566,"ĠRock":2567,"ĠNon":2568,"Ġdeals":2569,"Ġhouse":2570,"Ġnet":2571,"ĠLines":2572,"iforn":2573,"Ġacc":2574,"Ġancillary":2575,"ternal":2576,"Ġcoun":2577,"ĠVegas":2578,"Ġ2005":2579,"Ġ2006":2580,"Ġ2015":2581,"Ġ1980":2582,"Ġfresh":2583,"Ġsolution":2584,"Ġanalysis":2585,"lands":2586,"Ġdrilling":2587,"Ġoptical":2588,"creational":2589,"Ġarchitect":2590,"Ġleases":2591,"Ġpipelines":2592,"Ġmotor":2593,"ĠAdvanced":2594,"Ġpumps":2595,"riting":2596,"Ġcomposed":2597,"Ġthermal":2598,"patient":2599,"ifornia":2600,"En":2601,"LC":2602,"Pacific":2603,"bur":2604,"building":2605,"cast":2606,"iers":2607,"ky":2608,"lor":2609,"ming":2610,"met":2611,"tin":2612,"inery":2613,"Ġsen":2614,"ica":2615,"ores":2616,"Ġfurniture":2617,"asis":2618,"olis":2619,"Ġmen":2620,"Ġmaj":2621,"agr":2622,"Ġdomestic":2623,"ĠSystem":2624,"added":2625,"urs":2626,"ĠIntegr":2627,"Ġrequ":2628,"iver":2629,"ĠEduc":2630,"ĠLending":2631,"Ġvol":2632,"Ġdisord":2633,"Ġmarketplace":2634,"Ġconsist":2635,"Ġplan":2636,"Ġtransfer":2637,"Ġcool":2638,"ĠVehic":2639,"Ġusers":2640,"Ġ1994":2641,"issions":2642,"Ġlease":2643,"isting":2644,"afe":2645,"ends":2646,"Ġprimary":2647,"ĠDefense":2648,"pportun":2649,"Ġnetworking":2650,"Ġbeauty":2651,"ĠAngel":2652,"ublishing":2653,"ĠResources":2654,"Ġtherapeutics":2655,"Ġmoney":2656,"termarket":2657,"Ġcompress":2658,"Ġrevenues":2659,"attle":2660,"ĠEdward":2661,"Ġstrategic":2662,"Ġhotels":2663,"Ġenvironmental":2664,"Ġcleaning":2665,"ĠCloud":2666,"ĠEngineered":2667,"Ġmerchandise":2668,"Ġalternative":2669,"Ġinnovative":2670,"Ġmarine":2671,"uminum":2672,"Ġdifferent":2673,"Ġcompliance":2674,"Ġmajor":2675,"BS":2676,"NA":2677,"lin":2678,"ools":2679,"time":2680,"ux":2681,"inn":2682,"Ġsustain":2683,"Ġtem":2684,"atives":2685,"ality":2686,"Ġca":2687,"Ġcur":2688,"Ġcable":2689,"Ġopportun":2690,"astern":2691,"itive":2692,"Ġthem":2693,"Ġwind":2694,"Ġbl":2695,"ĠSales":2696,"ading":2697,"ĠPeter":2698,"Ġev":2699,"ulatory":2700,"igation":2701,"ĠLos":2702,"Ġoffices":2703,"ĠJack":2704,"Ġdisplay":2705,"ify":2706,"Ġ29":2707,"izon":2708,"Ġpres":2709,"Ġresults":2710,"Ġcoverage":2711,"ubs":2712,"Ġstore":2713,"Ġ2002":2714,"Ġ1981":2715,"ĠManufact":2716,"Ġcommunication":2717,"Ġagency":2718,"Ġbiolog":2719,"Ġ1969":2720,"ĠRetirement":2721,"ĠRealty":2722,"Ġcentral":2723,"ĠSciences":2724,"Ġcontracts":2725,"Ġdrugs":2726,"Ġlighting":2727,"ĠEntertainment":2728,"Ġcontainers":2729,"Ġtelecom":2730,"ĠCalifornia":2731,"Ġbuilds":2732,"Ġtypes":2733,"Ġcandidates":2734,"Ġcircu":2735,"Al":2736,"Ex":2737,"car":2738,"duce":2739,"hab":2740,"kl":2741,"ken":2742,"power":2743,"uer":2744,"Ġ7":2745,"ination":2746,"inations":2747,"ese":2748,"Ġsch":2749,"Ġtechnical":2750,"atell":2751,"ential":2752,"road":2753,"ored":2754,"Ġpot":2755,"ists":2756,"olic":2757,"Ġprote":2758,"Ġproduce":2759,"ĠCam":2760,"elect":2761,"ilton":2762,"try":2763,"thers":2764,"Ġoperators":2765,"ĠPer":2766,"ĠPaul":2767,"Ġ10":2768,"Ġ14":2769,"ĠNV":2770,"Ġhave":2771,"ĠDel":2772,"ĠHomes":2773,"ams":2774,"opper":2775,"ĠWell":2776,"ĠWood":2777,"umber":2778,"Ġmanufactured":2779,"issue":2780,"Ġ1989":2781,"Ġowning":2782,"Ġclos":2783,"Ġregion":2784,"Ġcarri":2785,"Ġaccounting":2786,"Ġutil":2787,"ĠColorado":2788,"Ġenterprises":2789,"Ġacquiring":2790,"Ġoutside":2791,"ountain":2792,"Ġfunctions":2793,"Ġwebs":2794,"Ġdiversified":2795,"Ġmeasurement":2796,"ĠPharmaceuticals":2797,"Ġmedicines":2798,"Ġsett":2799,"Ġsensors":2800,"Ġlifestyle":2801,"Ġeffic":2802,"Ġpasseng":2803,"Ġdisorders":2804,"ER":2805,"First":2806,"SG":2807,"Tr":2808,"cons":2809,"da":2810,"fit":2811,"gin":2812,"ham":2813,"net":2814,"oks":2815,"red":2816,"td":2817,"Ġlow":2818,"Ġsources":2819,"Ġten":2820,"atric":2821,"Ġingredients":2822,"ict":2823,"orations":2824,"ara":2825,"aran":2826,"Ġmass":2827,"Ġseal":2828,"Ġbased":2829,"Ġdown":2830,"ĠCle":2831,"Ġcomplet":2832,"Ġheating":2833,"ĠMark":2834,"ĠMot":2835,"ĠMart":2836,"ĠPaper":2837,"Ġtow":2838,"Ġ17":2839,"Ġdecision":2840,"ĠHy":2841,"ĠHaw":2842,"ulk":2843,"ĠLLC":2844,"ĠLtd":2845,"Ġsupp":2846,"Ġsuite":2847,"Ġdispos":2848,"Ġstate":2849,"alls":2850,"Ġplant":2851,"bert":2852,"Ġpract":2853,"Ġexec":2854,"Ġaddr":2855,"Ġappli":2856,"Ġ1983":2857,"ificial":2858,"akes":2859,"Ġactive":2860,"Ġagree":2861,"ĠConsulting":2862,"Ġalong":2863,"ĠEuropean":2864,"Ġregulated":2865,"Ġunderw":2866,"Ġmetals":2867,"raul":2868,"cond":2869,"Ġdeposits":2870,"Ġinvests":2871,"Ġhybrid":2872,"dren":2873,"ĠBeach":2874,"ĠColumb":2875,"Ġorigination":2876,"ĠCharlot":2877,"Ġtermin":2878,"Ġemployee":2879,"ĠNetworks":2880,"ĠSuppl":2881,"Ġphysic":2882,"Ġtransactions":2883,"Ġsector":2884,"Ġgrowth":2885,"Ġarray":2886,"ĠNetApp":2887,"Ġcategories":2888,"Ġvertical":2889,"Ġpremium":2890,"ĠInstit":2891,"ĠAngeles":2892,"habilit":2893,"Ġaddress":2894,"ĠCharlotte":2895,"bor":2896,"ipp":2897,"sized":2898,"top":2899,"ze":2900,"Ġ5":2901,"Ġsal":2902,"Ġsoft":2903,"Ġsurg":2904,"Ġinternet":2905,"alog":2906,"Ġpric":2907,"Ġpartn":2908,"Ġmov":2909,"ĠIll":2910,"Ġsecure":2911,"rey":2912,"Ġbatter":2913,"ĠSun":2914,"Ġheavy":2915,"Ġreporting":2916,"ĠPet":2917,"ĠBuilding":2918,"Ġ15":2919,"ĠRest":2920,"Ġear":2921,"Ġoncology":2922,"ĠData":2923,"ĠDomestic":2924,"Ġla":2925,"ĠGovern":2926,"ĠLeas":2927,"veloper":2928,"Ġvoice":2929,"Ġ21":2930,"apolis":2931,"ows":2932,"Ġtransports":2933,"Ġcustomized":2934,"ĠVir":2935,"Ġchronic":2936,"Ġ2017":2937,"Ġ1987":2938,"Ġallows":2939,"Ġlocations":2940,"Ġgovernments":2941,"Ġserving":2942,"ĠCont":2943,"Ġconsumables":2944,"ĠPlatform":2945,"ĠScott":2946,"Ġbuildings":2947,"ĠSteph":2948,"Ġvariable":2949,"Ġterminal":2950,"ahoma":2951,"Ġstructures":2952,"Ġsectors":2953,"Ġcollection":2954,"Ġdealers":2955,"ĠRefining":2956,"Ġannuities":2957,"ĠMedicare":2958,"Ġhousehold":2959,"Ġtelecommun":2960,"klahoma":2961,"habilitation":2962,"Ar":2963,"eign":2964,"mers":2965,"paid":2966,"uels":2967,"vey":2968,"Ġ9":2969,"Ġill":2970,"Ġsta":2971,"Ġsatell":2972,"oring":2973,"Ġpost":2974,"Ġflow":2975,"Ġfib":2976,"Ġfast":2977,"Ġflex":2978,"ister":2979,"ask":2980,"itives":2981,"olec":2982,"Ġmemb":2983,"ĠII":2984,"ĠCru":2985,"ush":2986,"uss":2987,"Ġcompo":2988,"perature":2989,"ĠMiss":2990,"ĠMountain":2991,"ĠAm":2992,"tration":2993,"Ġrecycl":2994,"ĠPit":2995,"ĠPre":2996,"ĠPenn":2997,"Ġglass":2998,"ĠRed":2999,"Ġdeveloper":3000,"Ġnuclear":3001,"ĠFort":3002,"ĠFord":3003,"ĠOklahoma":3004,"ically":3005,"uls":3006,"ĠWork":3007,"ips":3008,"ĠJeff":3009,"apan":3010,"Ġreserv":3011,"Ġext":3012,"Ġcoal":3013,"Ġ1990":3014,"Ġ2018":3015,"obility":3016,"ortgages":3017,"ĠDev":3018,"Ġfoodservice":3019,"ientific":3020,"Ġaluminum":3021,"Ġdistributors":3022,"Ġscre":3023,"ĠContract":3024,"Ġaccount":3025,"Ġoptions":3026,"Ġexpense":3027,"lington":3028,"ĠSteven":3029,"Ġoriginal":3030,"Ġfluids":3031,"Ġsurface":3032,"Ġidentity":3033,"Ġpump":3034,"ĠGreen":3035,"bridge":3036,"Ġconditions":3037,"ĠHotels":3038,"Ġshopping":3039,"ĠOffice":3040,"Ġlaboratory":3041,"ĠEnterprise":3042,"ĠDiagnost":3043,"Ġartificial":3044,"Ġchildren":3045,"ĠEducation":3046,"Ġopportunities":3047,"ĠManufacturing":3048,"ĠSupply":3049,"ĠInstitutional":3050,"ĠGovernment":3051,"Americ":3052,"ID":3053,"PS":3054,"TE":3055,"back":3056,"burg":3057,"chemical":3058,"gines":3059,"iew":3060,"lines":3061,"mond":3062,"mington":3063,"ner":3064,"oy":3065,"Ġsw":3066,"Ġsnack":3067,"Ġtitle":3068,"Ġintr":3069,"alk":3070,"allocated":3071,"Ġpartners":3072,"Ġoc":3073,"Ġopen":3074,"Ġfleet":3075,"itors":3076,"Ġmix":3077,"Ġsever":3078,"Ġproc":3079,"Ġbet":3080,"Ġbulk":3081,"ĠCasino":3082,"use":3083,"ĠSpr":3084,"erson":3085,"Ġengines":3086,"Ġoperated":3087,"Ġwaste":3088,"iven":3089,"Ġmanag":3090,"Ġnames":3091,"ĠGathering":3092,"active":3093,"ĠLab":3094,"ipe":3095,"ĠJapan":3096,"Ġprinc":3097,"Ġresorts":3098,"Ġgasoline":3099,"ĠVal":3100,"Ġassemb":3101,"Ġ1992":3102,"Ġ2008":3103,"Ġlead":3104,"Ġowners":3105,"Ġ186":3106,"Ġ187":3107,"Ġbeh":3108,"Ġintegration":3109,"iana":3110,"ĠMidwest":3111,"Ġinsights":3112,"Ġanalytical":3113,"Ġ1971":3114,"fessional":3115,"Ġ1968":3116,"iency":3117,"ĠElectronics":3118,"ĠCommunities":3119,"elligent":3120,"Ġjoint":3121,"Ġmidstream":3122,"Ġconnectivity":3123,"Ġdebit":3124,"Ġlabel":3125,"Ġoutsourcing":3126,"Ġfeed":3127,"ĠCredit":3128,"Ġhotel":3129,"ĠAccess":3130,"Ġtransaction":3131,"Ġdiverse":3132,"ĠBlack":3133,"Ġrespons":3134,"ĠPipeline":3135,"centr":3136,"ĠDaniel":3137,"ĠAnalytics":3138,"Ġcutting":3139,"Ġderiv":3140,"Ġagreements":3141,"raulic":3142,"Ġsurgery":3143,"CS":3144,"MS":3145,"NG":3146,"bed":3147,"brand":3148,"den":3149,"hib":3150,"just":3151,"key":3152,"uation":3153,"Ġ8":3154,"andard":3155,"ony":3156,"heast":3157,"Ġsite":3158,"Ġtub":3159,"Ġtissue":3160,"Ġcan":3161,"Ġcore":3162,"Ġpark":3163,"Ġperform":3164,"ĠTre":3165,"omin":3166,"Ġmut":3167,"Ġmortgages":3168,"ĠIT":3169,"ĠIm":3170,"Ġwh":3171,"ags":3172,"Ġdivision":3173,"Ġaff":3174,"Ġaround":3175,"elding":3176,"ĠSim":3177,"ett":3178,"ĠMil":3179,"ĠMac":3180,"Ġoperational":3181,"Ġrecreational":3182,"ĠBar":3183,"ĠBlo":3184,"Ġ12":3185,"Ġ13":3186,"Ġengagement":3187,"ired":3188,"ĠRos":3189,"ĠRob":3190,"Ġdemand":3191,"ĠFor":3192,"Ġemer":3193,"Ġone":3194,"ĠDo":3195,"ĠDivision":3196,"ĠHer":3197,"Ġrent":3198,"Ġrare":3199,"Ġlub":3200,"ĠOn":3201,"tsbur":3202,"ĠWe":3203,"Ġoffshore":3204,"Ġvia":3205,"Ġ25":3206,"ibbe":3207,"uff":3208,"ĠUS":3209,"Ġstations":3210,"Ġanimal":3211,"ensation":3212,"cohol":3213,"ofing":3214,"press":3215,"Ġclient":3216,"Ġlearn":3217,"Ġautomated":3218,"ĠDevelopment":3219,"Ġdelivering":3220,"Ġaggreg":3221,"annel":3222,"Ġpreparation":3223,"Ġsecured":3224,"Ġcorporations":3225,"Ġhomeown":3226,"Ġcapac":3227,"Ġpayroll":3228,"Ġboats":3229,"Ġappro":3230,"Ġdrive":3231,"Ġworkf":3232,"ĠSouthern":3233,"ategic":3234,"Ġground":3235,"Ġmodel":3236,"ĠCaribbe":3237,"hoen":3238,"Ġ30":3239,"Ġnews":3240,"Ġpurchases":3241,"ĠSpace":3242,"Ġlicensing":3243,"Ġcomputing":3244,"Ġfees":3245,"olds":3246,"Ġpartic":3247,"Ġbranch":3248,"ĠSmith":3249,"edicated":3250,"ĠGeneral":3251,"Ġpharmacy":3252,"Ġguaran":3253,"Ġvirt":3254,"Ġenhance":3255,"ĠFacilities":3256,"Ġcollab":3257,"ĠWilmington":3258,"inois":3259,"Ġwholly":3260,"Ġcommodity":3261,"ĠSemiconductor":3262,"Ġconducts":3263,"ĠProtection":3264,"Ġtemperature":3265,"uerto":3266,"ĠControl":3267,"ĠStephen":3268,"ĠPittsbur":3269,"ĠCaribbean":3270,"ĠPittsburgh":3271,"Ad":3272,"IS":3273,"cell":3274,"ians":3275,"kee":3276,"vascular":3277,"Ġir":3278,"ana":3279,"Ġsafe":3280,"Ġte":3281,"room":3282,"Ġpos":3283,"Ġob":3284,"ished":3285,"asing":3286,"itness":3287,"Ġmost":3288,"Ġmechanical":3289,"Ġmolec":3290,"ĠSam":3291,"Ġiss":3292,"ĠMult":3293,"ĠAlex":3294,"Ġrece":3295,"Ġready":3296,"ĠPuerto":3297,"Ġglob":3298,"Ġ16":3299,"ĠRico":3300,"Ġdef":3301,"Ġforeign":3302,"ĠDC":3303,"Ġlas":3304,"ĠGl":3305,"ĠGulf":3306,"ĠWestern":3307,"ĠLa":3308,"ĠLake":3309,"Ġtrack":3310,"ansas":3311,"Ġsuper":3312,"ode":3313,"very":3314,"Ġacute":3315,"Ġconsisting":3316,"Ġprin":3317,"Ġpressure":3318,"ĠProfessional":3319,"Ġadhes":3320,"ains":3321,"hares":3322,"Ġcla":3323,"Ġ1991":3324,"erman":3325,"ĠSeattle":3326,"phalt":3327,"Ġfragr":3328,"Ġportfolios":3329,"ĠMarine":3330,"Ġshare":3331,"Ġinsp":3332,"Ġserve":3333,"Ġtherapeut":3334,"Ġbanks":3335,"Ġcardi":3336,"ourced":3337,"Ġreturn":3338,"ventional":3339,"ĠLoans":3340,"cycle":3341,"Ġrestaurant":3342,"Ġdiagnostics":3343,"Ġhydraulic":3344,"scale":3345,"ĠFlor":3346,"Ġparties":3347,"Ġquality":3348,"abled":3349,"Ġgenetic":3350,"Ġvacc":3351,"Ġaddition":3352,"Ġselection":3353,"Ġaftermarket":3354,"ĠCambridge":3355,"ĠIllinois":3356,"ĠVirgin":3357,"ĠDiagnostics":3358,"Ġtherapeutic":3359,"arol":3360,"ees":3361,"ius":3362,"iors":3363,"lu":3364,"led":3365,"now":3366,"public":3367,"ano":3368,"anes":3369,"anol":3370,"inks":3371,"ero":3372,"Ġshar":3373,"Ġtext":3374,"Ġcasino":3375,"arr":3376,"Ġpoint":3377,"mentation":3378,"Ġfam":3379,"ĠTem":3380,"aster":3381,"Ġmill":3382,"ĠIs":3383,"Ġsecond":3384,"Ġprop":3385,"reet":3386,"Ġweb":3387,"Ġbasis":3388,"usion":3389,"utive":3390,"Ġcomplement":3391,"ĠSB":3392,"ĠSa":3393,"ĠSw":3394,"urse":3395,"ida":3396,"ĠMod":3397,"ĠAI":3398,"ĠAppl":3399,"ĠAviation":3400,"ĠPal":3401,"Ġconcrete":3402,"Ġconcentr":3403,"Ġgames":3404,"ĠNe":3405,"Ġname":3406,"ĠFre":3407,"ĠDak":3408,"Ġrate":3409,"ama":3410,"amin":3411,"ĠLoc":3412,"Ġ28":3413,"Ġinvent":3414,"ays":3415,"peed":3416,"Ġany":3417,"Ġfirms":3418,"Ġassess":3419,"astics":3420,"Ġwellness":3421,"Ġauth":3422,"Ġcontin":3423,"Ġ185":3424,"Ġrob":3425,"Ġroyal":3426,"Ġproducing":3427,"Ġcars":3428,"Ġcargo":3429,"ĠResearch":3430,"Ġmeth":3431,"Ġ1978":3432,"Ġ1979":3433,"raz":3434,"Ġscience":3435,"Ġliability":3436,"venience":3437,"Ġmaintain":3438,"Ġinvesting":3439,"Ġvalves":3440,"driven":3441,"ylvan":3442,"ĠSupport":3443,"Ġmotion":3444,"Ġcreate":3445,"Ġoptimize":3446,"ĠFoodservice":3447,"ĠAndrew":3448,"Ġdetection":3449,"Ġsocial":3450,"ĠHospitality":3451,"Ġrelations":3452,"Ġsubscriptions":3453,"Ġcompression":3454,"ĠMartin":3455,"Ġappliances":3456,"Ġunderwriting":3457,"Ġterminals":3458,"Ġtelecommunications":3459,"Ġsatellite":3460,"ĠIII":3461,"ĠPenns":3462,"Ġdevelopers":3463,"Ġmutual":3464,"Ġlubric":3465,"hoenix":3466,"ĠFlorida":3467,"ĠVirginia":3468,"Ġfamil":3469,"ĠDakota":3470,"Health":3471,"LE":3472,"ao":3473,"cup":3474,"ges":3475,"other":3476,"shares":3477,"ule":3478,"win":3479,"eries":3480,"erry":3481,"head":3482,"Ġship":3483,"Ġspecific":3484,"Ġtank":3485,"Ġincre":3486,"arch":3487,"Ġfin":3488,"ĠTest":3489,"Ġbar":3490,"Ġaviation":3491,"ĠCasualty":3492,"uses":3493,"elph":3494,"unt":3495,"uting":3496,"Ġcompensation":3497,"ĠSports":3498,"adelph":3499,"idated":3500,"ĠMill":3501,"ĠAC":3502,"ĠAP":3503,"ĠAR":3504,"ĠAct":3505,"Ġoperate":3506,"Ġreinsurance":3507,"Ġrehabilitation":3508,"ĠPhoenix":3509,"Ġasphalt":3510,"ĠNutr":3511,"ĠFo":3512,"ĠFlow":3513,"ĠFuel":3514,"ulin":3515,"ĠGold":3516,"actory":3517,"ĠLand":3518,"osis":3519,"Ġdisability":3520,"Ġ23":3521,"Ġ24":3522,"Ġ27":3523,"Ġplastic":3524,"Ġfirst":3525,"ards":3526,"Ġtransport":3527,"Ġresource":3528,"Ġexisting":3529,"Ġoral":3530,"Ġcook":3531,"ĠCoun":3532,"aff":3533,"Ġfacilit":3534,"Ġimpl":3535,"Ġimaging":3536,"Ġfoods":3537,"Ġunivers":3538,"iented":3539,"Ġsolid":3540,"Ġ1972":3541,"ffing":3542,"erships":3543,"Ġworkers":3544,"ĠBusinesses":3545,"Ġtrade":3546,"connect":3547,"ĠComponents":3548,"ĠZeal":3549,"ĠPrivate":3550,"Ġhelps":3551,"ĠBrian":3552,"anging":3553,"Ġcombines":3554,"Ġlicenses":3555,"ĠMcC":3556,"Ġfiltration":3557,"Ġmachine":3558,"Ġmachinery":3559,"Ġfrequ":3560,"cription":3561,"ĠAdvis":3562,"offee":3563,"Ġconditioning":3564,"ĠPipelines":3565,"Ġtruckload":3566,"Ġstreaming":3567,"ĠPhiladelph":3568,"ĠIntegrated":3569,"Ġcurr":3570,"Ġpassenger":3571,"Ġflexible":3572,"ĠSpring":3573,"Ġhomeowners":3574,"Ġguarante":3575,"ylvania":3576,"ĠPennsylvania":3577,"Ġfamilies":3578,"ĠZealand":3579,"ĠPhiladelphia":3580,"Cs":3581,"FS":3582,"MC":3583,"TM":3584,"ble":3585,"cos":3586,"ger":3587,"ik":3588,"lies":3589,"ma":3590,"nes":3591,"oth":3592,"rum":3593,"site":3594,"specific":3595,"tion":3596,"vin":3597,"err":3598,"erals":3599,"eners":3600,"Ġsil":3601,"atic":3602,"aters":3603,"alent":3604,"eds":3605,"Ġpan":3606,"Ġpolic":3607,"isure":3608,"ĠTimber":3609,"ason":3610,"Ġmixed":3611,"Ġmaking":3612,"Ġpromot":3613,"Ġwall":3614,"Ġwide":3615,"Ġbal":3616,"Ġbre":3617,"Ġblo":3618,"Ġav":3619,"ĠChe":3620,"ĠCor":3621,"ĠCable":3622,"ĠCenter":3623,"ĠSo":3624,"ĠSpecial":3625,"ili":3626,"uction":3627,"ĠMal":3628,"ĠMobile":3629,"ĠMicro":3630,"ĠAmer":3631,"ĠInterm":3632,"thing":3633,"cean":3634,"ĠPharm":3635,"ĠPublishing":3636,"ivil":3637,"Ġgear":3638,"Ġgolf":3639,"ĠBet":3640,"ĠBur":3641,"ĠBenef":3642,"Ġ11":3643,"ĠEv":3644,"ĠFederal":3645,"Ġep":3646,"Ġless":3647,"Ġlive":3648,"Ġlend":3649,"ĠOh":3650,"ĠOwn":3651,"ĠOEM":3652,"amic":3653,"acco":3654,"ĠWh":3655,"igan":3656,"ectrum":3657,"Ġven":3658,"Ġdisp":3659,"ĠUT":3660,"eller":3661,"Ġstock":3662,"Ġtransm":3663,"ĠRepublic":3664,"Ġ2016":3665,"Ġlevel":3666,"Ġleased":3667,"Ġ1988":3668,"ruit":3669,"Ġarea":3670,"uilt":3671,"ĠSegment":3672,"Ġtreating":3673,"ĠFred":3674,"Ġagents":3675,"pose":3676,"Ġadvice":3677,"Ġsupports":3678,"ather":3679,"Ġoutpatient":3680,"Ġregions":3681,"Ġregulatory":3682,"Ġbox":3683,"comp":3684,"raphic":3685,"lando":3686,"ĠConnect":3687,"box":3688,"Ġorganization":3689,"Ġmodular":3690,"Ġmodules":3691,"Ġgeographic":3692,"Ġcert":3693,"ĠSteel":3694,"uckload":3695,"Ġmerchants":3696,"Ġentire":3697,"Ġpetrochemical":3698,"Ġcomputers":3699,"Ġstructural":3700,"Ġstructured":3701,"Ġmachines":3702,"Ġenvironments":3703,"Ġoptimization":3704,"rolled":3705,"ĠHotel":3706,"Ġmineral":3707,"ĠGeneration":3708,"Ġaudio":3709,"Ġassistance":3710,"Ġlegal":3711,"Ġwarehouse":3712,"ĠChemicals":3713,"Ġsenior":3714,"Ġpractices":3715,"Ġrecycling":3716,"ĠJeffrey":3717,"Ġscreening":3718,"Ġseveral":3719,"Ġclaims":3720,"Ġmethod":3721,"Ġfrequency":3722,"GI":3723,"GM":3724,"United":3725,"ca":3726,"ciences":3727,"ek":3728,"fo":3729,"gi":3730,"iance":3731,"kin":3732,"mark":3733,"rigation":3734,"sp":3735,"tage":3736,"ander":3737,"onent":3738,"ati":3739,"Ġinj":3740,"Ġcopper":3741,"orative":3742,"oriented":3743,"Ġpul":3744,"Ġpop":3745,"Ġpow":3746,"Ġfut":3747,"Ġfuels":3748,"ĠTel":3749,"ĠTerm":3750,"ĠTitle":3751,"oming":3752,"olidated":3753,"Ġmines":3754,"Ġbut":3755,"Ġbak":3756,"Ġcommerce":3757,"Ġdry":3758,"Ġdedicated":3759,"ĠCarol":3760,"elf":3761,"ĠSur":3762,"ersey":3763,"ides":3764,"los":3765,"ĠMe":3766,"ĠMy":3767,"ĠMor":3768,"ĠMining":3769,"ĠInformation":3770,"Ġrem":3771,"Ġreag":3772,"ĠBi":3773,"ĠBel":3774,"ĠBraz":3775,"ste":3776,"iring":3777,"ĠRel":3778,"ĠRay":3779,"ĠRail":3780,"ĠRestaur":3781,"Ġnurs":3782,"ĠFirst":3783,"Ġrest":3784,"ĠOK":3785,"Ġconstruct":3786,"ops":3787,"ĠWall":3788,"ĠLong":3789,"thern":3790,"abis":3791,"ĠJersey":3792,"Ġ22":3793,"ape":3794,"Ġindex":3795,"erground":3796,"Ġorth":3797,"ĠCompl":3798,"iovascular":3799,"Ġmanufacturer":3800,"Ġprocessors":3801,"ĠCoatings":3802,"Ġgenerates":3803,"annabis":3804,"Ġunallocated":3805,"folio":3806,"Ġactivity":3807,"airy":3808,"Ġtreatments":3809,"ĠInvest":3810,"ĠResorts":3811,"Ġscientific":3812,"Ġmultifamily":3813,"Ġacquisitions":3814,"conom":3815,"ĠElectronic":3816,"asinos":3817,"ĠClub":3818,"ĠClara":3819,"ĠBeverage":3820,"Ġliquef":3821,"Ġkey":3822,"ĠCarl":3823,"neapolis":3824,"Ġ1955":3825,"Ġmeet":3826,"modal":3827,"Ġinterests":3828,"Ġ1946":3829,"Ġstrategies":3830,"Ġcontains":3831,"Ġbenefit":3832,"ĠMinneapolis":3833,"ĠOrlando":3834,"Ġarrange":3835,"Ġteleph":3836,"markets":3837,"Ġphot":3838,"Ġadditives":3839,"itchen":3840,"ĠInstru":3841,"Ġrefrigerated":3842,"ĠEmploy":3843,"itanium":3844,"Ġradio":3845,"Ġmunicipalities":3846,"ĠPortfolio":3847,"ĠFranchising":3848,"ĠIrvine":3849,"ĠParts":3850,"Ġaccident":3851,"Ġrequire":3852,"ĠVehicle":3853,"Ġprotein":3854,"Ġefficiency":3855,"ĠLeasing":3856,"Ġmanagers":3857,"Ġlearning":3858,"Ġparticip":3859,"Ġvirtual":3860,"Ġglobally":3861,"Ġinspection":3862,"Ġvaccines":3863,"Ġinventory":3864,"Ġrobot":3865,"AN":3866,"AP":3867,"AR":3868,"IN":3869,"PG":3870,"Pro":3871,"Tech":3872,"Un":3873,"Ver":3874,"VAC":3875,"aS":3876,"def":3877,"fl":3878,"fill":3879,"free":3880,"gar":3881,"gency":3882,"kers":3883,"kins":3884,"las":3885,"mart":3886,"na":3887,"ning":3888,"oin":3889,"oul":3890,"rist":3891,"uid":3892,"well":3893,"xide":3894,"Ġeth":3895,"inical":3896,"inyl":3897,"erts":3898,"ench":3899,"enabled":3900,"Ġtur":3901,"ato":3902,"atories":3903,"Ġcos":3904,"Ġcross":3905,"rous":3906,"aring":3907,"Ġpubl":3908,"Ġpipe":3909,"Ġfee":3910,"Ġfree":3911,"Ġfurn":3912,"omer":3913,"ola":3914,"olitan":3915,"Ġmem":3916,"Ġmore":3917,"Ġwear":3918,"Ġwelding":3919,"Ġbear":3920,"Ġbody":3921,"agle":3922,"Ġdoc":3923,"ĠCy":3924,"ĠCos":3925,"ĠSand":3926,"ĠSout":3927,"ĠServicing":3928,"etes":3929,"pers":3930,"urch":3931,"Ġheld":3932,"ĠMary":3933,"tries":3934,"thur":3935,"ĠPack":3936,"ĠPerm":3937,"Ġconf":3938,"Ġconvenience":3939,"ĠBay":3940,"ĠBios":3941,"clus":3942,"ires":3943,"ĠRy":3944,"ĠRenewable":3945,"ĠRiver":3946,"ĠNE":3947,"ĠNev":3948,"Ġnation":3949,"ĠFair":3950,"ĠHand":3951,"ĠHol":3952,"ĠHilton":3953,"Ġrig":3954,"ĠOak":3955,"ĠGo":3956,"ĠGolf":3957,"ached":3958,"ĠWin":3959,"ĠLi":3960,"abling":3961,"imit":3962,"Ġvis":3963,"Ġ26":3964,"ĠUSA":3965,"Ġstage":3966,"Ġstandard":3967,"Ġanalog":3968,"Ġloss":3969,"tribut":3970,"berg":3971,"Ġtransporting":3972,"Ġresort":3973,"Ġorder":3974,"grad":3975,"ĠKe":3976,"ĠKev":3977,"ĠKenn":3978,"Ġelectrom":3979,"ĠEng":3980,"ĠCoast":3981,"obiles":3982,"Ġinterm":3983,"Ġprepaid":3984,"athan":3985,"critical":3986,"Ġdistributed":3987,"ĠThis":3988,"Ġroll":3989,"Ġproduced":3990,"comes":3991,"Ġlike":3992,"Ġdrinks":3993,"contin":3994,"Ġatt":3995,"Ġorganic":3996,"iversified":3997,"Ġclinics":3998,"Ġbroadcast":3999,"ĠClient":4000,"ĠExper":4001,"ĠHomebuilding":4002,"iconductors":4003,"Ġhandles":4004,"icket":4005,"anges":4006,"ĠMichigan":4007,"Ġemployees":4008,"Ġchains":4009,"ĠBroad":4010,"ĠBroker":4011,"Ġoutsourced":4012,"ĠEquity":4013,"ways":4014,"ropolitan":4015,"Ġstrategy":4016,"Ġidentification":4017,"Ġagriculture":4018,"Ġimprovement":4019,"hesda":4020,"Ġrecord":4021,"ĠOutdoor":4022,"ĠNGLs":4023,"Ġlegacy":4024,"Ġsubscription":4025,"Ġmusic":4026,"Ġfraction":4027,"ĠIrving":4028,"ique":4029,"ĠIntelligence":4030,"Ġsustainable":4031,"ĠJackson":4032,"Ġcarriers":4033,"Ġdownstream":4034,"Ġphysician":4035,"Ġbattery":4036,"istered":4037,"aska":4038,"Ġcompounds":4039,"American":4040,"Ġoccup":4041,"Ġprincipal":4042,"bedded":4043,"ĠDoug":4044,"Ġcapacity":4045,"ĠMultifamily":4046,"Ġprinting":4047,"Ġcardiac":4048,"ĠBethesda":4049,"Ġvenues":4050,"ĠBrazil":4051,"stein":4052,"Ġarrangements":4053,"Ġethanol":4054,"ĠNevada":4055,"Am":4056,"New":4057,"dale":4058,"ea":4059,"oir":4060,"rad":4061,"tise":4062,"ued":4063,"vis":4064,"wau":4065,"za":4066,"Ġ6":4067,"ena":4068,"onom":4069,"Ġsand":4070,"Ġsites":4071,"aton":4072,"Ġinhib":4073,"alf":4074,"alyst":4075,"Ġchem":4076,"Ġcasinos":4077,"orrow":4078,"Ġothers":4079,"ĠTur":4080,"ĠTim":4081,"ĠTenn":4082,"itting":4083,"Ġmess":4084,"Ġsepar":4085,"Ġsearch":4086,"ret":4087,"Ġbase":4088,"Ġborrow":4089,"ĠCustom":4090,"ĠSing":4091,"ĠSurgical":4092,"etr":4093,"Ġheart":4094,"ĠMad":4095,"ĠMiam":4096,"ĠAL":4097,"tra":4098,"lements":4099,"essee":4100,"ĠPe":4101,"ĠPoly":4102,"ĠPrem":4103,"Ġtool":4104,"Ġtoys":4105,"Ġgo":4106,"Ġgene":4107,"Ġgarden":4108,"storage":4109,"iratory":4110,"ĠRental":4111,"ĠRonald":4112,"ĠEric":4113,"Ġdeploy":4114,"Ġhost":4115,"Ġeconom":4116,"ĠDE":4117,"ĠDirect":4118,"ĠDonald":4119,"ĠHam":4120,"ĠHills":4121,"ĠHugh":4122,"ĠGro":4123,"ĠGarden":4124,"amford":4125,"actor":4126,"ĠWy":4127,"ĠWire":4128,"Ġtrail":4129,"aby":4130,"abil":4131,"abetes":4132,"iminations":4133,"ective":4134,"ĠJon":4135,"ĠJay":4136,"ological":4137,"Ġstation":4138,"ewater":4139,"sures":4140,"Ġprint":4141,"ithium":4142,"ĠStamford":4143,"ĠKent":4144,"Ġcover":4145,"itions":4146,"places":4147,"ĠRefriger":4148,"Ġassort":4149,"Ġuser":4150,"cused":4151,"ĠEnviron":4152,"Ġ2001":4153,"Ġchlor":4154,"Ġ2019":4155,"ĠNews":4156,"Ġlever":4157,"ĠTrading":4158,"antic":4159,"ocol":4160,"ended":4161,"aker":4162,"Ġautomate":4163,"Ġintervention":4164,"Ġunders":4165,"ĠChrist":4166,"Ġsupporting":4167,"Ġrefining":4168,"Ġspons":4169,"reek":4170,"Ġ1975":4171,"Ġ1976":4172,"Ġ1966":4173,"Ġworkforce":4174,"agnetic":4175,"product":4176,"cont":4177,"hyl":4178,"ĠArizon":4179,"ĠArthur":4180,"ography":4181,"Ġinvestor":4182,"ferred":4183,"oke":4184,"istry":4185,"Ġdiagn":4186,"Ġmodern":4187,"Ġ31":4188,"incinn":4189,"Ġedge":4190,"Ġconnected":4191,"Ġpurchasing":4192,"Ġfranchises":4193,"Ġcondens":4194,"enewables":4195,"Ġampl":4196,"ĠAuto":4197,"ĠCenters":4198,"Ġeducational":4199,"Ġexpertise":4200,"Ġ1906":4201,"partments":4202,"Ġidentify":4203,"mont":4204,"Ġfunction":4205,"Ġgrowing":4206,"Ġrede":4207,"Ġreduce":4208,"ĠSecurities":4209,"Ġdoors":4210,"Ġneurolog":4211,"reme":4212,"ĠPayments":4213,"Ġpackaged":4214,"Ġannuity":4215,"Ġsignal":4216,"Ġventil":4217,"ĠStrategic":4218,"Ġrefrigeration":4219,"chester":4220,"ĠFranklin":4221,"Ġwareh":4222,"Ġ2021":4223,"Ġantib":4224,"ween":4225,"ĠQu":4226,"urban":4227,"Ġcountries":4228,"Ġcooling":4229,"Ġevents":4230,"Ġcircuit":4231,"Ġcircuits":4232,"Ġwebsites":4233,"Ġsealants":4234,"ĠHawai":4235,"Ġsupplement":4236,"Ġillness":4237,"Ġstaffing":4238,"ĠMilwau":4239,"Ġadhesives":4240,"luent":4241,"Ġsecondary":4242,"Ġincrease":4243,"ĠFoot":4244,"ĠOhio":4245,"Ġcertific":4246,"focused":4247,"ĠCarolina":4248,"Ġreagents":4249,"Ġnursing":4250,"Ġpublish":4251,"ĠMiami":4252,"ĠArizona":4253,"incinnati":4254,"ĠMilwaukee":4255,"Based":4256,"CM":4257,"FC":4258,"GE":4259,"Net":4260,"SO":4261,"West":4262,"XM":4263,"aware":4264,"by":4265,"bers":4266,"business":4267,"core":4268,"de":4269,"lets":4270,"mar":4271,"nap":4272,"nection":4273,"oT":4274,"ou":4275,"uum":4276,"ved":4277,"vol":4278,"vest":4279,"wich":4280,"Ġul":4281,"Ġedit":4282,"anco":4283,"inv":4284,"inary":4285,"ont":4286,"Ġsensing":4287,"Ġturn":4288,"Ġtabl":4289,"Ġtitanium":4290,"Ġinit":4291,"Ġcal":4292,"Ġchic":4293,"Ġcrop":4294,"Ġcement":4295,"Ġcoffee":4296,"Ġfive":4297,"Ġfarm":4298,"Ġfert":4299,"asic":4300,"asive":4301,"oln":4302,"Ġmobility":4303,"Ġbill":4304,"Ġbrid":4305,"Ġdairy":4306,"Ġaer":4307,"Ġapartment":4308,"ĠCR":4309,"ĠCore":4310,"ĠCreek":4311,"ĠCincinnati":4312,"ĠStruct":4313,"ĠSalt":4314,"ĠSky":4315,"ĠSubs":4316,"urt":4317,"ĠMo":4318,"ĠMax":4319,"ĠIngredients":4320,"Ġenabling":4321,"Ġrecovery":4322,"ĠPatric":4323,"Ġproductivity":4324,"estock":4325,"ĠBell":4326,"ĠRF":4327,"ĠRent":4328,"ĠRog":4329,"ĠEr":4330,"ĠEmer":4331,"ĠNic":4332,"Ġdeck":4333,"Ġholds":4334,"ĠFunds":4335,"ĠFleet":4336,"Ġecos":4337,"ĠDown":4338,"ĠDiversified":4339,"ĠOl":4340,"ull":4341,"Ġconsult":4342,"ĠWind":4343,"ĠLic":4344,"imate":4345,"ects":4346,"Ġvision":4347,"Ġveg":4348,"Ġveter":4349,"ĠJones":4350,"Ġdiscover":4351,"ifiers":4352,"ĠCorporation":4353,"Ġstates":4354,"owers":4355,"Ġplace":4356,"ensed":4357,"ĠStan":4358,"Ġgases":4359,"ĠKn":4360,"ĠKansas":4361,"ĠVer":4362,"ancing":4363,"ouri":4364,"Ġautomobiles":4365,"Ġoils":4366,"Ġgenerating":4367,"ermal":4368,"Ġbrokers":4369,"Ġintermodal":4370,"Ġprec":4371,"Ġunit":4372,"Ġclothing":4373,"ĠAnnu":4374,"ashion":4375,"ĠOperating":4376,"ĠMarc":4377,"Ġoutcomes":4378,"Ġbiom":4379,"Ġdistributing":4380,"Ġroofing":4381,"Ġproducers":4382,"Ġ1970":4383,"Ġ1967":4384,"Ġmonitors":4385,"ĠJohnson":4386,"ĠArchitect":4387,"ĠArlington":4388,"Ġflat":4389,"Ġflav":4390,"istration":4391,"ĠBeverages":4392,"ĠBeauty":4393,"ĠExec":4394,"ĠAllen":4395,"Ġtests":4396,"Ġfully":4397,"Ġcontractors":4398,"riott":4399,"Ġhospitality":4400,"Ġmerchant":4401,"Ġacquired":4402,"here":4403,"Ġmeat":4404,"regulated":4405,"Ġcombination":4406,"ĠBrown":4407,"Ġsemiconductors":4408,"Ġcellular":4409,"Ġmotors":4410,"ĠMcL":4411,"Ġfilm":4412,"Ġcontainer":4413,"umbing":4414,"Ġ1938":4415,"aneous":4416,"ĠRichmond":4417,"ĠBancshares":4418,"ĠAutomation":4419,"Ġinfect":4420,"Ġvacation":4421,"Ġmedicine":4422,"Ġcharging":4423,"Ġpharmac":4424,"Ġsheet":4425,"ĠFacility":4426,"Ġcycle":4427,"ĠDrilling":4428,"Ġimpact":4429,"ĠFranchise":4430,"Ġfracturing":4431,"ĠIntelligent":4432,"Ġarchitectural":4433,"Ġcoolers":4434,"ĠVehicles":4435,"uxury":4436,"Ġcamer":4437,"Ġpreserv":4438,"Ġschools":4439,"ĠDelaware":4440,"Ġwebsite":4441,"Ġsettings":4442,"ĠMotor":4443,"ĠColumbus":4444,"ĠColumbia":4445,"Ġearth":4446,"Ġlawn":4447,"Ġfasteners":4448,"ĠMissouri":4449,"Ġprocurement":4450,"Ġbetween":4451,"Ġwhile":4452,"coholic":4453,"Ġapproach":4454,"Ġobject":4455,"Ġlaser":4456,"Ġcomplementary":4457,"ĠNutrition":4458,"Ġcurrent":4459,"Ġguaranteed":4460,"Ġblood":4461,"ĠSoutheast":4462,"ĠPermian":4463,"ĠBiosciences":4464,"clusive":4465,"Ġnationwide":4466,"ĠKevin":4467,"ĠKenneth":4468,"Ġintermedi":4469,"ĠTennessee":4470,"Ġtablets":4471,"ĠArchitectural":4472,"10":4473,"AL":4474,"Bl":4475,"Con":4476,"ES":4477,"EMEA":4478,"Other":4479,"PC":4480,"Pal":4481,"RA":4482,"RI":4483,"Re":4484,"TS":4485,"bell":4486,"bacco":4487,"dging":4488,"ean":4489,"eil":4490,"get":4491,"gia":4492,"ha":4493,"hen":4494,"home":4495,"ny":4496,"ound":4497,"ray":4498,"town":4499,"tewater":4500,"water":4501,"ych":4502,"Ġz":4503,"inet":4504,"hew":4505,"Ġspr":4506,"Ġstructure":4507,"Ġtimber":4508,"Ġtalent":4509,"atics":4510,"Ġcust":4511,"Ġcivil":4512,"ican":4513,"ora":4514,"Ġpath":4515,"Ġpublishing":4516,"Ġfederal":4517,"Ġfitness":4518,"ĠTools":4519,"Ġmade":4520,"ĠIP":4521,"ĠIQ":4522,"Ġseam":4523,"Ġbel":4524,"Ġbow":4525,"ĠCBS":4526,"eler":4527,"unch":4528,"uth":4529,"ĠSqu":4530,"ĠSearch":4531,"ĠSnack":4532,"adem":4533,"Ġfour":4534,"ĠMel":4535,"ĠMur":4536,"ĠAb":4537,"leep":4538,"than":4539,"Ġrecon":4540,"Ġreli":4541,"Ġremot":4542,"ĠPartn":4543,"Ġwastewater":4544,"iving":4545,"Ġtobacco":4546,"ĠBen":4547,"ĠEagle":4548,"Ġdec":4549,"Ġhar":4550,"ĠDet":4551,"ĠDenn":4552,"ĠHow":4553,"Ġren":4554,"Ġrun":4555,"Ġrights":4556,"Ġlarg":4557,"Ġlumber":4558,"Ġlimit":4559,"ulations":4560,"ulators":4561,"ĠGil":4562,"ĠGaming":4563,"ĠWalth":4564,"ĠWay":4565,"ĠLA":4566,"ipher":4567,"veland":4568,"Ġvess":4569,"odes":4570,"odal":4571,"apes":4572,"apid":4573,"ĠUp":4574,"izers":4575,"alled":4576,"ension":4577,"Ġresid":4578,"illed":4579,"illage":4580,"Ġextract":4581,"ateral":4582,"Ġequities":4583,"ĠStud":4584,"ĠState":4585,"mune":4586,"Ġelectro":4587,"ĠVac":4588,"Ġdesk":4589,"aving":4590,"avior":4591,"ĠTravel":4592,"ocks":4593,"asses":4594,"ĠIndivid":4595,"Ġinterior":4596,"Ġprevent":4597,"Ġunif":4598,"Ġalloy":4599,"ĠAnton":4600,"Ġunderground":4601,"Ġintegrates":4602,"Ġcapt":4603,"Ġoutlets":4604,"Ġshort":4605,"Ġreflect":4606,"Ġspectrum":4607,"Ġinsulation":4608,"Ġdistributor":4609,"Ġanalyze":4610,"Ġbook":4611,"âĢľ":4612,"âĢĿ":4613,"Ġ1962":4614,"Ġempower":4615,"profit":4616,"Ġcolor":4617,"ĠTransfer":4618,"Ġhighly":4619,"Ġpurpose":4620,"ĠComputing":4621,"Ġcardiovascular":4622,"ĠBanks":4623,"ĠDisplay":4624,"Ġparty":4625,"ynd":4626,"rugated":4627,"ĠWilliams":4628,"Ġkits":4629,"Ġadvisors":4630,"ucky":4631,"incoln":4632,"Ġfranchising":4633,"Ġfranchised":4634,"Ġ1959":4635,"Ġclearing":4636,"Ġgrade":4637,"Ġlicense":4638,"iberty":4639,"Ġcomputer":4640,"ĠMcK":4641,"Ġexperiences":4642,"Ġinstallment":4643,"Ġfeat":4644,"ĠShale":4645,"ĠAcqu":4646,"ĠMinnes":4647,"ĠGeorgia":4648,"Ġ1919":4649,"ampa":4650,"Ġpaperboard":4651,"Ġrespiratory":4652,"holders":4653,"ĠPayment":4654,"Ġventure":4655,"Ġventures":4656,"Ġclasses":4657,"Ġhydrocar":4658,"Ġtargeted":4659,"Ġwhole":4660,"Ġcommodities":4661,"Ġability":4662,"Ġimplement":4663,"Ġnutrition":4664,"ĠOptical":4665,"Ġanti":4666,"resp":4667,"Ġskin":4668,"Ġfields":4669,"Ġbuyers":4670,"Ġfabrication":4671,"Ġdifferentiated":4672,"Ġdisplays":4673,"Ġcarrier":4674,"Ġsettlement":4675,"ĠClean":4676,"Ġvertically":4677,"Ġpricing":4678,"Ġearly":4679,"ĠPlatforms":4680,"Ġmembership":4681,"ĠPrecision":4682,"ulsion":4683,"ĠDevices":4684,"Ġpumping":4685,"backed":4686,"Ġswitch":4687,"Ġsnacks":4688,"Ġassemblies":4689,"branded":4690,"ĠSimon":4691,"Ġirrigation":4692,"Ġteams":4693,"Ġmolecule":4694,"Ġreceiv":4695,"Ġfragrance":4696,"Ġreturns":4697,"ĠApplied":4698,"Ġassessment":4699,"Ġauthor":4700,"Ġmaintains":4701,"Ġuniversal":4702,"Ġavail":4703,"ĠPharma":4704,"ĠBenefits":4705,"raphics":4706,"Ġfutures":4707,"Ġconstructs":4708,"ĠComplet":4709,"Ġrequirements":4710,"Ġdocu":4711,"ĠMaryland":4712,"ĠBrokerage":4713,"ĠDouglas":4714,"ĠHughes":4715,"Ġtrailers":4716,"Ġassortment":4717,"ĠEnvironmental":4718,"Ġchloride":4719,"hylene":4720,"Ġneurological":4721,"Ġventilation":4722,"Ġveget":4723,"ĠWaltham":4724,"ĠIndividual":4725,"ĠMinnesota":4726,"As":4727,"Co":4728,"Cent":4729,"Cons":4730,"EP":4731,"FE":4732,"IA":4733,"Mar":4734,"Pl":4735,"Rock":4736,"SB":4737,"TL":4738,"VB":4739,"aily":4740,"bro":4741,"bulatory":4742,"day":4743,"ements":4744,"gg":4745,"haul":4746,"iary":4747,"la":4748,"mel":4749,"mann":4750,"ots":4751,"ping":4752,"put":4753,"speed":4754,"tro":4755,"uit":4756,"uise":4757,"worth":4758,"western":4759,"walk":4760,"zz":4761,"Ġi":4762,"Ġess":4763,"Ġurban":4764,"iners":4765,"inson":4766,"ona":4767,"Ġsome":4768,"ately":4769,"Ġintern":4770,"ald":4771,"aler":4772,"Ġcult":4773,"Ġcasual":4774,"rogen":4775,"edical":4776,"edia":4777,"edEx":4778,"arry":4779,"Ġps":4780,"Ġobs":4781,"Ġfid":4782,"ism":4783,"ĠTom":4784,"omics":4785,"Ġmark":4786,"Ġmake":4787,"Ġmechan":4788,"ĠID":4789,"reat":4790,"Ġwhe":4791,"Ġwine":4792,"Ġwestern":4793,"Ġbasin":4794,"Ġbars":4795,"Ġbags":4796,"Ġdest":4797,"Ġabs":4798,"ĠCard":4799,"ung":4800,"Ġcomponent":4801,"ĠShe":4802,"ĠShar":4803,"ethylene":4804,"perform":4805,"ĠMem":4806,"ĠMain":4807,"ĠMass":4808,"ĠMerch":4809,"ĠMatt":4810,"ĠATM":4811,"trict":4812,"lef":4813,"ĠPC":4814,"ively":4815,"Ġconvers":4816,"Ġgre":4817,"ests":4818,"stone":4819,"irius":4820,"cluding":4821,"ĠRenewables":4822,"ĠEp":4823,"ĠEastern":4824,"ĠNash":4825,"Ġdeg":4826,"Ġdepartment":4827,"Ġhair":4828,"Ġforms":4829,"Ġnear":4830,"ĠFire":4831,"ĠFinancing":4832,"ĠFiber":4833,"Ġevent":4834,"Ġearn":4835,"Ġevery":4836,"ĠHil":4837,"ĠHill":4838,"ĠHVAC":4839,"Ġlithium":4840,"ĠOthers":4841,"ĠGerm":4842,"amm":4843,"amics":4844,"aco":4845,"acing":4846,"ĠWorth":4847,"ogen":4848,"ĠLight":4849,"ĠLaur":4850,"ĠLitt":4851,"Ġvinyl":4852,"ĠJo":4853,"Ġdist":4854,"ibr":4855,"Ġaccept":4856,"ĠUnit":4857,"Ġstabil":4858,"rice":4859,"Ġcommercializing":4860,"Ġplay":4861,"Ġplastics":4862,"Ġplumbing":4863,"uciary":4864,"illy":4865,"Ġexcess":4866,"ĠStreet":4867,"acks":4868,"ĠKr":4869,"ĠKore":4870,"Ġcoil":4871,"Ġcoated":4872,"ĠView":4873,"ĠVillage":4874,"Ġcruise":4875,"pton":4876,"ences":4877,"anton":4878,"Ġcontact":4879,"Ġprime":4880,"ours":4881,"Ġgenerated":4882,"asset":4883,"Ġaction":4884,"ĠDepartment":4885,"ĠIndia":4886,"ĠIndian":4887,"ĠIndiana":4888,"Ġportable":4889,"Ġprevention":4890,"ĠAnimal":4891,"Ġhomebuilding":4892,"phones":4893,"Ġintegrity":4894,"ĠChain":4895,"ĠChannel":4896,"ĠMarriott":4897,"ĠMidland":4898,"Ġdistribute":4899,"ĠThings":4900,"Ġrod":4901,"Ġrot":4902,"Ġroom":4903,"Ġbooks":4904,"ĠResort":4905,"Ġmetropolitan":4906,"Ġapps":4907,"Ġ1977":4908,"Ġ1961":4909,"Ġ1965":4910,"ishings":4911,"Ġemissions":4912,"Ġdrivers":4913,"Ġmonet":4914,"Ġattract":4915,"ordin":4916,"Ġexpand":4917,"ĠAdd":4918,"ĠArk":4919,"ĠDiscovery":4920,"ĠElectrical":4921,"Ġhyper":4922,"Ġgovernmental":4923,"Ġintends":4924,"Ġdiabetes":4925,"ĠExpl":4926,"ĠExpress":4927,"Ġjet":4928,"income":4929,"ĠPrin":4930,"Ġconnects":4931,"Ġ1957":4932,"Ġemployers":4933,"ĠSuper":4934,"Ġcells":4935,"Ġoverhead":4936,"ĠEdison":4937,"Ġlicensed":4938,"Ġinstrumentation":4939,"ropbox":4940,"Ġfilters":4941,"ength":4942,"Ġgroups":4943,"ĠGreater":4944,"ĠOrigin":4945,"ĠBlue":4946,"Ġlivestock":4947,"Ġpolymer":4948,"ĠEngineering":4949,"ĠApple":4950,"ĠSmart":4951,"azard":4952,"Ġdough":4953,"Ġrecruit":4954,"cycles":4955,"Ġdetect":4956,"Ġpackage":4957,"Ġprotective":4958,"Ġcategory":4959,"Commerce":4960,"Ġcyber":4961,"Ġcaters":4962,"Ġpaint":4963,"Ġhydrogen":4964,"Ġfloor":4965,"Ġflooring":4966,"ĠNorthern":4967,"Ġnutritional":4968,"Ġ2020":4969,"Ġsynd":4970,"Ġseniors":4971,"Ġvolunt":4972,"Ġclosed":4973,"consumer":4974,"Ġtenant":4975,"Ġtenants":4976,"Ġsealing":4977,"ĠCleveland":4978,"Ġcomplete":4979,"Ġcompletion":4980,"Ġphysicians":4981,"Ġpartner":4982,"Ġmove":4983,"ĠCruise":4984,"ĠRedwood":4985,"Ġbehavior":4986,"ĠAccessories":4987,"Ġderived":4988,"Ġtubing":4989,"Ġaffluent":4990,"Ġemerging":4991,"Ġworkflow":4992,"Ġworkflows":4993,"Ġcollaboration":4994,"ĠSamuel":4995,"ĠAlexander":4996,"Ġshared":4997,"ĠFreight":4998,"Ġroyalty":4999,"Ġrelationship":5000,"Ġlubricants":5001,"otherap":5002,"Ġships":5003,"Ġtanks":5004,"Ġfacilitate":5005,"Ġimplant":5006,"Ġpolicies":5007,"Ġdispensing":5008,"giene":5009,"ĠTelevision":5010,"ĠRelated":5011,"ĠRestaurant":5012,"Ġorthop":5013,"Ġliquefied":5014,"ĠInstruments":5015,"Ġmemory":5016,"ĠRyan":5017,"ĠJacksonville":5018,"alysts":5019,"Ġchemistry":5020,"Ġmessaging":5021,"Ġseparate":5022,"ĠWyoming":5023,"ĠJonathan":5024,"Ġsponsors":5025,"Ġchicken":5026,"ĠPatrick":5027,"Ġecosystem":5028,"ĠWindows":5029,"ĠAnnuities":5030,"Ġpharmacies":5031,"Ġspray":5032,"Ġseamless":5033,"Ġdesktop":5034,"respond":5035,"Ġessential":5036,"ĠNashville":5037,"ĠKorea":5038,"Ġvoluntary":5039,"00":5040,"AS":5041,"BT":5042,"CA":5043,"Cr":5044,"Center":5045,"EIT":5046,"Fr":5047,"National":5048,"North":5049,"PO":5050,"PU":5051,"Sp":5052,"bons":5053,"bury":5054,"ced":5055,"cip":5056,"ders":5057,"ft":5058,"hire":5059,"hood":5060,"lation":5061,"lake":5062,"mn":5063,"my":5064,"mat":5065,"nel":5066,"ster":5067,"sure":5068,"tand":5069,"tal":5070,"uk":5071,"uing":5072,"ually":5073,"vid":5074,"war":5075,"Ġes":5076,"anit":5077,"anine":5078,"iner":5079,"ere":5080,"eno":5081,"oney":5082,"Ġsulf":5083,"Ġsourcing":5084,"Ġsanit":5085,"Ġticket":5086,"atial":5087,"atch":5088,"Ġinsur":5089,"alph":5090,"alach":5091,"Ġcab":5092,"Ġcorn":5093,"Ġceil":5094,"Ġcalled":5095,"roit":5096,"icks":5097,"orial":5098,"Ġpool":5099,"Ġfle":5100,"ĠTire":5101,"ĠTechnical":5102,"ĠTuls":5103,"ĠTampa":5104,"aste":5105,"itis":5106,"Ġthey":5107,"olef":5108,"Ġmy":5109,"Ġmine":5110,"Ġmax":5111,"Ġprof":5112,"rea":5113,"rec":5114,"rel":5115,"Ġwaf":5116,"Ġwriting":5117,"Ġwhere":5118,"Ġbot":5119,"Ġbasic":5120,"Ġcomm":5121,"Ġdat":5122,"Ġdog":5123,"Ġdig":5124,"Ġdivid":5125,"Ġdining":5126,"Ġduring":5127,"Ġdaily":5128,"ĠCell":5129,"ĠClear":5130,"ĠSub":5131,"ĠSirius":5132,"ilar":5133,"etal":5134,"iding":5135,"idney":5136,"Ġheat":5137,"ĠMS":5138,"ĠMer":5139,"ĠMus":5140,"ĠMate":5141,"ĠMobility":5142,"ĠMGM":5143,"ĠAer":5144,"ĠAud":5145,"Ġthose":5146,"Ġthese":5147,"Ġencomp":5148,"tron":5149,"truckload":5150,"lewood":5151,"Ġrein":5152,"Ġrecept":5153,"ĠPan":5154,"ĠPat":5155,"ĠPol":5156,"ĠPars":5157,"Ġconver":5158,"Ġconnection":5159,"Ġgath":5160,"eston":5161,"ĠBus":5162,"ĠBut":5163,"ĠBest":5164,"ĠBill":5165,"ĠBru":5166,"ĠBarn":5167,"stant":5168,"store":5169,"ĠRun":5170,"ĠRem":5171,"ĠRale":5172,"ĠRisk":5173,"ĠRuss":5174,"ĠEar":5175,"ĠEver":5176,"ĠEll":5177,"ĠNord":5178,"Ġdep":5179,"Ġhist":5180,"Ġnit":5181,"ĠFamily":5182,"ĠFactory":5183,"ĠFedEx":5184,"Ġey":5185,"ĠDes":5186,"ĠDun":5187,"ĠDomin":5188,"ĠDropbox":5189,"ĠHall":5190,"ĠHouse":5191,"ĠHousing":5192,"Ġlives":5193,"ĠOR":5194,"ĠGu":5195,"ĠGen":5196,"ĠGar":5197,"ĠGreg":5198,"acob":5199,"acter":5200,"opy":5201,"ĠWare":5202,"ĠLee":5203,"ĠLaw":5204,"ĠLincoln":5205,"Ġoffered":5206,"immune":5207,"Ġprovided":5208,"osh":5209,"Ġdiscrete":5210,"Ġmarketed":5211,"Ġmarketplaces":5212,"apor":5213,"Ġdeveloped":5214,"ayer":5215,"alleng":5216,"allurgical":5217,"Ġplates":5218,"portable":5219,"Ġexternal":5220,"Ġexclusive":5221,"Ġadjust":5222,"Ġwithout":5223,"ainage":5224,"ĠCompos":5225,"grade":5226,"ĠStore":5227,"ĠStores":5228,"Ġgastro":5229,"ĠKS":5230,"ĠKle":5231,"ĠVent":5232,"ĠViv":5233,"ancy":5234,"itioning":5235,"plus":5236,"ĠRec":5237,"Ġuses":5238,"Ġretailer":5239,"Ġstoring":5240,"Ġprocessed":5241,"Ġautonom":5242,"ĠCost":5243,"ĠCohen":5244,"Ġchrom":5245,"Ġleisure":5246,"cured":5247,"curity":5248,"ificant":5249,"ront":5250,"Ġgenerally":5251,"Ġsupplier":5252,"Ġdelivered":5253,"Ġinterface":5254,"Ġinterconnect":5255,"Ġ184":5256,"Ġunse":5257,"Ġunique":5258,"Ġallocated":5259,"edited":5260,"phy":5261,"Ġsubsystems":5262,"Ġrefer":5263,"Ġspinal":5264,"Ġspaces":5265,"Ġproducer":5266,"Ġmetab":5267,"Ġ1973":5268,"Ġscale":5269,"Ġsched":5270,"Ġ1960":5271,"Ġ1963":5272,"Ġembedded":5273,"Ġdress":5274,"Ġcolle":5275,"Ġattribut":5276,"Ġconsumable":5277,"ebo":5278,"ĠAlan":5279,"ĠArg":5280,"ĠCompan":5281,"Ġintelligent":5282,"creation":5283,"Ġmodels":5284,"ĠExchange":5285,"Ġcomprised":5286,"ĠScience":5287,"Ġceramic":5288,"ĠAllstate":5289,"inders":5290,"Ġoriginates":5291,"Ġoriginated":5292,"Ġoriginating":5293,"Ġfulfill":5294,"Ġ36":5295,"ĠPrinc":5296,"onds":5297,"ĠBrad":5298,"Ġmeals":5299,"Ġmezz":5300,"Ġcombat":5301,"Ġ1923":5302,"Ġ1929":5303,"Ġ1947":5304,"Ġ1902":5305,"Ġ1903":5306,"Ġfilter":5307,"Ġ1939":5308,"ĠRegional":5309,"Ġenvironment":5310,"ĠMinerals":5311,"Ġoptimized":5312,"ĠFluid":5313,"Ġfunctional":5314,"ĠMont":5315,"Ġlandsc":5316,"Ġpolymers":5317,"ĠAppalach":5318,"ĠAirlines":5319,"Ġliquidity":5320,"Ġmerchandising":5321,"Ġphones":5322,"ĠLouisville":5323,"ĠLouisiana":5324,"Ġinnovation":5325,"ĠHarris":5326,"thetic":5327,"Ġsensor":5328,"ollar":5329,"ĠHospital":5330,"ĠHospice":5331,"Ġshoes":5332,"centric":5333,"Ġimmunotherap":5334,"Ġcorrugated":5335,"Ġaudit":5336,"Ġtargeting":5337,"ĠAgency":5338,"Ġradi":5339,"Ġstudent":5340,"ĠEnterprises":5341,"Ġautoimmune":5342,"Ġsynthetic":5343,"Ġacceler":5344,"metics":5345,"Ġvoltage":5346,"Ġbiologic":5347,"Ġpotential":5348,"Ġproteins":5349,"electric":5350,"Ġutilizing":5351,"Ġsupplements":5352,"Ġexecutive":5353,"Ġbatteries":5354,"Ġfibro":5355,"Ġmembers":5356,"ĠCruises":5357,"Ġreservoir":5358,"Ġproced":5359,"Ġbehalf":5360,"Ġresponse":5361,"Ġresponsible":5362,"Ġparks":5363,"Ġparking":5364,"Ġdivisions":5365,"ĠBlock":5366,"Ġemergency":5367,"Ġaggregates":5368,"Ġpropane":5369,"ĠMiller":5370,"ĠCounty":5371,"affic":5372,"Ġpanels":5373,"Ġbalance":5374,"ĠSpecialties":5375,"ĠIntermodal":5376,"ĠBurlington":5377,"Ġlenders":5378,"Ġtelephone":5379,"ĠEmployee":5380,"Ġcosmetics":5381,"Ġfurnishings":5382,"Ġbearings":5383,"Ġvisual":5384,"ĠKeith":5385,"ĠEnglewood":5386,"ĠWireless":5387,"ĠKentucky":5388,"Ġunderstand":5389,"Ġcondensate":5390,"Ġamplifiers":5391,"Ġredevelopment":5392,"ĠHawaii":5393,"Ġsupplemental":5394,"Ġcertificates":5395,"Ġveterinary":5396,"ĠMcLean":5397,"ademic":5398,"Ġremote":5399,"ĠDetroit":5400,"Ġlimited":5401,"ĠWayne":5402,"ĠAntonio":5403,"ĠAcquisition":5404,"Ġfiduciary":5405,"ĠMerchant":5406,"lefins":5407,"Ġconversion":5408,"ĠGermany":5409,"ĠLittle":5410,"ĠExploration":5411,"Ġorthopedic":5412,"respondent":5413,"ĠTulsa":5414,"ĠMateo":5415,"Ġencompasses":5416,"ĠRaleigh":5417,"Ġunsecured":5418,"Ġschedul":5419,"Ġmezzanine":5420,"AT":5421,"An":5422,"Atl":5423,"Bio":5424,"CE":5425,"CI":5426,"Cal":5427,"DC":5428,"EX":5429,"Equ":5430,"Gr":5431,"IP":5432,"MI":5433,"PL":5434,"Pr":5435,"Par":5436,"Pay":5437,"Point":5438,"Reg":5439,"SE":5440,"ST":5441,"Set":5442,"Service":5443,"TC":5444,"Tel":5445,"app":5446,"bia":5447,"built":5448,"ces":5449,"cel":5450,"duty":5451,"ecurity":5452,"fers":5453,"figer":5454,"ged":5455,"game":5456,"hal":5457,"high":5458,"ike":5459,"ipping":5460,"lan":5461,"lig":5462,"lie":5463,"me":5464,"nity":5465,"oco":5466,"por":5467,"pur":5468,"pts":5469,"prem":5470,"rence":5471,"rix":5472,"sed":5473,"tz":5474,"technology":5475,"upl":5476,"ving":5477,"vale":5478,"wall":5479,"Ġ$":5480,"onic":5481,"heastern":5482,"Ġsport":5483,"Ġsizes":5484,"Ġsize":5485,"Ġspec":5486,"Ġsleep":5487,"Ġtech":5488,"Ġtum":5489,"Ġturb":5490,"Ġteller":5491,"aluation":5492,"Ġcig":5493,"Ġcannabis":5494,"rog":5495,"icated":5496,"orne":5497,"orizon":5498,"ares":5499,"aron":5500,"ared":5501,"arms":5502,"Ġpick":5503,"Ġox":5504,"Ġocean":5505,"inger":5506,"iscell":5507,"ĠTV":5508,"itco":5509,"oling":5510,"Ġmat":5511,"Ġmag":5512,"Ġmiss":5513,"Ġmiscell":5514,"ĠIV":5515,"Ġseaf":5516,"read":5517,"Ġworth":5518,"Ġwarr":5519,"Ġbed":5520,"Ġbio":5521,"Ġbath":5522,"Ġbuses":5523,"Ġbench":5524,"Ġbaby":5525,"Ġdess":5526,"Ġaims":5527,"ĠCer":5528,"user":5529,"ellect":5530,"ĠSk":5531,"ĠSens":5532,"ĠSho":5533,"ĠSnap":5534,"ĠSVB":5535,"ette":5536,"adian":5537,"adjust":5538,"qua":5539,"erve":5540,"lox":5541,"ĠMen":5542,"ĠMat":5543,"ĠMeas":5544,"ĠMission":5545,"ĠARO":5546,"Ġthan":5547,"Ġthis":5548,"level":5549,"changes":5550,"Ġreb":5551,"ĠPop":5552,"ĠPow":5553,"Ġtox":5554,"Ġtoget":5555,"Ġgains":5556,"ĠBer":5557,"ĠBir":5558,"ĠBuy":5559,"irl":5560,"irts":5561,"ĠRV":5562,"ĠRub":5563,"ĠRalph":5564,"ĠEst":5565,"ĠNort":5566,"ĠIncome":5567,"Ġforce":5568,"Ġnumber":5569,"ĠFin":5570,"ĠFabric":5571,"Ġeach":5572,"Ġegg":5573,"Ġonshore":5574,"ĠDer":5575,"ĠDur":5576,"Ġraw":5577,"Ġranging":5578,"Ġrapid":5579,"Ġlaw":5580,"ĠOral":5581,"ĠGap":5582,"ĠGary":5583,"ĠGrand":5584,"emark":5585,"action":5586,"actSet":5587,"opher":5588,"ogle":5589,"ustion":5590,"Ġvit":5591,"Ġvascular":5592,"Ġvapor":5593,"oster":5594,"odd":5595,"ĠJacob":5596,"Ġdiscoun":5597,"iff":5598,"otts":5599,"ume":5600,"Ġacid":5601,"Ġindoor":5602,"ayton":5603,"izer":5604,"izza":5605,"Ġlodging":5606,"tructuring":5607,"ĠProte":5608,"ĠProgram":5609,"Ġtransit":5610,"Ġresins":5611,"Ġexter":5612,"Ġadult":5613,"Ġelements":5614,"Ġ(âĢľ":5615,"ighbor":5616,"ĠKY":5617,"ĠVinc":5618,"ĠReinsurance":5619,"ĠRecreational":5620,"Ġcred":5621,"aven":5622,"Ġclubs":5623,"eneration":5624,"enerative":5625,"Ġchalleng":5626,"issipp":5627,"Ġleverages":5628,"antage":5629,"Ġowner":5630,"oca":5631,"Ġsellers":5632,"rupt":5633,"Ġgenerate":5634,"oving":5635,"osph":5636,"Ġsuppliers":5637,"eyer":5638,"ĠFrance":5639,"ouses":5640,"Ġinteractive":5641,"Ġpowered":5642,"Ġengineers":5643,"Ġclosures":5644,"Ġsmoke":5645,"iano":5646,"ĠMarcus":5647,"Ġlifecycle":5648,"Ġshop":5649,"Ġshale":5650,"Ġshipping":5651,"Ġregistered":5652,"Ġspanning":5653,"airs":5654,"Ġtreats":5655,"Ġinsulin":5656,"comm":5657,"Ġ1964":5658,"tenant":5659,"Ġdrainage":5660,"Ġworking":5661,"Ġcold":5662,"Ġmonth":5663,"Ġpatent":5664,"ĠAlaska":5665,"Ġexplo":5666,"Ġpurification":5667,"ĠDistrict":5668,"Ġprogramming":5669,"Ġintellect":5670,"Ġvaluation":5671,"pared":5672,"Ġarc":5673,"ĠPlano":5674,"ĠClinical":5675,"ĠExp":5676,"ynn":5677,"ĠAftermarket":5678,"Ġkitchen":5679,"ĠBrent":5680,"Ġcondomin":5681,"Ġhospital":5682,"Ġ1956":5683,"Ġ1958":5684,"Ġpharmaceuticals":5685,"Ġemployer":5686,"Ġcombustion":5687,"ylinders":5688,"Ġamen":5689,"Ġamong":5690,"Ġammon":5691,"Ġambulatory":5692,"Ġnotebo":5693,"Ġ1920":5694,"Ġ1928":5695,"Ġgrain":5696,"ĠCrude":5697,"ĠCritical":5698,"ĠPhot":5699,"Ġrepresent":5700,"Ġsurf":5701,"Ġcleaners":5702,"Ġupgrad":5703,"Ġcancers":5704,"Ġweap":5705,"Ġcomposite":5706,"ĠMonica":5707,"Ġdealerships":5708,"Ġmeasure":5709,"Ġreduc":5710,"ĠAirport":5711,"Ġvacuum":5712,"Ġ1897":5713,"ĠRefined":5714,"ĠAnderson":5715,"ĠMetals":5716,"ĠLeon":5717,"Ġpackages":5718,"Ġsignificant":5719,"Ġvirus":5720,"Ġfranchisees":5721,"logy":5722,"Ġcandidate":5723,"ĠWalter":5724,"ĠWalmart":5725,"Ġassisted":5726,"Ġperipher":5727,"Ġstudents":5728,"ĠWorldwide":5729,"residential":5730,"Ġyear":5731,"Ġskilled":5732,"Ġbuying":5733,"ĠPortland":5734,"oxy":5735,"Ġsimilar":5736,"Ġrequired":5737,"Ġwindows":5738,"Ġbiological":5739,"Ġbiologics":5740,"Ġcentralized":5741,"Ġpotato":5742,"ĠPeru":5743,"ĠWoodlands":5744,"Ġefficient":5745,"Ġpassengers":5746,"ĠPaperboard":5747,"Ġdisposal":5748,"ĠSunny":5749,"ĠPetro":5750,"ĠReston":5751,"Ġterminaling":5752,"Ġcompound":5753,"Ġreserves":5754,"ĠLabor":5755,"ĠTreasury":5756,"ĠMacao":5757,"ĠBarb":5758,"ĠForest":5759,"Ġdefined":5760,"Ġtracking":5761,"Ġfragrances":5762,"Ġmillion":5763,"ĠSBU":5764,"ĠSaaS":5765,"Ġconcentrates":5766,"ĠLocker":5767,"Ġcontinu":5768,"Ġroyalties":5769,"Ġfinished":5770,"ĠAdvisory":5771,"ĠOwned":5772,"Ġtransmits":5773,"Ġpetrochemicals":5774,"Ġbakery":5775,"ĠMorris":5776,"ĠInvestors":5777,"Ġrobotics":5778,"oints":5779,"oultry":5780,"Ġturf":5781,"urchase":5782,"ĠHandling":5783,"ĠHolly":5784,"Ġelectromagnetic":5785,"ĠBroadcast":5786,"Ġhosting":5787,"Ġleveraged":5788,"ĠChristopher":5789,"controlled":5790,"Ġdiagnosis":5791,"Ġwarehousing":5792,"Ġantibody":5793,"bersecurity":5794,"investment":5795,"Ġinitial":5796,"Ġbridge":5797,"ĠSubscription":5798,"ĠRentals":5799,"ĠRoger":5800,"ĠNichol":5801,"Ġdiscovering":5802,"Ġplacement":5803,"ĠStanley":5804,"ĠExecutive":5805,"Ġobjective":5806,"Black":5807,"ĠHoward":5808,"Ġvessels":5809,"Ġfeatures":5810,"Ġimplementation":5811,"Ġculture":5812,"ĠMatthew":5813,"ĠHilfiger":5814,"azardous":5815,"Ġbehavioral":5816,"Ġmaxim":5817,"Ġdigit":5818,"Ġgathers":5819,"Ġautonomous":5820,"ĠCompanies":5821,"ĠAppalachian":5822,"porary":5823,"Ġturbines":5824,"itcoin":5825,"Ġmiscellaneous":5826,"Ġseafood":5827,"Ġbenchmark":5828,"adjusted":5829,"ĠMeasurement":5830,"Ġtogether":5831,"issippi":5832,"Ġintellectual":5833,"Ġcondominium":5834,"01":5835,"AD":5836,"AI":5837,"Ax":5838,"Air":5839,"Bo":5840,"CC":5841,"Ch":5842,"Cl":5843,"Col":5844,"EL":5845,"Europe":5846,"Fi":5847,"Family":5848,"Gen":5849,"Group":5850,"Global":5851,"IV":5852,"Or":5853,"OEM":5854,"Ph":5855,"RS":5856,"SI":5857,"Sc":5858,"Sh":5859,"Sun":5860,"Str":5861,"TV":5862,"US":5863,"Up":5864,"ait":5865,"aud":5866,"aum":5867,"che":5868,"cut":5869,"clo":5870,"dent":5871,"dis":5872,"deg":5873,"eed":5874,"eing":5875,"ful":5876,"hand":5877,"imer":5878,"iot":5879,"mable":5880,"py":5881,"si":5882,"side":5883,"tech":5884,"tive":5885,"uart":5886,"view":5887,"wan":5888,"ysis":5889,"zy":5890,"Ġath":5891,"ani":5892,"anty":5893,"anitor":5894,"ini":5895,"erland":5896,"ester":5897,"enz":5898,"Ġsl":5899,"Ġser":5900,"Ġtim":5901,"Ġtires":5902,"atography":5903,"Ġinternal":5904,"Ġcater":5905,"Ġcart":5906,"Ġcamp":5907,"Ġcases":5908,"entina":5909,"ros":5910,"roy":5911,"iche":5912,"icate":5913,"orms":5914,"Ġpork":5915,"Ġperson":5916,"Ġpoultry":5917,"ione":5918,"Ġfinan":5919,"Ġfashion":5920,"iscons":5921,"ĠTe":5922,"ĠTank":5923,"ĠTob":5924,"ĠTodd":5925,"asy":5926,"asma":5927,"omot":5928,"omfield":5929,"itu":5930,"itation":5931,"Ġmerg":5932,"Ġmail":5933,"Ġmaster":5934,"ĠICs":5935,"ĠIoT":5936,"Ġseat":5937,"Ġsets":5938,"Ġprofit":5939,"rect":5940,"rell":5941,"Ġbott":5942,"Ġbaking":5943,"Ġbonds":5944,"agering":5945,"Ġderm":5946,"Ġdoor":5947,"Ġauction":5948,"ĠCD":5949,"ĠCN":5950,"ĠCV":5951,"ĠCra":5952,"ĠCamp":5953,"ĠCopper":5954,"uset":5955,"usts":5956,"eld":5957,"elp":5958,"eland":5959,"eling":5960,"elting":5961,"unk":5962,"unting":5963,"uts":5964,"ĠSol":5965,"ĠSkin":5966,"ĠSelf":5967,"etry":5968,"ades":5969,"aded":5970,"aditional":5971,"que":5972,"ĠMC":5973,"ĠMos":5974,"ĠMagn":5975,"ĠMills":5976,"undry":5977,"ĠAt":5978,"ĠAvery":5979,"ialysis":5980,"ĠInn":5981,"Ġensure":5982,"trates":5983,"lev":5984,"Ġoperator":5985,"ĠItal":5986,"channel":5987,"cepts":5988,"Ġreports":5989,"ĠPublic":5990,"uder":5991,"ivery":5992,"Ġconvey":5993,"Ġgate":5994,"Ġgame":5995,"Ġgold":5996,"Ġgraphics":5997,"esthe":5998,"ĠBon":5999,"ĠBor":6000,"ĠBern":6001,"ĠRod":6002,"ĠRoll":6003,"ĠREIT":6004,"Ġassurance":6005,"ĠNav":6006,"Ġdepartments":6007,"ĠFil":6008,"ĠFlo":6009,"ĠFree":6010,"ĠFarm":6011,"ĠFalls":6012,"Ġeastern":6013,"ĠDul":6014,"ĠDrug":6015,"ĠHay":6016,"ĠHew":6017,"ĠHard":6018,"ĠHunt":6019,"Ġris":6020,"Ġlamin":6021,"Ġluxury":6022,"ĠOm":6023,"ĠOne":6024,"ĠOreg":6025,"ĠOpen":6026,"ĠGord":6027,"Ġconsol":6028,"acute":6029,"ĠWiscons":6030,"igur":6031,"ĠLine":6032,"ĠLow":6033,"ĠLond":6034,"ĠLiqu":6035,"ĠLNG":6036,"Ġtrial":6037,"Ġtrim":6038,"Ġtraffic":6039,"Ġtrusts":6040,"ipally":6041,"ector":6042,"Ġsugar":6043,"oding":6044,"Ġdistr":6045,"Ġdistin":6046,"ifications":6047,"ureth":6048,"ibers":6049,"ibility":6050,"aps":6051,"Ġinvasive":6052,"Ġacademic":6053,"ufactured":6054,"aylor":6055,"alling":6056,"Ġann":6057,"rick":6058,"Ġpredic":6059,"Ġtransfers":6060,"Ġresist":6061,"ucle":6062,"Ġextr":6063,"Ġexcluding":6064,"ioxide":6065,"Ġeliminations":6066,"ĠStuart":6067,"ĠKen":6068,"ĠKitchen":6069,"pra":6070,"Ġelectr":6071,"Ġhealthy":6072,"ĠVen":6073,"ĠVideo":6074,"ĠRepair":6075,"Ġcry":6076,"avis":6077,"astate":6078,"Ġretailing":6079,"Ġclub":6080,"Ġestabl":6081,"earning":6082,"ĠCooper":6083,"Ġcharter":6084,"Ġchips":6085,"Ġchocol":6086,"ĠNewark":6087,"obe":6088,"afts":6089,"encing":6090,"ĠTruck":6091,"ĠTruckload":6092,"Ġoilfield":6093,"Ġgeneric":6094,"Ġgenerators":6095,"oven":6096,"ospatial":6097,"ĠSeab":6098,"ĠFresh":6099,"Ġagent":6100,"Ġinterstate":6101,"Ġ183":6102,"Ġimage":6103,"anners":6104,"Ġunified":6105,"Ġunmet":6106,"ĠAnth":6107,"phis":6108,"ĠChris":6109,"Ġframing":6110,"iang":6111,"Ġairline":6112,"Ġairlines":6113,"Ġsubsea":6114,"achuset":6115,"Ġinsect":6116,"ĠThird":6117,"ĠThermal":6118,"Ġboard":6119,"Ġneighbor":6120,"ĠResource":6121,"comb":6122,"ĠCanadian":6123,"counter":6124,"Ġserver":6125,"Ġworks":6126,"Ġworkplace":6127,"Ġtrademark":6128,"ups":6129,"ebr":6130,"ĠAlto":6131,"ĠAlbert":6132,"Ġdeposition":6133,"Ġpurs":6134,"ĠArt":6135,"ĠPlan":6136,"managed":6137,"ĠScientific":6138,"ĠScotts":6139,"Ġstrip":6140,"Ġstrength":6141,"Ġknow":6142,"inder":6143,"Ġdepository":6144,"Ġjanitor":6145,"Ġcontractor":6146,"Ġcontracting":6147,"ĠWestlake":6148,"Ġsteam":6149,"Ġmeal":6150,"Ġemployment":6151,"segment":6152,"ĠBrook":6153,"Ġamoun":6154,"ĠChicken":6155,"Ġgrills":6156,"Ins":6157,"lett":6158,"letic":6159,"arner":6160,"unction":6161,"Ġcompute":6162,"Ġ1945":6163,"aux":6164,"Ġcreation":6165,"Ġcreates":6166,"Ġcreative":6167,"ĠPhill":6168,"Ġ1937":6169,"ĠAssoc":6170,"scaler":6171,"ĠBoeing":6172,"Ġchannel":6173,"Ġupstream":6174,"office":6175,"Ġ1918":6176,"Ġcollections":6177,"Ġdealer":6178,"ĠCalvin":6179,"Ġquick":6180,"Ġalternatives":6181,"Ġ1882":6182,"Ġ1883":6183,"Ġ1886":6184,"Ġtargets":6185,"ĠParker":6186,"ĠRoyal":6187,"Ġcharacter":6188,"ĠMetal":6189,"ĠLeisure":6190,"Ġtype":6191,"ĠInteractive":6192,"Ġimmune":6193,"Ġshelf":6194,"Ġcorrespondent":6195,"Ġcorrect":6196,"ĠInsight":6197,"Ġenhanced":6198,"Ġverification":6199,"Ġcollateral":6200,"Ġperish":6201,"ĠNorwalk":6202,"Ġnutrients":6203,"ĠOptum":6204,"ĠGrill":6205,"ĠPhilip":6206,"Ġfunding":6207,"Ġtransforming":6208,"Star":6209,"Ġsimpl":6210,"ediates":6211,"Ġmotorcycles":6212,"Ġsustainability":6213,"Ġschool":6214,"ĠDelivery":6215,"Ġclosing":6216,"Ġlower":6217,"ĠMotion":6218,"Ġtowers":6219,"Ġdisposable":6220,"Ġexecution":6221,"borne":6222,"Ġpartnership":6223,"ĠMississippi":6224,"ĠLabs":6225,"Ġprincipally":6226,"ĠValley":6227,"Ġassembly":6228,"ettes":6229,"ĠRoblox":6230,"Ġmodeling":6231,"Ġlasers":6232,"ermanent":6233,"Ġsharing":6234,"Ġtextile":6235,"ĠTempe":6236,"ĠPalo":6237,"ĠLocal":6238,"Ġauthent":6239,"ĠAPAC":6240,"ĠActive":6241,"Ġcooking":6242,"ĠAdvisors":6243,"othy":6244,"Ġsilicon":6245,"ĠSocial":6246,"ĠAmeren":6247,"ĠIntermediates":6248,"Ġgears":6249,"Ġlesser":6250,"ĠOwnership":6251,"ĠFreder":6252,"Ġboxes":6253,"Ġpulmon":6254,"ĠTermin":6255,"Ġremov":6256,"Ġrigid":6257,"ĠGoogle":6258,"Ġlosses":6259,"Ġfractionation":6260,"Ġinhibitor":6261,"ĠTurkey":6262,"ĠTimothy":6263,"Ġeconomic":6264,"ĠRefrigeration":6265,"products":6266,"Ġidentifying":6267,"Ġpublishes":6268,"Ġultra":6269,"Ġediting":6270,"ĠLicensing":6271,"Ġprecious":6272,"Ġflavors":6273,"Ġinfectious":6274,"ĠSquare":6275,"Ġextraction":6276,"Ġuniforms":6277,"Ġreflects":6278,"âĢĿ)":6279,"Ġreceivables":6280,"Consumer":6281,"Ġpsych":6282,"ĠTommy":6283,"performance":6284,"ĠMemphis":6285,"ĠMassachuset":6286,"ĠIndianapolis":6287,"ĠAdditives":6288,"Ġrecruitment":6289,"Ġesc":6290,"Ġfleets":6291,"reciation":6292,"Ġwafer":6293,"Ġdividends":6294,"Ġreceptor":6295,"ĠWarehouse":6296,"ĠLawrence":6297,"ĠComposites":6298,"ĠKlein":6299,"ĠVivint":6300,"ĠCosta":6301,"ĠArgentina":6302,"Ġfulfillment":6303,"Ġscheduled":6304,"Atlantic":6305,"Ġtumors":6306,"Ġcigar":6307,"Ġwarranty":6308,"ĠPowder":6309,"Ġdiscount":6310,"Ġexterior":6311,"Ġmonthly":6312,"Ġamenities":6313,"Ġweapons":6314,"ĠSunnyvale":6315,"ĠHollywood":6316,"Ġathletic":6317,"Ġdermat":6318,"ĠOregon":6319,"ĠGordon":6320,"ĠWisconsin":6321,"ĠLondon":6322,"Ġdistinct":6323,"ĠScottsdale":6324,"Ġjanitorial":6325,"Ġamounts":6326,"ĠMassachusetts":6327,"Ag":6328,"Aut":6329,"AME":6330,"BM":6331,"BU":6332,"Br":6333,"Bank":6334,"DG":6335,"DS":6336,"Digital":6337,"EN":6338,"EV":6339,"FT":6340,"IM":6341,"Jack":6342,"Life":6343,"MA":6344,"Mer":6345,"Max":6346,"ON":6347,"OP":6348,"RF":6349,"RP":6350,"Ro":6351,"SP":6352,"South":6353,"TR":6354,"Tex":6355,"We":6356,"aim":6357,"aver":6358,"auc":6359,"ault":6360,"bl":6361,"cium":6362,"cules":6363,"dy":6364,"des":6365,"don":6366,"dem":6367,"dge":6368,"deal":6369,"eat":6370,"eks":6371,"fort":6372,"feld":6373,"gor":6374,"gest":6375,"han":6376,"iates":6377,"iatives":6378,"jet":6379,"jac":6380,"jamin":6381,"lers":6382,"light":6383,"lastic":6384,"lamm":6385,"mo":6386,"mile":6387,"mouth":6388,"metic":6389,"oD":6390,"oter":6391,"pre":6392,"pet":6393,"pson":6394,"point":6395,"ras":6396,"str":6397,"sale":6398,"soft":6399,"tle":6400,"uan":6401,"uch":6402,"uate":6403,"urom":6404,"uators":6405,"uora":6406,"val":6407,"xford":6408,"yours":6409,"Ġet":6410,"Ġuro":6411,"Ġice":6412,"inity":6413,"inine":6414,"erb":6415,"errit":6416,"eslie":6417,"onol":6418,"onics":6419,"Ġsy":6420,"Ġsus":6421,"Ġster":6422,"Ġstain":6423,"Ġscr":6424,"Ġsouth":6425,"Ġsource":6426,"Ġswe":6427,"Ġspeed":6428,"Ġtable":6429,"Ġtake":6430,"Ġinpatient":6431,"ali":6432,"alo":6433,"alified":6434,"Ġcase":6435,"enton":6436,"rot":6437,"rost":6438,"rown":6439,"icians":6440,"organ":6441,"edics":6442,"Ġpol":6443,"Ġpod":6444,"Ġpedi":6445,"Ġomn":6446,"Ġfactor":6447,"Ġfront":6448,"isal":6449,"isms":6450,"ĠTot":6451,"ĠTow":6452,"ĠTurn":6453,"asta":6454,"asia":6455,"asks":6456,"omy":6457,"ita":6458,"itage":6459,"itigation":6460,"Ġmay":6461,"ĠIA":6462,"ĠIM":6463,"ĠIre":6464,"ĠIow":6465,"ĠIda":6466,"Ġseparation":6467,"Ġseek":6468,"Ġseeks":6469,"ready":6470,"Ġwalls":6471,"Ġbone":6472,"ager":6473,"Ġdom":6474,"Ġdioxide":6475,"Ġaesthe":6476,"ĠCat":6477,"ĠCir":6478,"ĠCement":6479,"usions":6480,"eline":6481,"ationally":6482,"utics":6483,"Ġcompet":6484,"ĠSil":6485,"ĠSite":6486,"ĠSher":6487,"ĠSame":6488,"ĠSensing":6489,"ild":6490,"illo":6491,"eta":6492,"etate":6493,"etics":6494,"uries":6495,"quality":6496,"erver":6497,"Ġcompanion":6498,"idation":6499,"ĠMag":6500,"ĠMaterial":6501,"ĠMaur":6502,"ĠAD":6503,"ĠAMC":6504,"ĠInnov":6505,"Ġthin":6506,"Ġenvelop":6507,"trong":6508,"lease":6509,"chip":6510,"Ġrepos":6511,"Ġrecover":6512,"Ġremod":6513,"Ġreportable":6514,"Ġrecreation":6515,"ĠPum":6516,"ivetr":6517,"gage":6518,"Ġconvert":6519,"Ġconcept":6520,"Ġtotal":6521,"estig":6522,"estinal":6523,"ĠBD":6524,"ĠBall":6525,"ĠBased":6526,"ĠBey":6527,"ĠBurg":6528,"ĠBah":6529,"ĠBuff":6530,"ĠBoca":6531,"class":6532,"clinical":6533,"star":6534,"Ġmany":6535,"iral":6536,"irits":6537,"ĠRI":6538,"ĠRaton":6539,"ĠReno":6540,"ĠEvan":6541,"Ġasp":6542,"ĠNH":6543,"ĠNu":6544,"ĠNuclear":6545,"Ġdem":6546,"Ġdeter":6547,"Ġhos":6548,"Ġhaul":6549,"Ġnav":6550,"Ġnext":6551,"ĠFast":6552,"ĠFish":6553,"ĠFlex":6554,"ĠFitness":6555,"ĠFactSet":6556,"ĠFoster":6557,"ĠeCommerce":6558,"ĠDon":6559,"ĠDental":6560,"ĠDyn":6561,"ĠDollar":6562,"ĠHP":6563,"ĠHel":6564,"ĠHut":6565,"ĠHers":6566,"ĠHart":6567,"ĠHong":6568,"Ġra":6569,"Ġrents":6570,"Ġratings":6571,"Ġlast":6572,"ĠOlefins":6573,"ulu":6574,"ĠGib":6575,"ĠGood":6576,"ĠGeral":6577,"Ġconsolidated":6578,"acle":6579,"emnity":6580,"eminine":6581,"ope":6582,"oph":6583,"opic":6584,"ĠWine":6585,"ĠWolf":6586,"ĠWelding":6587,"ogn":6588,"ĠLam":6589,"ĠLif":6590,"ĠLakes":6591,"ĠLiberty":6592,"abama":6593,"imens":6594,"ustic":6595,"Ġsuff":6596,"Ġvan":6597,"osc":6598,"odon":6599,"odies":6600,"ĠJer":6601,"Ġdiscontin":6602,"ift":6603,"ifer":6604,"ologic":6605,"ologists":6606,"apore":6607,"verly":6608,"umes":6609,"umina":6610,"Ġindirect":6611,"ĠUK":6612,"elli":6613,"ystal":6614,"Ġstable":6615,"Ġstability":6616,"formatics":6617,"allic":6618,"Ġcommercializes":6619,"Ġplate":6620,"tructures":6621,"surg":6622,"Ġtransformation":6623,"Ġtranspar":6624,"ucker":6625,"illers":6626,"illance":6627,"Ġexport":6628,"Ġexcept":6629,"Ġexchanges":6630,"ignal":6631,"Ġadults":6632,"erglass":6633,"ĠCommod":6634,"gress":6635,"Ġelast":6636,"hart":6637,"ĠKim":6638,"ĠKap":6639,"ĠKong":6640,"artz":6641,"print":6642,"Ġcoating":6643,"ĠRecycl":6644,"ĠRehabilitation":6645,"ĠEnd":6646,"Ġfocusing":6647,"lying":6648,"ption":6649,"works":6650,"frame":6651,"oody":6652,"ĠCob":6653,"Ġchip":6654,"ĠNewport":6655,"curr":6656,"isted":6657,"istar":6658,"ronically":6659,"ailored":6660,"uilder":6661,"ĠDeal":6662,"ĠDevelop":6663,"Ġagile":6664,"Ġinterventional":6665,"Ġportion":6666,"ĠConsum":6667,"ĠConsolidated":6668,"anner":6669,"Ġpreferred":6670,"Ġprepared":6671,"Ġbeer":6672,"Ġunions":6673,"Ġuncon":6674,"Ġunbranded":6675,"Ġunmann":6676,"Ġallowing":6677,"Ġalign":6678,"Ġalloc":6679,"Ġalcohol":6680,"ĠAncillary":6681,"elson":6682,"Ġsecurit":6683,"Ġadvance":6684,"ĠMarsh":6685,"Ġsubstrates":6686,"eep":6687,"Ġshops":6688,"Ġregistration":6689,"Ġspine":6690,"Ġinsight":6691,"Ġroad":6692,"Ġrole":6693,"Ġroads":6694,"Ġboards":6695,"Ġnecess":6696,"Ġneurom":6697,"Ġcarry":6698,"Ġmetro":6699,"Ġappreciation":6700,"Ġservers":6701,"loyd":6702,"loys":6703,"Ġpersonalized":6704,"Ġdrives":6705,"ĠConvers":6706,"urgent":6707,"Ġtrades":6708,"prop":6709,"Ġhighways":6710,"order":6711,"ĠAlabama":6712,"ĠAlloys":6713,"Ġexpedited":6714,"ĠAdmin":6715,"ĠAdhes":6716,"ĠAdobe":6717,"intestinal":6718,"boro":6719,"Ġhygiene":6720,"ference":6721,"iversal":6722,"Ġresearchers":6723,"Ġtelem":6724,"ĠClimate":6725,"ĠExt":6726,"ĠExcess":6727,"Ġspecialties":6728,"Ġcomprising":6729,"Ġcereal":6730,"Ġkidney":6731,"ĠStein":6732,"veillance":6733,"Ġju":6734,"Ġsupplying":6735,"ĠZscaler":6736,"ĠDave":6737,"ĠGases":6738,"arget":6739,"Ġconnectors":6740,"ĠLoan":6741,"Ġneeded":6742,"ĠMexican":6743,"Ġexplores":6744,"herlands":6745,"Ġcombined":6746,"ĠNetworking":6747,"sement":6748,"Ġwireline":6749,"orning":6750,"Ġsemi":6751,"aha":6752,"ĠEquities":6753,"Ġ1924":6754,"Ġ1926":6755,"Ġ1927":6756,"Ġoverhaul":6757,"Ġgran":6758,"Ġimproved":6759,"Ġinstrument":6760,"Ġ1941":6761,"Ġ1944":6762,"erner":6763,"mstrong":6764,"Ġcheese":6765,"Ġsurveillance":6766,"Ġsubordin":6767,"ĠRegion":6768,"ĠAssets":6769,"ĠGreat":6770,"loads":6771,"ĠFlav":6772,"ĠOrth":6773,"Ġupper":6774,"ĠAtlantic":6775,"oung":6776,"ount":6777,"Ġweather":6778,"Ġ1917":6779,"boards":6780,"ĠClosed":6781,"ĠMonro":6782,"Ġpapers":6783,"Ġmeasuring":6784,"Ġreduction":6785,"ĠSchw":6786,"ĠApparel":6787,"Ġbuilders":6788,"ĠEliminations":6789,"azines":6790,"Ġinfusion":6791,"Ġinflamm":6792,"Ġthermop":6793,"Ġgenes":6794,"Ġformulations":6795,"Ġtelevisions":6796,"Ġminim":6797,"Ġminerals":6798,"Ġdetached":6799,"aiwan":6800,"Ġdiff":6801,"ĠNetherlands":6802,"patitis":6803,"atterson":6804,"ĠIntervention":6805,"ĠOffshore":6806,"Ġsmartphones":6807,"Ġcollision":6808,"Ġcybersecurity":6809,"Ġrelates":6810,"Ġpaints":6811,"Ġlaboratories":6812,"Ġmuscle":6813,"ĠSempra":6814,"Ġ2022":6815,"Ġyield":6816,"ittings":6817,"Ġconducted":6818,"Ġchild":6819,"ĠXM":6820,"Ġsimulation":6821,"Ġarchitecture":6822,"Energy":6823,"bursement":6824,"mingham":6825,"Ġmajority":6826,"Ġprescription":6827,"powered":6828,"ĠPerry":6829,"ĠWellness":6830,"Ġutilizes":6831,"ĠHyatt":6832,"Ġappliance":6833,"ippany":6834,"Ġsalads":6835,"Ġprices":6836,"Ġmoving":6837,"ĠLease":6838,"Ġfibers":6839,"Ġfiberglass":6840,"ĠPreferred":6841,"Ġextent":6842,"ĠGreenwich":6843,"TEC":6844,"Ġmixes":6845,"Ġbetter":6846,"Ġmanager":6847,"Ġderivatives":6848,"Ġperforming":6849,"ĠRosen":6850,"ĠRobot":6851,"Ġrenters":6852,"Ġrentals":6853,"Ġbranches":6854,"Ġcollaborative":6855,"keeping":6856,"ĠAlexis":6857,"ĠGlen":6858,"ĠLauder":6859,"Ġadhesive":6860,"ledge":6861,"ĠIsland":6862,"ĠSBA":6863,"ĠPalm":6864,"ĠNeuro":6865,"ĠFremont":6866,"ĠAPI":6867,"Ġimplants":6868,"Ġpanel":6869,"Ġpolicy":6870,"Ġpromote":6871,"Ġwallet":6872,"Ġbread":6873,"ĠSpecialized":6874,"ĠEvans":6875,"Ġlender":6876,"ĠWhit":6877,"Ġinjuries":6878,"Ġpopulation":6879,"ĠTerminal":6880,"ĠTitleist":6881,"ĠWallace":6882,"ĠPackard":6883,"Ġconfigur":6884,"Ġelectromechanical":6885,"Ġborrowers":6886,"ĠCustomer":6887,"ĠSingapore":6888,"ĠMadison":6889,"ĠPremium":6890,"Ġgoal":6891,"Ġstationary":6892,"Ġcovering":6893,"ĠRefrigerated":6894,"Ġfertil":6895,"Ġfertility":6896,"Ġaeros":6897,"ĠStructures":6898,"Ġcamera":6899,"Ġcameras":6900,"Ġintermediate":6901,"Ġcustody":6902,"Ġreliability":6903,"ĠPartner":6904,"ĠBenjamin":6905,"ĠDennis":6906,"Ġrenov":6907,"ĠUpstream":6908,"ĠStudio":6909,"Ġcapture":6910,"Ġlicensees":6911,"Ġhydrocarbon":6912,"Ġswitches":6913,"Ġavailability":6914,"ĠCompletion":6915,"Ġvegetable":6916,"brook":6917,"onautics":6918,"Ġinternationally":6919,"Ġmechanisms":6920,"Ġbasins":6921,"Ġdestinations":6922,"ĠSharp":6923,"ĠPCB":6924,"Ġdegree":6925,"Ġmonetization":6926,"ĠArkansas":6927,"ĠOriginations":6928,"Ġsulfur":6929,"Ġceiling":6930,"Ġbottl":6931,"Ġdogs":6932,"ĠMusic":6933,"ĠAeronautics":6934,"ĠParsippany":6935,"ĠBruce":6936,"Ġhistor":6937,"ĠGregory":6938,"ĠVentures":6939,"Ġmetabolic":6940,"Ġattributable":6941,"Ġ365":6942,"ĠPrincipal":6943,"Ġfunctionality":6944,"ĠMontana":6945,"Ġlandscape":6946,"Ġprocedures":6947,"premises":6948,"Ġmagazines":6949,"Ġmissile":6950,"ĠMenlo":6951,"ĠBirmingham":6952,"ĠNortheast":6953,"ĠProtein":6954,"Ġcredits":6955,"Ġchallenges":6956,"Ġupgrades":6957,"Ġperipheral":6958,"ĠLaboratories":6959,"Ġcontinuous":6960,"Ġmaximize":6961,"Ġserious":6962,"Ġpersonnel":6963,"ĠCraig":6964,"ĠFlooring":6965,"Ġrisks":6966,"ĠOmaha":6967,"Ġneighborhood":6968,"Ġtrademarks":6969,"Ġpulmonary":6970,"Ġcigarettes":6971,"yourself":6972,"Ġsusp":6973,"Ġpediatric":6974,"ĠTurner":6975,"ĠIreland":6976,"ĠIowa":6977,"Ġenvelope":6978,"estige":6979,"ĠFisher":6980,"ĠGibson":6981,"ĠGerald":6982,"Ġdiscontinued":6983,"Ġunconventional":6984,"Ġunmanned":6985,"ĠAdhesives":6986,"12":6987,"18":6988,"50":6989,"AM":6990,"Ab":6991,"Ap":6992,"Amer":6993,"All":6994,"BO":6995,"Best":6996,"Car":6997,"Care":6998,"Corp":6999,"Cap":7000,"Cell":7001,"Cola":7002,"DA":7003,"Dr":7004,"Em":7005,"Ever":7006,"FP":7007,"Federal":7008,"Frog":7009,"GR":7010,"Gas":7011,"Gener":7012,"IoT":7013,"JX":7014,"KE":7015,"LP":7016,"Lab":7017,"Liberty":7018,"Mc":7019,"Mat":7020,"Mobile":7021,"MBS":7022,"NM":7023,"Nor":7024,"OW":7025,"OX":7026,"Park":7027,"Qu":7028,"RT":7029,"Rx":7030,"SS":7031,"Su":7032,"Sal":7033,"Sch":7034,"Sign":7035,"Surg":7036,"Syn":7037,"TI":7038,"TAC":7039,"Vir":7040,"WS":7041,"Will":7042,"aic":7043,"acial":7044,"ban":7045,"burn":7046,"cas":7047,"cil":7048,"cery":7049,"cars":7050,"do":7051,"dependent":7052,"eals":7053,"ecom":7054,"food":7055,"gy":7056,"gers":7057,"ground":7058,"generation":7059,"homes":7060,"hatt":7061,"ij":7062,"igment":7063,"iant":7064,"iatric":7065,"ls":7066,"lac":7067,"lay":7068,"link":7069,"leston":7070,"mic":7071,"moving":7072,"ned":7073,"oro":7074,"oom":7075,"oist":7076,"oelect":7077,"ple":7078,"pay":7079,"ram":7080,"rine":7081,"sb":7082,"source":7083,"tar":7084,"tile":7085,"ua":7086,"ulo":7087,"uage":7088,"ueller":7089,"vo":7090,"vage":7091,"wealth":7092,"wave":7093,"yps":7094,"ywood":7095,"Â®":7096,"Ġ-":7097,"Ġarter":7098,"Ġiron":7099,"Ġmental":7100,"Ġurgent":7101,"inas":7102,"inter":7103,"inney":7104,"errous":7105,"estry":7106,"andler":7107,"enia":7108,"engine":7109,"onto":7110,"Ġsporting":7111,"Ġsnow":7112,"Ġsiding":7113,"Ġsitu":7114,"Ġtact":7115,"Ġterrit":7116,"Ġtailored":7117,"Ġinfras":7118,"Ġinject":7119,"Ġinformatics":7120,"aling":7121,"alcoholic":7122,"Ġcities":7123,"Ġcast":7124,"Ġcream":7125,"Ġcats":7126,"Ġcylinders":7127,"Ġcoding":7128,"ention":7129,"ently":7130,"entry":7131,"ror":7132,"icts":7133,"iciency":7134,"icides":7135,"orb":7136,"ording":7137,"edy":7138,"eder":7139,"edom":7140,"edge":7141,"ediation":7142,"aris":7143,"arding":7144,"Ġpil":7145,"Ġpav":7146,"Ġpants":7147,"Ġpads":7148,"Ġpione":7149,"Ġpermanent":7150,"Ġpigment":7151,"Ġovers":7152,"Ġfans":7153,"Ġfail":7154,"Ġfix":7155,"Ġfishing":7156,"Ġfactory":7157,"Ġfittings":7158,"Ġferrous":7159,"iser":7160,"isers":7161,"isle":7162,"ĠTub":7163,"ĠTree":7164,"ĠTier":7165,"ĠTissue":7166,"ĠTerry":7167,"ĠTowers":7168,"ĠTaylor":7169,"ĠTaiwan":7170,"ĠTJX":7171,"omotive":7172,"ombia":7173,"ito":7174,"itas":7175,"itime":7176,"itche":7177,"olver":7178,"olta":7179,"Ġmile":7180,"Ġmember":7181,"Ġmills":7182,"Ġmakes":7183,"Ġmagnetic":7184,"ĠIH":7185,"ĠIdent":7186,"Ġsea":7187,"Ġseed":7188,"Ġproble":7189,"rees":7190,"reen":7191,"Ġwalk":7192,"Ġwired":7193,"Ġwiring":7194,"Ġwagering":7195,"Ġbur":7196,"Ġbest":7197,"Ġburg":7198,"Ġbird":7199,"Ġbarg":7200,"Ġbilling":7201,"Ġbrew":7202,"Ġbitcoin":7203,"agen":7204,"Ġcommon":7205,"Ġcomfort":7206,"Ġaux":7207,"Ġapartments":7208,"ĠCin":7209,"ĠCas":7210,"ĠCit":7211,"ĠCall":7212,"ĠCash":7213,"ĠCry":7214,"ĠCoffee":7215,"ĠCivil":7216,"ĠCannabis":7217,"elo":7218,"elig":7219,"elry":7220,"elman":7221,"eletal":7222,"ĠSC":7223,"ĠSen":7224,"ĠSund":7225,"ĠSta":7226,"ĠScr":7227,"ĠSug":7228,"ĠSingle":7229,"ĠServer":7230,"tero":7231,"tery":7232,"eton":7233,"etty":7234,"person":7235,"adv":7236,"adark":7237,"admin":7238,"uctions":7239,"ervation":7240,"ervous":7241,"ider":7242,"idge":7243,"Ġheaters":7244,"Ġhedge":7245,"Ġfoam":7246,"ĠMir":7247,"ĠMach":7248,"ĠMilling":7249,"ĠMason":7250,"ĠMitche":7251,"ĠAX":7252,"ĠAk":7253,"ĠAth":7254,"ĠArea":7255,"ĠAaron":7256,"ially":7257,"ĠInf":7258,"thm":7259,"thes":7260,"thal":7261,"essment":7262,"charg":7263,"Ġreim":7264,"Ġreach":7265,"Ġreman":7266,"ĠPas":7267,"ĠPass":7268,"ĠPost":7269,"ĠPep":7270,"ĠPhys":7271,"ĠPrice":7272,"Ġfoundations":7273,"Ġconst":7274,"Ġconvention":7275,"Ġtown":7276,"Ġgl":7277,"Ġgar":7278,"ĠBed":7279,"ĠBates":7280,"ĠBig":7281,"ĠBerg":7282,"ĠBack":7283,"ĠBak":7284,"ĠBry":7285,"ĠBalt":7286,"ĠBaby":7287,"street":7288,"irit":7289,"ĠRand":7290,"ĠRad":7291,"ĠRam":7292,"ĠRace":7293,"ĠRica":7294,"ĠEN":7295,"ĠEth":7296,"ĠEvent":7297,"ĠNavy":7298,"ĠNebr":7299,"Ġdeep":7300,"Ġdegrad":7301,"Ġhors":7302,"Ġforestry":7303,"Ġnervous":7304,"ĠFX":7305,"ĠFol":7306,"ĠFund":7307,"ĠFrozen":7308,"ĠFuels":7309,"ĠFashion":7310,"ĠFOX":7311,"ĠDale":7312,"ĠDubl":7313,"ĠDedicated":7314,"ĠHI":7315,"ĠHu":7316,"ĠHom":7317,"ĠHorizon":7318,"ĠHonol":7319,"Ġrub":7320,"Ġlet":7321,"Ġlisting":7322,"Ġlayer":7323,"ĠOG":7324,"ĠON":7325,"ĠOt":7326,"ĠOw":7327,"ĠOcean":7328,"ĠOGE":7329,"ĠOxford":7330,"ĠGh":7331,"ĠGard":7332,"ĠGear":7333,"ĠGame":7334,"ĠGPU":7335,"eman":7336,"emia":7337,"employ":7338,"pplement":7339,"actors":7340,"ĠWo":7341,"ĠWr":7342,"ĠWat":7343,"ĠWond":7344,"ĠWang":7345,"ĠWarr":7346,"ĠWynn":7347,"oga":7348,"ogas":7349,"igm":7350,"ĠLap":7351,"ĠLew":7352,"ĠLex":7353,"ĠLeg":7354,"ĠLiving":7355,"ĠLTL":7356,"ĠLearning":7357,"ĠLeslie":7358,"ĠLloyd":7359,"ably":7360,"imore":7361,"imately":7362,"Ġvans":7363,"ĠJim":7364,"ĠJerry":7365,"ĠJBT":7366,"ĠJuan":7367,"Ġdiscip":7368,"iform":7369,"ologics":7370,"ibu":7371,"ibusiness":7372,"tah":7373,"umar":7374,"forced":7375,"Ġaccom":7376,"ĠUtah":7377,"ella":7378,"Ġstim":7379,"Ġstart":7380,"Ġstone":7381,"izations":7382,"Ġanch":7383,"Ġanhy":7384,"inant":7385,"ricut":7386,"ews":7387,"ewelry":7388,"Ġplays":7389,"Ġplasma":7390,"Ġplywood":7391,"ensity":7392,"Ġprestige":7393,"tek":7394,"tex":7395,"ĠProvid":7396,"Ġreson":7397,"course":7398,"ĠCommon":7399,"Ġelim":7400,"Ġelev":7401,"ĠStack":7402,"munity":7403,"acker":7404,"ĠKal":7405,"ĠKar":7406,"ĠKings":7407,"ĠKids":7408,"pressure":7409,"Ġcoinsurance":7410,"Ġcours":7411,"Ġcoupl":7412,"ĠVol":7413,"ĠVision":7414,"ĠVict":7415,"onsored":7416,"onsburg":7417,"ply":7418,"ĠReyn":7419,"Ġcranes":7420,"Ġreality":7421,"Ġwellhead":7422,"Ġstored":7423,"lyn":7424,"Ġapply":7425,"fred":7426,"ĠCourse":7427,"Ġchat":7428,"Ġchass":7429,"Ġchange":7430,"issance":7431,"Ġleverage":7432,"tainers":7433,"romb":7434,"rome":7435,"iston":7436,"istors":7437,"ĠTrue":7438,"ocacy":7439,"outs":7440,"Ġcontrolled":7441,"akers":7442,"akhouse":7443,"Ġcareer":7444,"Ġautomatic":7445,"ovolta":7446,"ĠManaged":7447,"ĠYelp":7448,"Ġacts":7449,"ĠAsh":7450,"holder":7451,"ĠDec":7452,"ĠDean":7453,"ĠSea":7454,"ĠSecure":7455,"ĠNorthwest":7456,"ĠFraming":7457,"Ġacquire":7458,"ĠIndex":7459,"Ġinteract":7460,"Ġinterference":7461,"Ġportions":7462,"Ġimport":7463,"Ġimages":7464,"annon":7465,"Ġprev":7466,"Ġpretz":7467,"ĠAnadark":7468,"ducing":7469,"Ġadvocacy":7470,"phasis":7471,"ĠChamp":7472,"Ġairports":7473,"ĠMarcell":7474,"Ġpayers":7475,"Ġshapes":7476,"Ġregulators":7477,"Ġspas":7478,"Ġspare":7479,"Ġbiology":7480,"Ġbiogas":7481,"Ġunderlying":7482,"Ġrobo":7483,"Ġlocation":7484,"Ġlocomot":7485,"Ġcarb":7486,"ĠReserv":7487,"ĠRestructuring":7488,"ĠCanonsburg":7489,"raw":7490,"ravel":7491,"raisal":7492,"Ġgovernance":7493,"Ġscient":7494,"ishes":7495,"Ġemp":7496,"Ġemail":7497,"Ġemphasis":7498,"Ġdrink":7499,"Ġworksp":7500,"proofing":7501,"eva":7502,"evi":7503,"ĠTransit":7504,"hythm":7505,"Ġconsumption":7506,"Ġhigher":7507,"Ġhighway":7508,"ĠAlb":7509,"ĠAluminum":7510,"ĠAlfred":7511,"ĠArmstrong":7512,"iamond":7513,"ĠBankshares":7514,"ĠDistribut":7515,"Ġflash":7516,"Ġprogrammable":7517,"Ġgeospatial":7518,"book":7519,"Ġorganized":7520,"ferrous":7521,"ferences":7522,"Ġintensive":7523,"cretion":7524,"ĠCommunication":7525,"Ġdiodes":7526,"draft":7527,"ĠPlans":7528,"ĠPlay":7529,"ĠPlant":7530,"ĠClark":7531,"ĠBeverly":7532,"ynamic":7533,"Ġceramics":7534,"Ġkids":7535,"ĠSteve":7536,"ĠSteakhouse":7537,"Ġadvisor":7538,"ĠColombia":7539,"Ġclinically":7540,"Ġjour":7541,"Ġjewelry":7542,"ĠCarbon":7543,"neum":7544,"Ġincent":7545,"ĠZuora":7546,"ĠPressure":7547,"ĠTextile":7548,"Ġfueling":7549,"ĠDavis":7550,"rik":7551,"riers":7552,"anger":7553,"anguage":7554,"itoring":7555,"Ġ1952":7556,"Ġentr":7557,"Ġmeter":7558,"Ġmeters":7559,"ĠJanus":7560,"ylene":7561,"ĠSuites":7562,"ĠSupplement":7563,"ĠBrooks":7564,"ĠSpain":7565,"Ġoverdraft":7566,"ĠEdge":7567,"Int":7568,"Inter":7569,"International":7570,"Internal":7571,"Ġ1948":7572,"Ġlonger":7573,"Ġ1901":7574,"Ġ1904":7575,"Ġ1905":7576,"Ġcreating":7577,"ĠPhase":7578,"umble":7579,"Ġ1930":7580,"Ġ1931":7581,"Ġ1933":7582,"Ġ1935":7583,"Ġsurvey":7584,"Ġsubmar":7585,"Ġsubstant":7586,"ĠRegions":7587,"ĠAssessment":7588,"scar":7589,"science":7590,"ĠBoat":7591,"ĠBoard":7592,"ĠBoise":7593,"ĠBook":7594,"emblies":7595,"ĠGreens":7596,"ĠOrange":7597,"Ġ1915":7598,"Ġcomposites":7599,"Ġpolyolef":7600,"Ġrailroad":7601,"Ġquant":7602,"Ġbrakes":7603,"ĠElk":7604,"azon":7605,"Ġinfection":7606,"Ġphone":7607,"Ġdoct":7608,"Ġfootprint":7609,"Ġforming":7610,"Ġformats":7611,"Ġ1892":7612,"Ġ1895":7613,"Ġ1898":7614,"Ġ1899":7615,"Ġalternate":7616,"Ġneurodeg":7617,"ĠRefinery":7618,"Ġ1888":7619,"Ġ1889":7620,"ĠParkinson":7621,"ĠRoy":7622,"ĠRochester":7623,"ĠHarry":7624,"ĠHarbor":7625,"ĠHarvey":7626,"ĠAndover":7627,"theon":7628,"Ġcharge":7629,"Ġcharges":7630,"Ġmaritime":7631,"ĠMetallurgical":7632,"ĠLead":7633,"ĠPayPal":7634,"Ġlift":7635,"ĠOutfit":7636,"Ġmicrob":7637,"Ġbacked":7638,"ĠInterface":7639,"Ġguid":7640,"Ġviral":7641,"ĠUnion":7642,"Ġimmuno":7643,"Ġshel":7644,"Ġsheets":7645,"ĠStrateg":7646,"Ġenhancing":7647,"Ġtrucking":7648,"Ġcathe":7649,"Ġcatalog":7650,"Ġcatalysts":7651,"ormal":7652,"ormick":7653,"ĠEmbedded":7654,"forcement":7655,"Ġstreamline":7656,"Ġclassified":7657,"ĠMedicaid":7658,"Ġabras":7659,"ĠAgricult":7660,"ĠHeart":7661,"ĠOilfield":7662,"Ġstudy":7663,"ĠAnalytical":7664,"ĠPhilipp":7665,"gregated":7666,"Ġderives":7667,"ĠProtective":7668,"Ġtransformative":7669,"Ġfabricated":7670,"itzman":7671,"itzerland":7672,"Ġcounter":7673,"Ġarchitectures":7674,"Ġmenu":7675,"ĠIntegration":7676,"Ġtemporary":7677,"Ġtheme":7678,"Ġwindow":7679,"External":7680,"Ġutilized":7681,"ERC":7682,"Ġtowels":7683,"Ġdecisions":7684,"ĠHawk":7685,"Ġpractice":7686,"Ġterminalling":7687,"Ġverticals":7688,"Ġsalvage":7689,"Ġpartnerships":7690,"ĠSuns":7691,"Ġlaunch":7692,"Ġlaundry":7693,"Ġtelecommunication":7694,"Ġrecycled":7695,"ĠWorkplace":7696,"ĠWorkforce":7697,"Ġextensive":7698,"Ġextended":7699,"ĠDevice":7700,"Ġswim":7701,"Ġintrastate":7702,"Ġsevere":7703,"Ġ1866":7704,"Ġ1868":7705,"Ġ1875":7706,"ĠImaging":7707,"Ġwhen":7708,"ĠHerbert":7709,"ĠHercules":7710,"ĠHeritage":7711,"Ġaggregate":7712,"Ġcapacitors":7713,"Ġvirtually":7714,"Adv":7715,"Ġposition":7716,"Ġpositive":7717,"Ġmolecular":7718,"Ġissued":7719,"ĠMulti":7720,"Ġsupermarkets":7721,"Ġpropulsion":7722,"ĠSwitzerland":7723,"ĠModel":7724,"ĠModules":7725,"Ġconcentrated":7726,"Ġbarrel":7727,"ĠGolden":7728,"Ġfacilitates":7729,"ĠSpringfield":7730,"Ġsilver":7731,"Ġpromotional":7732,"Ġbreast":7733,"iliary":7734,"ĠMicrosoft":7735,"ĠBenefit":7736,"Ġepoxy":7737,"ĠWhite":7738,"Ġstockholders":7739,"ĠConnected":7740,"Ġmethods":7741,"sponsored":7742,"Ġinjury":7743,"Ġpulp":7744,"Ġpowder":7745,"Ġbaked":7746,"ĠSurface":7747,"ĠMyers":7748,"ĠMorgan":7749,"Ġremain":7750,"ĠBiologics":7751,"ĠRaymond":7752,"ĠRestaurants":7753,"Ġrestore":7754,"Ġliquefaction":7755,"Ġtelephony":7756,"Ġparticipants":7757,"Ġrobotic":7758,"Universal":7759,"defined":7760,"Ġcosmetic":7761,"Ġbearing":7762,"ĠSands":7763,"ĠGoHealth":7764,"ĠLiu":7765,"Ġrolling":7766,"Ġattached":7767,"ĠExperiences":7768,"Ġrecords":7769,"Ġoccupational":7770,"Ġoccupancy":7771,"Ġsandwich":7772,"ĠPeople":7773,"Ġdeployment":7774,"Ġeconomy":7775,"ĠHampton":7776,"Ġleveraging":7777,"Ġmodernization":7778,"Ġwarehouses":7779,"voltage":7780,"vestnet":7781,"Ġturnkey":7782,"Ġaerial":7783,"ĠCRE":7784,"ĠKnoll":7785,"Ġinfections":7786,"Ġbelts":7787,"Ġbowls":7788,"ĠSnacks":7789,"Ġharvest":7790,"ĠDennison":7791,"Ġrunning":7792,"Ġlargest":7793,"ĠGilbert":7794,"ĠUpwork":7795,"ĠStudios":7796,"ĠVacation":7797,"Ġcolorants":7798,"Ġhydrocarbons":7799,"Ġavailable":7800,"Ġdocument":7801,"Central":7802,"Ġmarking":7803,"Ġwheel":7804,"Ġearnings":7805,"ogenic":7806,"ĠLauren":7807,"Ġstabilized":7808,"Ġrooms":7809,"Ġdetectors":7810,"Ġimplantable":7811,"Ġsprayers":7812,"Ġcabinet":7813,"orialization":7814,"Ġprofits":7815,"ĠPanama":7816,"ĠPoland":7817,"Ġconverters":7818,"ĠRussell":7819,"Ġnitrogen":7820,"Ġeye":7821,"ĠDominican":7822,"ĠGenomics":7823,"Ġadjustable":7824,"Ġgastrointestinal":7825,"Ġchromatography":7826,"ĠBradley":7827,"Ġimmunotherapy":7828,"Ġaccelerate":7829,"Ġreservoirs":7830,"Ġvisualization":7831,"highway":7832,"Ġoxy":7833,"Ġrebuild":7834,"Ġtoxic":7835,"ĠVincent":7836,"ĠBrentwood":7837,"Ġammonia":7838,"Ġnotebook":7839,"ĠLeonard":7840,"ĠPetroleum":7841,"ĠBroadcasting":7842,"ĠNicholas":7843,"Ġfinances":7844,"ĠTobacco":7845,"Ġmergers":7846,"ĠItalian":7847,"ĠDuluth":7848,"Ġconsoles":7849,"Ġdistricts":7850,"Ġannual":7851,"Ġelectrification":7852,"Ġchocolate":7853,"ĠAnthony":7854,"Ġknowledge":7855,"auxite":7856,"ĠAssociation":7857,"ĠTerminals":7858,"Ġremoval":7859,"Texas":7860,"jacent":7861,"strategic":7862,"Ġetch":7863,"Ġstainless":7864,"Ġscrap":7865,"ĠIdaho":7866,"Ġseeking":7867,"Ġaesthetic":7868,"ĠSherwin":7869,"ivetrain":7870,"ĠBuffalo":7871,"ĠHartford":7872,"Ġraising":7873,"Ġsuffering":7874,"odontic":7875,"Ġelastomer":7876,"ĠAdministration":7877,"Ġjuice":7878,"Ġthermoplastic":7879,"Ġrenovation":7880,"Ġhistorical":7881,"ulose":7882,"ypsum":7883,"Ġtactical":7884,"Ġinfrastructures":7885,"Ġfailure":7886,"olverine":7887,"Ġburgers":7888,"Ġbarges":7889,"Ġauxiliary":7890,"ĠSugar":7891,"administered":7892,"ĠMitchell":7893,"Ġreimbursement":7894,"ĠBaltimore":7895,"ĠNebraska":7896,"ĠDublin":7897,"ĠHonolulu":7898,"Ġrubber":7899,"ĠWarren":7900,"ĠCommonwealth":7901,"ĠReynolds":7902,"Ġchassis":7903,"ovoltaic":7904,"ĠAnadarko":7905,"ĠMarcellus":7906,"Ġlocomotives":7907,"ĠDistributed":7908,"cretionary":7909,"Ġneurodegenerative":7910,"ĠOutfitters":7911,"Ġabrasives":7912,"Ġsandwiches":7913,"\")":7914,"''":7915,"14":7916,"23":7917,"66":7918,"71":7919,"AA":7920,"AG":7921,"AY":7922,"Ass":7923,"AMC":7924,"BC":7925,"BR":7926,"Be":7927,"Bay":7928,"Built":7929,"CF":7930,"CG":7931,"CN":7932,"Cas":7933,"Core":7934,"DP":7935,"Del":7936,"Dav":7937,"Donald":7938,"EO":7939,"El":7940,"FA":7941,"Fo":7942,"Gu":7943,"Gaming":7944,"Har":7945,"Hel":7946,"Hill":7947,"High":7948,"Hub":7949,"HVAC":7950,"IY":7951,"Im":7952,"KR":7953,"LA":7954,"LI":7955,"Live":7956,"Link":7957,"My":7958,"Man":7959,"Mon":7960,"Mas":7961,"Mid":7962,"Mod":7963,"NI":7964,"Nu":7965,"Nex":7966,"NGL":7967,"Next":7968,"OC":7969,"On":7970,"One":7971,"PD":7972,"PI":7973,"PM":7974,"Ps":7975,"Per":7976,"PRO":7977,"RC":7978,"Ry":7979,"Ring":7980,"Rob":7981,"Sa":7982,"Ste":7983,"Software":7984,"Smart":7985,"Th":7986,"Tri":7987,"Us":7988,"Use":7989,"Val":7990,"Work":7991,"World":7992,"Western":7993,"YN":7994,"aes":7995,"amer":7996,"aac":7997,"aub":7998,"awn":7999,"amental":8000,"br":8001,"bt":8002,"bat":8003,"bank":8004,"bour":8005,"bore":8006,"bott":8007,"buy":8008,"bden":8009,"cat":8010,"cue":8011,"cular":8012,"casualty":8013,"code":8014,"certs":8015,"cBest":8016,"cromb":8017,"derground":8018,"ez":8019,"eit":8020,"eans":8021,"eters":8022,"fect":8023,"from":8024,"faces":8025,"gs":8026,"gas":8027,"gate":8028,"gie":8029,"giano":8030,"hite":8031,"hazardous":8032,"iat":8033,"iar":8034,"ias":8035,"iper":8036,"iology":8037,"ka":8038,"ki":8039,"kn":8040,"lic":8041,"mal":8042,"mit":8043,"medical":8044,"oard":8045,"oker":8046,"oose":8047,"pan":8048,"pack":8049,"penter":8050,"paper":8051,"pret":8052,"purchase":8053,"rx":8054,"rate":8055,"raft":8056,"rban":8057,"sw":8058,"sens":8059,"signal":8060,"ture":8061,"tension":8062,"ugment":8063,"uge":8064,"voy":8065,"wash":8066,"ximately":8067,"yd":8068,"yville":8069,"zhe":8070,"zard":8071,"Ã©":8072,"Ġ+":8073,"Ġur":8074,"anium":8075,"inational":8076,"inish":8077,"era":8078,"erica":8079,"erred":8080,"esa":8081,"ands":8082,"energy":8083,"oni":8084,"onial":8085,"onucle":8086,"hey":8087,"hein":8088,"health":8089,"held":8090,"Ġspe":8091,"Ġsaf":8092,"Ġside":8093,"Ġslot":8094,"Ġsourced":8095,"Ġsauc":8096,"Ġtechn":8097,"Ġtire":8098,"Ġtick":8099,"Ġtapes":8100,"Ġtasks":8101,"atus":8102,"Ġinfr":8103,"Ġincur":8104,"Ġinland":8105,"alu":8106,"Ġcans":8107,"Ġcush":8108,"entley":8109,"roid":8110,"icult":8111,"oral":8112,"orac":8113,"Ġpest":8114,"Ġpell":8115,"Ġpall":8116,"Ġperm":8117,"Ġpaving":8118,"Ġpizza":8119,"Ġponto":8120,"Ġpneum":8121,"Ġoph":8122,"Ġoxide":8123,"Ġolig":8124,"ionics":8125,"Ġfric":8126,"Ġfill":8127,"Ġfinal":8128,"isker":8129,"ĠTA":8130,"ĠTi":8131,"ĠTal":8132,"ĠTax":8133,"ĠTys":8134,"ĠTurb":8135,"ĠTRS":8136,"ĠTroy":8137,"ĠTTEC":8138,"asth":8139,"asanton":8140,"omet":8141,"omers":8142,"itr":8143,"itude":8144,"Ġtheaters":8145,"Ġtheft":8146,"olar":8147,"ollo":8148,"olph":8149,"Ġmil":8150,"Ġmort":8151,"Ġmissions":8152,"ĠIss":8153,"Ġseven":8154,"Ġprogress":8155,"rety":8156,"repr":8157,"Ġway":8158,"Ġwrap":8159,"Ġwholes":8160,"Ġwound":8161,"Ġbun":8162,"Ġblow":8163,"Ġbout":8164,"Ġbarge":8165,"Ġbattle":8166,"Ġbuilt":8167,"agers":8168,"Ġcommand":8169,"Ġdil":8170,"Ġdur":8171,"Ġdam":8172,"Ġday":8173,"Ġdock":8174,"Ġduty":8175,"Ġdialysis":8176,"Ġax":8177,"Ġaqu":8178,"Ġach":8179,"Ġaugment":8180,"ĠCK":8181,"ĠCast":8182,"ĠClement":8183,"ĠCurt":8184,"ĠCricut":8185,"used":8186,"users":8187,"elity":8188,"ellog":8189,"unts":8190,"unge":8191,"uneral":8192,"utes":8193,"ĠSM":8194,"ĠSal":8195,"ĠSar":8196,"ĠSum":8197,"ĠSie":8198,"ĠScre":8199,"ĠSafe":8200,"ĠSynd":8201,"ilan":8202,"ilization":8203,"iliated":8204,"etary":8205,"add":8206,"ador":8207,"adena":8208,"erved":8209,"iders":8210,"iday":8211,"idson":8212,"loro":8213,"Ġhemat":8214,"ĠMT":8215,"ĠMr":8216,"ĠMort":8217,"ĠMines":8218,"ĠMixed":8219,"ĠMah":8220,"ĠMaid":8221,"ĠMechanical":8222,"ĠMilton":8223,"ĠMerr":8224,"ĠMesa":8225,"ĠAM":8226,"ĠAqu":8227,"ĠAid":8228,"ĠAst":8229,"ĠAgr":8230,"ĠAub":8231,"ĠAero":8232,"ĠIng":8233,"Ġthings":8234,"Ġthreat":8235,"Ġthorac":8236,"Ġenzy":8237,"traded":8238,"leen":8239,"leasanton":8240,"threat":8241,"ĠItaly":8242,"cho":8243,"cher":8244,"Ġrefr":8245,"Ġremarket":8246,"Ġrecomm":8247,"ĠPS":8248,"ĠPand":8249,"ĠPot":8250,"ĠPork":8251,"ĠPorts":8252,"ĠPCs":8253,"ĠPoin":8254,"ĠPizza":8255,"ĠPurchase":8256,"ĠPatterson":8257,"ĠPleasanton":8258,"Ġwash":8259,"Ġfoundation":8260,"uded":8261,"udson":8262,"iveline":8263,"Ġcontainment":8264,"Ġconventional":8265,"Ġconcepts":8266,"Ġgam":8267,"Ġgard":8268,"Ġgain":8269,"Ġgrap":8270,"Ġgives":8271,"Ġgrid":8272,"ĠBan":8273,"ĠBre":8274,"ĠBio":8275,"ĠBaton":8276,"ĠBald":8277,"ĠBuilder":8278,"Ġengage":8279,"Ġproven":8280,"stop":8281,"style":8282,"stocks":8283,"Ġmanned":8284,"irk":8285,"irror":8286,"ĠRing":8287,"ĠRac":8288,"ĠRow":8289,"ĠRales":8290,"ĠRanch":8291,"ĠER":8292,"ĠET":8293,"ĠEV":8294,"ĠEli":8295,"ĠESG":8296,"ĠErik":8297,"ĠNext":8298,"ĠNathan":8299,"Ġdeath":8300,"Ġdeterm":8301,"Ġhose":8302,"Ġhiring":8303,"Ġhoney":8304,"Ġhazardous":8305,"Ġforward":8306,"Ġnort":8307,"Ġnam":8308,"Ġnorth":8309,"Ġnight":8310,"Ġnature":8311,"Ġniche":8312,"Ġnormal":8313,"ĠFI":8314,"ĠFar":8315,"ĠFeng":8316,"ĠForm":8317,"ĠFrost":8318,"ĠFeminine":8319,"Ġeith":8320,"Ġeasy":8321,"Ġonc":8322,"Ġonly":8323,"Ġongo":8324,"ĠDX":8325,"ĠDol":8326,"ĠDay":8327,"ĠDry":8328,"ĠDra":8329,"ĠDining":8330,"ĠHir":8331,"ĠHass":8332,"ĠHef":8333,"ĠHond":8334,"ĠHerman":8335,"Ġrace":8336,"Ġrural":8337,"Ġrack":8338,"Ġride":8339,"Ġright":8340,"Ġraz":8341,"Ġlid":8342,"Ġlap":8343,"Ġlibr":8344,"Ġlisted":8345,"Ġlanguage":8346,"ĠOs":8347,"ĠOle":8348,"ĠOver":8349,"ĠOld":8350,"ĠOscar":8351,"ulating":8352,"ĠGM":8353,"ĠGer":8354,"ĠGam":8355,"ĠGall":8356,"ĠGra":8357,"ĠGames":8358,"ĠGuy":8359,"ĠGlass":8360,"ĠGraphics":8361,"ĠGirl":8362,"amo":8363,"amins":8364,"ema":8365,"actus":8366,"actants":8367,"actories":8368,"ĠWhe":8369,"ĠWard":8370,"ĠWeb":8371,"ĠWool":8372,"ĠWaters":8373,"ĠWaste":8374,"ĠWarner":8375,"ĠWerner":8376,"ĠWolverine":8377,"igen":8378,"ĠLor":8379,"ĠLiv":8380,"ĠLod":8381,"ĠLuc":8382,"ĠLenn":8383,"ĠLind":8384,"ĠLarge":8385,"ĠLuxury":8386,"ĠLarry":8387,"anson":8388,"ansion":8389,"abit":8390,"ipes":8391,"iping":8392,"immer":8393,"ustice":8394,"ectomy":8395,"Ġfolding":8396,"Ġsurety":8397,"orpor":8398,"Ġvi":8399,"Ġvibr":8400,"Ġvector":8401,"odial":8402,"odulation":8403,"ĠJag":8404,"ĠJenn":8405,"ĠJason":8406,"ĠJosh":8407,"ĠJFrog":8408,"Ġdish":8409,"Ġdisrupt":8410,"urea":8411,"oto":8412,"otide":8413,"apital":8414,"aptive":8415,"vern":8416,"ums":8417,"Ġaco":8418,"Ġacetate":8419,"ĠUGI":8420,"elling":8421,"ellation":8422,"ayette":8423,"Ġstages":8424,"Ġstocks":8425,"izzard":8426,"cession":8427,"Ġanim":8428,"Ġlot":8429,"Ġload":8430,"Ġloyal":8431,"ewear":8432,"terns":8433,"tructive":8434,"ensic":8435,"bercromb":8436,"Ġpredom":8437,"ithms":8438,"ĠProp":8439,"Ġtransition":8440,"Ġtransitional":8441,"Ġresale":8442,"Ġdevelopments":8443,"Ġexpos":8444,"Ġexha":8445,"cock":8446,"covers":8447,"Ġadm":8448,"Ġadvert":8449,"aint":8450,"ainst":8451,"Ġorders":8452,"ĠCommerce":8453,"Ġ(\"":8454,"ĠStandard":8455,"ĠKa":8456,"ĠKate":8457,"ĠKreme":8458,"ĠKumar":8459,"prime":8460,"Ġcoke":8461,"Ġcoordin":8462,"ĠVT":8463,"ĠVit":8464,"ĠVinyl":8465,"geons":8466,"ablement":8467,"platform":8468,"plant":8469,"pliance":8470,"plunk":8471,"Ġdesigners":8472,"Ġcrack":8473,"uba":8474,"uble":8475,"Ġwells":8476,"earance":8477,"ĠEnvestnet":8478,"ĠEnablement":8479,"ptic":8480,"ptide":8481,"Ġapplied":8482,"front":8483,"ĠCopp":8484,"ĠCook":8485,"ĠCoca":8486,"ĠCooling":8487,"Ġchanging":8488,"Ġchanges":8489,"Ġchronically":8490,"ĠNewton":8491,"issaries":8492,"romine":8493,"romechanical":8494,"ĠTrade":8495,"ĠTraditional":8496,"urora":8497,"ociated":8498,"ocrine":8499,"iley":8500,"Ġautomates":8501,"harma":8502,"ove":8503,"ĠManpower":8504,"Ġdeli":8505,"ĠAsian":8506,"ĠAspen":8507,"ĠDep":8508,"ĠDeep":8509,"ĠDebt":8510,"ĠSeg":8511,"ĠSealy":8512,"ĠFragr":8513,"Ġagon":8514,"Ġagainst":8515,"ĠIndones":8516,"ĠIndemnity":8517,"onalcoholic":8518,"Ġintersegment":8519,"Ġports":8520,"Ġimm":8521,"anned":8522,"Ġprep":8523,"Ġpreclinical":8524,"Ġbeen":8525,"Ġbeam":8526,"Ġbeef":8527,"poses":8528,"Ġallow":8529,"Ġalgor":8530,"ĠAnn":8531,"tone":8532,"Ġadvancing":8533,"pha":8534,"phone":8535,"Ġintegral":8536,"Ġintegrations":8537,"Ġintegrating":8538,"Ġsmelting":8539,"ĠCham":8540,"ĠChile":8541,"ĠChili":8542,"ĠChandler":8543,"Ġcaps":8544,"Ġsubscr":8545,"Ġoutlet":8546,"Ġshower":8547,"Ġshakes":8548,"Ġrefines":8549,"Ġrefinancing":8550,"Ġrefinery":8551,"Ġregul":8552,"Ġspect":8553,"Ġspend":8554,"Ġspares":8555,"Ġbios":8556,"airie":8557,"Ġinserts":8558,"olve":8559,"ectionery":8560,"Ġroot":8561,"Ġroof":8562,"ĠResp":8563,"Ġmetallurgical":8564,"Ġmetallic":8565,"Ġappearance":8566,"raising":8567,"Ġmultinational":8568,"Ġliabilities":8569,"Ġmainly":8570,"ĠMedSurg":8571,"ishments":8572,"ielding":8573,"Ġdriving":8574,"Ġworkst":8575,"ĠConcrete":8576,"ĠContin":8577,"ĠConvenience":8578,"ĠConrad":8579,"ĠContainers":8580,"Ġsmaller":8581,"producing":8582,"Ġcolors":8583,"iencies":8584,"Ġpatterns":8585,"ĠAltern":8586,"ĠAlign":8587,"Ġoptics":8588,"Ġexpansion":8589,"Ġpurposes":8590,"ĠAdvertising":8591,"ĠAdams":8592,"ĠComponent":8593,"ĠDisney":8594,"Ġflags":8595,"Ġinvestig":8596,"Ġparent":8597,"ĠWillis":8598,"ĠWilliston":8599,"Ġvalve":8600,"Ġvalidation":8601,"Ġdiode":8602,"Ġdietary":8603,"drink":8604,"ĠPlc":8605,"ĠPlus":8606,"ĠPlace":8607,"ĠPlastics":8608,"ennial":8609,"Ġmodified":8610,"Ġmodule":8611,"ĠClass":8612,"ĠClayton":8613,"ĠBeer":8614,"yne":8615,"Ġspecialist":8616,"Ġspecializing":8617,"Ġdirectional":8618,"ĠAflac":8619,"ĠSchein":8620,"Ġstrong":8621,"ĠAllied":8622,"ĠAlliance":8623,"Ġkn":8624,"Ġkraft":8625,"ĠColor":8626,"ĠCollect":8627,"ĠColonial":8628,"Ġjeans":8629,"ĠCarmel":8630,"ilitating":8631,"away":8632,"ĠPres":8633,"ĠPrint":8634,"ĠPrairie":8635,"ridge":8636,"ĠTextron":8637,"psych":8638,"Ġhandheld":8639,"argo":8640,"ĠCharleston":8641,"ĠFrancis":8642,"ĠBranch":8643,"ĠBrady":8644,"rier":8645,"Ġ1950":8646,"Ġ1951":8647,"Ġ1954":8648,"Ġrepairs":8649,"Ġentrepr":8650,"olybden":8651,"Ġdebilitating":8652,"shire":8653,"shops":8654,"shirts":8655,"regional":8656,"Ġcombine":8657,"Ġcombining":8658,"seeds":8659,"yler":8660,"eneurs":8661,"orney":8662,"ĠDavidson":8663,"Ġnotes":8664,"Ġ1921":8665,"ĠSpine":8666,"ĠSpade":8667,"ĠSpectrum":8668,"ĠSpirits":8669,"Ġoverall":8670,"Ġgrass":8671,"ĠEden":8672,"ĠElectricity":8673,"ropic":8674,"unctional":8675,"Ġ1940":8676,"Ġfilms":8677,"Ġhydrop":8678,"augh":8679,"Ġcreated":8680,"Ġsurplus":8681,"Ġsubst":8682,"ĠThompson":8683,"ĠAdvantage":8684,"Ġhelping":8685,"ĠAccoun":8686,"Ġoptimizing":8687,"ĠFlu":8688,"ĠOrgan":8689,"ritten":8690,"locks":8691,"Ġ1912":8692,"Ġ1914":8693,"Ġ1916":8694,"ĠMonitoring":8695,"ĠBlizzard":8696,"amping":8697,"Ġcollecting":8698,"Ġtaxes":8699,"Ġpolyethylene":8700,"Ġpolyureth":8701,"ĠScha":8702,"ablished":8703,"Ġbrain":8704,"ĠSmall":8705,"ĠAirline":8706,"ĠElastic":8707,"Ġphosph":8708,"Ġformed":8709,"Ġformulation":8710,"Ġrespective":8711,"gredient":8712,"Ġneurosurg":8713,"Ġneuropsych":8714,"Ġrecording":8715,"Ġrecapital":8716,"Ġ1887":8717,"Ġcandy":8718,"ĠRoad":8719,"ĠRouge":8720,"ĠHarley":8721,"Ġcentered":8722,"ĠMetro":8723,"ĠMetropolitan":8724,"ĠBasins":8725,"rispy":8726,"Ġpharma":8727,"ĠIrrigation":8728,"Ġselected":8729,"ĠOutlet":8730,"ĠOutpatient":8731,"Ġtrains":8732,"Ġgroceries":8733,"Ġprotects":8734,"ĠRichardson":8735,"Ġsignals":8736,"Ġsignature":8737,"Ġmicrophones":8738,"Ġmicrowave":8739,"ĠInterests":8740,"ĠUnum":8741,"ĠUnallocated":8742,"ĠUniform":8743,"ĠUnderground":8744,"Ġeffect":8745,"Comp":8746,"Compliance":8747,"Ġcycl":8748,"Ġrelating":8749,"ĠWalker":8750,"ĠWilson":8751,"Ġclassroom":8752,"Ġaudiences":8753,"Ġcomplexes":8754,"Ġpremier":8755,"effective":8756,"Ġabout":8757,"Ġablation":8758,"ĠAggreg":8759,"ĠHead":8760,"ĠHeating":8761,"ĠHeavy":8762,"ĠAnalysis":8763,"Ġflood":8764,"ĠNorway":8765,"ĠOptim":8766,"ĠOptoelect":8767,"ĠGrant":8768,"weight":8769,"Ġyog":8770,"Ġfundamental":8771,"itted":8772,"Ġafter":8773,"Ġafford":8774,"ĠProtocol":8775,"COM":8776,"COT":8777,"Stop":8778,"Ġcountry":8779,"ĠIntegrity":8780,"ĠEducational":8781,"Ġcaused":8782,"Ġopportunity":8783,"Ġblack":8784,"Ġevaluation":8785,"Ġevalu":8786,"ĠManufactured":8787,"Ġpotash":8788,"Ġutilization":8789,"consisting":8790,"Ġdownload":8791,"ĠMotors":8792,"Ġtower":8793,"ĠHyd":8794,"ĠHygiene":8795,"Ġarrays":8796,"Ġpremiums":8797,"tops":8798,"Ġsalons":8799,"Ġprice":8800,"Ġmovement":8801,"Ġstaff":8802,"Ġsatellites":8803,"Ġfastening":8804,"ĠAmos":8805,"ĠAmazon":8806,"ĠContracting":8807,"nerwear":8808,"Ġintra":8809,"Ġintrac":8810,"Ġoccur":8811,"ĠValue":8812,"Ġ1864":8813,"Ġ1870":8814,"Ġlabeling":8815,"ĠBlackstone":8816,"Ġderivative":8817,"hibrx":8818,"Ġtube":8819,"Ġtubular":8820,"ĠTrex":8821,"ĠImport":8822,"Ġaffili":8823,"ĠBarry":8824,"ĠBloomfield":8825,"Ġdemanding":8826,"ĠWeitzman":8827,"Ġapproximately":8828,"Ġirrad":8829,"Ġpositioning":8830,"Ġoblig":8831,"Ġissu":8832,"Ġissues":8833,"Ġglobe":8834,"ĠGlenn":8835,"Ġprinters":8836,"Ġvaccine":8837,"ĠTempur":8838,"ĠIsaac":8839,"ĠSBC":8840,"ĠApplications":8841,"Ġcontinue":8842,"Ġlubricant":8843,"Ġshippers":8844,"Ġfinishing":8845,"Ġbarcode":8846,"ĠACI":8847,"ĠACMI":8848,"ĠFueling":8849,"ĠGoldstein":8850,"Ġcookies":8851,"Ġuniversities":8852,"ĠMcCormick":8853,"Ġcurrency":8854,"ĠTimberlands":8855,"Ġblock":8856,"Ġavionics":8857,"ĠMalibu":8858,"ĠAmeristar":8859,"ĠPharmacy":8860,"ĠEvents":8861,"ĠEvaluation":8862,"ĠOEMs":8863,"Ġtransmissions":8864,"Ġlevels":8865,"Ġpopulations":8866,"Ġpowders":8867,"Ġfuture":8868,"ĠTelecom":8869,"ĠSurplus":8870,"ĠMead":8871,"ĠBiot":8872,"ĠBellev":8873,"ĠRaytheon":8874,"Ġrestoration":8875,"Ġrestorative":8876,"Ġindexes":8877,"ĠInvestor":8878,"ĠCarlsb":8879,"ĠInstrumentation":8880,"ĠEmployer":8881,"Ġvirtualization":8882,"APAC":8883,"deferred":8884,"naissance":8885,"ĠCytek":8886,"ĠPackage":8887,"Ġconfectionery":8888,"ĠWinchester":8889,"Ġattend":8890,"ĠExperience":8891,"ĠBroadband":8892,"Ġfractionating":8893,"vista":8894,"retch":8895,"ĠCustomers":8896,"ĠSingh":8897,"ĠPolymers":8898,"ĠPolyolef":8899,"ĠPremier":8900,"Ġtooling":8901,"ĠHamilton":8902,"ĠGrocery":8903,"Ġredevelop":8904,"Ġsignaling":8905,"Ġantibodies":8906,"ĠHawaiian":8907,"Ġcertificate":8908,"Ġpublishers":8909,"Ġultr":8910,"invasive":8911,"Ġcalcium":8912,"Ġbridges":8913,"ĠStructured":8914,"ĠSkyWest":8915,"ĠRogers":8916,"ĠErgen":8917,"ĠEmerging":8918,"ĠEmeryville":8919,"Ġdecking":8920,"ĠDownstream":8921,"Ġconsultancy":8922,"ĠKnight":8923,"ĠExecution":8924,"Ġpreservation":8925,"Ġearthmoving":8926,"Ġapproaches":8927,"Reilly":8928,"Ġpathway":8929,"Ġbelow":8930,"ĠMurray":8931,"ĠMurphy":8932,"Ġreconnaissance":8933,"Ġreliable":8934,"Ġdecor":8935,"Ġrenal":8936,"Ġresidual":8937,"Ġpreventive":8938,"yndham":8939,"Ġswitching":8940,"Ġauthorities":8941,"Ġdocumentation":8942,"Ġvegetables":8943,"Asia":8944,"Ġinternally":8945,"Ġmarketers":8946,"Ġwheat":8947,"Ġdestination":8948,"ĠCardiovascular":8949,"Ġeveryday":8950,"ĠLaurence":8951,"ĠJoe":8952,"Ġacceptance":8953,"Ġcoiled":8954,"Ġactionable":8955,"Ġrotor":8956,"Ġrotary":8957,"Ġattractive":8958,"Ġattractions":8959,"Ġexpanded":8960,"Ġhypertension":8961,"ĠPrinting":8962,"warding":8963,"Ġsanitizing":8964,"Ġticketing":8965,"Ġdatab":8966,"ĠClearing":8967,"ĠSiriusXM":8968,"ĠAudio":8969,"ĠEarth":8970,"ĠDominion":8971,"ĠLincolnshire":8972,"Ġgastroenter":8973,"ĠRecord":8974,"ĠRecipe":8975,"Ġinterconnects":8976,"Ġreference":8977,"Ġdressings":8978,"Ġcollege":8979,"Ġcolleges":8980,"Ġimmunotherapies":8981,"Ġfibrosis":8982,"ĠAcquisitions":8983,"Equity":8984,"Party":8985,"Regulated":8986,"Ġbedding":8987,"Ġbathroom":8988,"Ġdessert":8989,"Ġdesserts":8990,"ĠSensitive":8991,"ĠPopular":8992,"ĠEstablished":8993,"ĠFabrication":8994,"Ġeggs":8995,"Ġvitamins":8996,"ĠPrograms":8997,"ĠProgramming":8998,"Ġexploitation":8999,"Ġreduced":9000,"Ġreducing":9001,"Ġyearly":9002,"Ġefficiently":9003,"ĠBarbara":9004,"Ġbenchmarking":9005,"cloud":9006,"Ġcatering":9007,"Ġcartons":9008,"Ġbottles":9009,"ĠCampbell":9010,"untington":9011,"ĠMosaic":9012,"ĠBernard":9013,"ĠHewlett":9014,"Ġlaminate":9015,"ĠLowell":9016,"Ġtrials":9017,"Ġresistance":9018,"ĠVenue":9019,"Ġestablishments":9020,"ĠSeaborne":9021,"ĠPhillip":9022,"ĠRoyalty":9023,"Ġcorrectional":9024,"Ġperishables":9025,"Ġauthentication":9026,"ĠFrederic":9027,"Ġescrow":9028,"Ġdermatology":9029,"demand":9030,"dealer":9031,"Ġurology":9032,"Ġsyru":9033,"Ġsterilization":9034,"Ġsweet":9035,"rotid":9036,"ĠTotal":9037,"ĠTowable":9038,"Ġdomain":9039,"ĠCatalysts":9040,"ĠSilver":9041,"ĠMaggiano":9042,"ĠMaurice":9043,"ĠPumps":9044,"ĠBeyond":9045,"ĠBurger":9046,"Ġaspects":9047,"Ġhoses":9048,"ĠDynamics":9049,"ĠHPE":9050,"ĠHershey":9051,"ĠLifestyle":9052,"imensional":9053,"Ġtransparent":9054,"ĠCommodities":9055,"ĠKaplan":9056,"ĠRecycling":9057,"ĠCobalt":9058,"ĠDealerships":9059,"ĠConsumables":9060,"Ġsecuritization":9061,"Ġneuromodulation":9062,"ĠExtreme":9063,"ĠFlavors":9064,"ĠOrthop":9065,"ĠMonroe":9066,"Ġminimally":9067,"ĠRobotics":9068,"Ġbreadth":9069,"ĠWhitney":9070,"Ġaerosol":9071,"Ġbottled":9072,"General":9073,"Â®,":9074,"Ġartery":9075,"engineered":9076,"Ġterritories":9077,"ĠIHOP":9078,"ĠStaffing":9079,"advised":9080,"ĠAXS":9081,"ĠPasadena":9082,"ĠPepsi":9083,"Ġtownhomes":9084,"ĠEthanol":9085,"Ġletters":9086,"ĠLewis":9087,"Ġaccommod":9088,"Ġstimulation":9089,"inantly":9090,"Ġresonance":9091,"Ġcourses":9092,"ĠVictor":9093,"Ġpretzels":9094,"Ġrobots":9095,"ĠReservoir":9096,"Ġscientists":9097,"Ġsubstantially":9098,"Ġpolyolefin":9099,"Ġguidance":9100,"ĠStrategies":9101,"Ġcatheters":9102,"ĠPhilippines":9103,"Ġremaining":9104,"Ġharvesting":9105,"Davidson":9106,"sensitive":9107,"Ġsauces":9108,"Ġtickets":9109,"Ġinfrared":9110,"Ġophthal":9111,"Ġfriction":9112,"ĠTysons":9113,"Ġboutique":9114,"Ġachie":9115,"ĠCurtis":9116,"ellogg":9117,"ĠScreening":9118,"ĠAgribusiness":9119,"threatening":9120,"Ġremarketing":9121,"Ġrecommend":9122,"ĠPointe":9123,"ĠBaldwin":9124,"Ġhoneycomb":9125,"Ġnamely":9126,"Ġeither":9127,"Ġongoing":9128,"ĠHefty":9129,"Ġlibraries":9130,"ĠJoshua":9131,"bercrombie":9132,"Ġpredominantly":9133,"Ġexhaust":9134,"ĠVinyls":9135,"ĠFragrances":9136,"ĠIndonesia":9137,"Ġalgorithms":9138,"Ġsubscribers":9139,"Ġflagship":9140,"Ġentrepreneurs":9141,"olybdenum":9142,"Ġphosphate":9143,"ĠAggregates":9144,"Ġobligations":9145,"ĠBellevue":9146,"ĠCarlsbad":9147,"ĠPolyolefins":9148,".)":9149,"..":9150,"13":9151,"19":9152,"250":9153,"40":9154,"45":9155,"Ac":9156,"Av":9157,"Appl":9158,"ATM":9159,"Avid":9160,"BG":9161,"BI":9162,"Blo":9163,"Boston":9164,"Broad":9165,"Bridge":9166,"CD":9167,"CV":9168,"CX":9169,"Che":9170,"Cro":9171,"Cor":9172,"Clo":9173,"Cle":9174,"Cab":9175,"Custom":9176,"Char":9177,"Cash":9178,"Coh":9179,"Clear":9180,"Cino":9181,"DX":9182,"Du":9183,"Des":9184,"Den":9185,"Diamond":9186,"EA":9187,"EK":9188,"Ed":9189,"East":9190,"Ess":9191,"Enov":9192,"ESA":9193,"ECOM":9194,"FG":9195,"FX":9196,"For":9197,"Fol":9198,"Fort":9199,"FMS":9200,"Front":9201,"GG":9202,"Gro":9203,"He":9204,"Horn":9205,"IG":9206,"ICs":9207,"JM":9208,"John":9209,"Key":9210,"Kleen":9211,"LV":9212,"Lam":9213,"Leg":9214,"LNG":9215,"LTL":9216,"MP":9217,"Me":9218,"Mo":9219,"Med":9220,"Mur":9221,"Mac":9222,"Market":9223,"Mware":9224,"Mart":9225,"Micro":9226,"MRO":9227,"Medical":9228,"Mueller":9229,"NC":9230,"NV":9231,"NY":9232,"Ne":9233,"Now":9234,"NSO":9235,"NEX":9236,"OK":9237,"OR":9238,"OU":9239,"OV":9240,"Op":9241,"Ow":9242,"Own":9243,"Old":9244,"Off":9245,"Ops":9246,"Ocean":9247,"PN":9248,"Pac":9249,"Pod":9250,"Power":9251,"QM":9252,"Res":9253,"Ren":9254,"Rad":9255,"Ray":9256,"Rev":9257,"Roll":9258,"Se":9259,"Son":9260,"Sil":9261,"Ster":9262,"Sim":9263,"Systems":9264,"Sys":9265,"Sky":9266,"SFE":9267,"Solar":9268,"Stone":9269,"TA":9270,"Ter":9271,"Tec":9272,"Time":9273,"TAP":9274,"Target":9275,"UM":9276,"Ul":9277,"UTE":9278,"Vis":9279,"WR":9280,"Wal":9281,"Wood":9282,"Warner":9283,"XP":9284,"Zoom":9285,"aut":9286,"aque":9287,"bus":9288,"bel":9289,"bil":9290,"best":9291,"banking":9292,"bear":9293,"bags":9294,"border":9295,"ci":9296,"can":9297,"col":9298,"card":9299,"cav":9300,"dering":9301,"dered":9302,"dev":9303,"drous":9304,"deep":9305,"draw":9306,"dimensional":9307,"eeland":9308,"fare":9309,"fast":9310,"fight":9311,"fined":9312,"facing":9313,"function":9314,"facial":9315,"feit":9316,"gro":9317,"got":9318,"gets":9319,"green":9320,"hu":9321,"hus":9322,"hosp":9323,"hoh":9324,"iations":9325,"iod":9326,"iard":9327,"iative":9328,"iasis":9329,"iends":9330,"iological":9331,"iGas":9332,"ko":9333,"kor":9334,"kosh":9335,"kali":9336,"lad":9337,"lle":9338,"life":9339,"lish":9340,"lins":9341,"lined":9342,"lumber":9343,"mb":9344,"mp":9345,"men":9346,"mor":9347,"med":9348,"mos":9349,"mons":9350,"mixed":9351,"made":9352,"making":9353,"nal":9354,"nas":9355,"nie":9356,"name":9357,"oz":9358,"och":9359,"ocl":9360,"oists":9361,"pace":9362,"phar":9363,"pection":9364,"pne":9365,"pensing":9366,"price":9367,"run":9368,"ries":9369,"rie":9370,"rites":9371,"renia":9372,"sch":9373,"say":9374,"sales":9375,"sven":9376,"sohn":9377,"seling":9378,"tus":9379,"table":9380,"uo":9381,"uine":9382,"uver":9383,"uay":9384,"va":9385,"vi":9386,"vor":9387,"viv":9388,"vision":9389,"vian":9390,"vington":9391,"wer":9392,"wing":9393,"wise":9394,"wight":9395,"woods":9396,"where":9397,"woven":9398,"ye":9399,"yon":9400,"yber":9401,"year":9402,"yron":9403,"ydr":9404,"Ġion":9405,"Ġage":9406,"Ġorp":9407,"Ġumb":9408,"ĠâĢľ":9409,"Ġethylene":9410,"Ġurea":9411,"anial":9412,"anover":9413,"inz":9414,"incl":9415,"inding":9416,"ineries":9417,"including":9418,"infect":9419,"erwear":9420,"erfield":9421,"erosis":9422,"esec":9423,"anding":9424,"enh":9425,"enic":9426,"eness":9427,"enumb":9428,"oning":9429,"onis":9430,"onding":9431,"only":9432,"oncology":9433,"hel":9434,"heter":9435,"helf":9436,"heads":9437,"hepatitis":9438,"Ġservic":9439,"Ġsess":9440,"Ġsam":9441,"Ġsout":9442,"Ġsix":9443,"Ġsover":9444,"Ġsized":9445,"Ġsaw":9446,"Ġsalt":9447,"Ġtor":9448,"Ġtom":9449,"Ġtun":9450,"Ġtight":9451,"Ġtape":9452,"atal":9453,"atts":9454,"Ġinks":9455,"Ġincontin":9456,"Ġinput":9457,"Ġingest":9458,"Ġcas":9459,"Ġcog":9460,"Ġcuring":9461,"Ġcaul":9462,"Ġcasing":9463,"Ġcode":9464,"Ġcups":9465,"entown":9466,"enthal":9467,"rook":9468,"roke":9469,"roads":9470,"rophy":9471,"icel":9472,"icut":9473,"icop":9474,"icot":9475,"icron":9476,"icient":9477,"icators":9478,"orter":9479,"oria":9480,"orthern":9481,"oriasis":9482,"ede":9483,"edo":9484,"eden":9485,"edar":9486,"arches":9487,"arfare":9488,"Ġpor":9489,"Ġpure":9490,"Ġpanc":9491,"Ġpie":9492,"Ġpaid":9493,"Ġpict":9494,"Ġpension":9495,"Ġpoints":9496,"Ġpasta":9497,"Ġpawn":9498,"Ġpoker":9499,"Ġold":9500,"Ġolefins":9501,"mentive":9502,"Ġfine":9503,"Ġfash":9504,"Ġfish":9505,"Ġfind":9506,"Ġfruit":9507,"Ġfarms":9508,"Ġfeder":9509,"isy":9510,"isor":9511,"isch":9512,"isely":9513,"ĠTB":9514,"ĠTG":9515,"ĠTo":9516,"ĠTen":9517,"ĠTar":9518,"ĠTol":9519,"ĠTower":9520,"ĠTown":9521,"ĠToll":9522,"ĠTool":9523,"ĠTitanium":9524,"ĠTicket":9525,"ĠTRI":9526,"ĠTaco":9527,"ĠTaub":9528,"ĠTyler":9529,"asal":9530,"asers":9531,"asonal":9532,"asier":9533,"asification":9534,"omon":9535,"omic":9536,"omel":9537,"cter":9538,"iting":9539,"itter":9540,"itos":9541,"itory":9542,"itiatives":9543,"ole":9544,"olation":9545,"olia":9546,"olling":9547,"olators":9548,"Ġmal":9549,"Ġmolding":9550,"Ġmountain":9551,"Ġmalls":9552,"Ġmowers":9553,"Ġmoist":9554,"Ġmirror":9555,"ĠIan":9556,"ĠISG":9557,"ĠIFC":9558,"ĠICE":9559,"ĠIBM":9560,"ĠIFP":9561,"Ġseating":9562,"Ġsewer":9563,"Ġseasonal":9564,"Ġprostate":9565,"Ġproactive":9566,"Ġwing":9567,"Ġwave":9568,"Ġwaff":9569,"Ġwait":9570,"Ġwarfare":9571,"Ġbis":9572,"Ġbus":9573,"Ġbery":9574,"Ġbraz":9575,"Ġbrick":9576,"Ġbanners":9577,"Ġbauxite":9578,"agency":9579,"agwell":9580,"Ġcommission":9581,"Ġcomedy":9582,"Ġden":9583,"Ġdon":9584,"Ġdent":9585,"Ġdate":9586,"Ġdim":9587,"Ġdie":9588,"Ġdose":9589,"Ġdynamic":9590,"Ġaid":9591,"Ġaids":9592,"Ġaero":9593,"Ġawar":9594,"Ġauctions":9595,"Ġapne":9596,"ĠCz":9597,"ĠCro":9598,"ĠCre":9599,"ĠCel":9600,"ĠCad":9601,"ĠCort":9602,"ĠCab":9603,"ĠCay":9604,"ĠCross":9605,"ĠCorn":9606,"ĠCLE":9607,"ĠCards":9608,"ĠCylinders":9609,"ĠCMBS":9610,"ĠCactus":9611,"uster":9612,"usement":9613,"ushed":9614,"ushes":9615,"elis":9616,"elch":9617,"unsw":9618,"uter":9619,"uters":9620,"utility":9621,"utral":9622,"utches":9623,"Ġcompl":9624,"ĠSD":9625,"ĠSl":9626,"ĠSel":9627,"ĠSut":9628,"ĠSter":9629,"ĠSid":9630,"ĠSud":9631,"ĠSab":9632,"ĠSpe":9633,"ĠSuc":9634,"ĠSav":9635,"ĠSeas":9636,"ĠSustain":9637,"ĠSatell":9638,"ĠSleep":9639,"ĠSiding":9640,"ĠSplunk":9641,"ilent":9642,"ilers":9643,"ilgr":9644,"terra":9645,"eting":9646,"etta":9647,"etric":9648,"etically":9649,"adr":9650,"aduate":9651,"adigm":9652,"ura":9653,"urts":9654,"urally":9655,"urasia":9656,"quake":9657,"quencing":9658,"qualified":9659,"ersions":9660,"Ġislands":9661,"Ġisomer":9662,"idad":9663,"idence":9664,"idian":9665,"idelity":9666,"loves":9667,"Ġhedging":9668,"Ġhepatitis":9669,"ĠME":9670,"ĠMol":9671,"ĠMile":9672,"ĠMedit":9673,"ĠMore":9674,"ĠMong":9675,"ĠMeter":9676,"ĠMechan":9677,"ĠMilitary":9678,"ĠMaster":9679,"ĠMeston":9680,"ĠMeyer":9681,"ĠMiche":9682,"ĠMoody":9683,"undo":9684,"undle":9685,"ĠAx":9686,"ĠApe":9687,"ĠAME":9688,"ĠAuction":9689,"ĠAWS":9690,"ĠAurora":9691,"ĠInhibrx":9692,"ĠInitiatives":9693,"ductors":9694,"Ġthen":9695,"Ġenclo":9696,"tress":9697,"trate":9698,"trans":9699,"trip":9700,"train":9701,"trade":9702,"traditional":9703,"tracker":9704,"learn":9705,"thorne":9706,"thropic":9707,"esson":9708,"chron":9709,"charge":9710,"Ġrear":9711,"Ġread":9712,"Ġrecl":9713,"Ġrepl":9714,"Ġrevol":9715,"ĠPX":9716,"ĠPu":9717,"ĠPul":9718,"ĠPly":9719,"ĠPick":9720,"ĠPier":9721,"ĠPSE":9722,"ĠPiping":9723,"ĠPJM":9724,"Ġfoundry":9725,"uda":9726,"udget":9727,"ival":9728,"ivities":9729,"ivia":9730,"gagement":9731,"Ġconven":9732,"Ġcontribution":9733,"Ġconcession":9734,"Ġtoil":9735,"Ġtouch":9736,"Ġget":9737,"Ġgif":9738,"Ġgravel":9739,"Ġgypsum":9740,"Ġgloves":9741,"esto":9742,"estanding":9743,"ĠBM":9744,"ĠBab":9745,"ĠBart":9746,"ĠBob":9747,"ĠBend":9748,"ĠBerm":9749,"ĠBuck":9750,"ĠBond":9751,"ĠBaking":9752,"ĠBasic":9753,"ĠBitcoin":9754,"ĠBSI":9755,"ĠBentley":9756,"ĠBundle":9757,"Ġengaging":9758,"clusion":9759,"clerosis":9760,"ston":9761,"strom":9762,"stellation":9763,"irm":9764,"Ġincluded":9765,"ĠRP":9766,"ĠRag":9767,"ĠRud":9768,"ĠRaf":9769,"ĠRight":9770,"ĠRath":9771,"ĠRose":9772,"ĠRaw":9773,"ĠRaj":9774,"ĠRNG":9775,"ĠRao":9776,"ĠRena":9777,"ĠRidge":9778,"ĠEM":9779,"ĠEich":9780,"ĠEff":9781,"ĠEug":9782,"ĠEcho":9783,"ĠEQM":9784,"ĠEurasia":9785,"Ġasbest":9786,"ĠNM":9787,"ĠNo":9788,"ĠNim":9789,"ĠNap":9790,"ĠNex":9791,"ĠNature":9792,"ĠNurse":9793,"ĠNelson":9794,"Ġham":9795,"Ġhum":9796,"Ġhow":9797,"Ġhub":9798,"Ġhorm":9799,"Ġhaving":9800,"Ġhorizon":9801,"Ġhunting":9802,"Ġherb":9803,"orton":9804,"Ġnumer":9805,"Ġnative":9806,"Ġnich":9807,"Ġnick":9808,"Ġnano":9809,"Ġnonalcoholic":9810,"Ġnicot":9811,"Ġnorthern":9812,"ĠFut":9813,"ĠFle":9814,"ĠFul":9815,"ĠFace":9816,"ĠFix":9817,"ĠFinal":9818,"ĠFurniture":9819,"ĠFert":9820,"ĠFusion":9821,"ĠFeed":9822,"ĠFibers":9823,"ĠFlyn":9824,"ĠFERC":9825,"ĠFargo":9826,"ĠFunctional":9827,"Ġecommerce":9828,"ĠDa":9829,"ĠDu":9830,"ĠDar":9831,"ĠDest":9832,"ĠDot":9833,"ĠDew":9834,"ĠDick":9835,"ĠDiet":9836,"ĠDiesel":9837,"ĠDorado":9838,"ĠDIS":9839,"ĠDayton":9840,"ĠDIY":9841,"ĠDmit":9842,"ĠDwight":9843,"ĠHat":9844,"ĠHank":9845,"ĠHigh":9846,"ĠHend":9847,"ĠHerm":9848,"ĠHost":9849,"ĠHug":9850,"ĠHuman":9851,"ĠHern":9852,"ĠHold":9853,"ĠHSA":9854,"ĠHarol":9855,"ĠHanes":9856,"ĠHaven":9857,"ĠHabit":9858,"ĠHanover":9859,"Ġrhe":9860,"Ġrates":9861,"Ġrac":9862,"Ġrain":9863,"Ġrend":9864,"Ġranch":9865,"Ġrides":9866,"Ġrenewables":9867,"Ġracing":9868,"Ġlig":9869,"Ġlens":9870,"Ġlink":9871,"Ġlateral":9872,"Ġliners":9873,"Ġliner":9874,"Ġlinger":9875,"ĠOk":9876,"ĠOll":9877,"ĠOTC":9878,"ĠGill":9879,"ĠGables":9880,"ĠGround":9881,"ĠGetty":9882,"amed":9883,"amas":9884,"aminan":9885,"amount":9886,"arkling":9887,"aced":9888,"acity":9889,"emp":9890,"ems":9891,"emeter":9892,"optical":9893,"ĠWS":9894,"ĠWV":9895,"ĠWes":9896,"ĠWet":9897,"ĠWiz":9898,"ĠWith":9899,"ĠWend":9900,"ĠWagn":9901,"ĠWalt":9902,"ĠWars":9903,"ĠWiley":9904,"ĠWyndham":9905,"ĠWelch":9906,"igi":9907,"iggs":9908,"ĠLy":9909,"ĠLan":9910,"ĠLund":9911,"ĠLive":9912,"ĠLang":9913,"ĠLux":9914,"ĠLilly":9915,"Ġtrash":9916,"Ġtruss":9917,"Ġtrips":9918,"arketing":9919,"imates":9920,"iminal":9921,"Ġsuc":9922,"orption":9923,"Ġviv":9924,"Ġvide":9925,"Ġvend":9926,"Ġview":9927,"osa":9928,"oss":9929,"osin":9930,"oda":9931,"odef":9932,"ĠJul":9933,"ĠJam":9934,"ĠJoint":9935,"ĠJustin":9936,"ĠJoy":9937,"ĠJared":9938,"Ġdisabled":9939,"Ġdispers":9940,"Ġdiscovers":9941,"ifies":9942,"ifically":9943,"echt":9944,"anklin":9945,"oty":9946,"oting":9947,"otain":9948,"otechnical":9949,"ibur":9950,"apa":9951,"aping":9952,"verter":9953,"ummin":9954,"umulation":9955,"former":9956,"Ġaccur":9957,"Ġindications":9958,"ĠUpton":9959,"ĠUGG":9960,"ellar":9961,"aya":9962,"ayage":9963,"peptide":9964,"Ġstop":9965,"Ġstack":9966,"Ġstamping":9967,"Ġstretch":9968,"Ġstarches":9969,"izens":9970,"izable":9971,"izant":9972,"izoph":9973,"cessing":9974,"owen":9975,"owitz":9976,"Ġotherwise":9977,"rich":9978,"Ġlots":9979,"Ġloading":9980,"ewire":9981,"ewart":9982,"ensers":9983,"ensible":9984,"berl":9985,"Ġprior":9986,"ĠProduc":9987,"ĠProvo":9988,"Ġtransca":9989,"Ġtransistors":9990,"Ġresin":9991,"Ġresil":9992,"Ġresident":9993,"Ġrestructuring":9994,"Ġrescue":9995,"llium":9996,"illery":9997,"illips":9998,"Ġexist":9999,"orship":10000,"coated":10001,"Ġcustoms":10002,"Ġadher":10003,"Ġadjacent":10004,"Ġadaptive":10005,"Ġwithdraw":10006,"Ġtechnological":10007,"ergrad":10008,"Ġore":10009,"Ġorches":10010,"Ġordering":10011,"ĠComm":10012,"ĠCommand":10013,"grading":10014,"graving":10015,"ĠSto":10016,"ĠStation":10017,"ĠStream":10018,"ĠStanton":10019,"munition":10020,"ĠKer":10021,"ĠKro":10022,"ĠKib":10023,"ĠKFC":10024,"ĠKrispy":10025,"ĠKellogg":10026,"private":10027,"Ġcoast":10028,"Ġcoach":10029,"Ġcourse":10030,"ĠVI":10031,"ĠVi":10032,"ĠVis":10033,"ĠVel":10034,"ĠVeter":10035,"ĠVander":10036,"ĠVanco":10037,"ĠVlad":10038,"anche":10039,"ancaster":10040,"onster":10041,"itioners":10042,"ples":10043,"planes":10044,"placed":10045,"ĠRev":10046,"ĠReven":10047,"ĠRecovery":10048,"ĠReading":10049,"ĠRecreation":10050,"ultative":10051,"Ġcryst":10052,"Ġcraft":10053,"Ġcruis":10054,"Ġcrystal":10055,"Ġcrushed":10056,"ube":10057,"avor":10058,"astatic":10059,"Ġclad":10060,"Ġclimate":10061,"Ġclutches":10062,"Ġmedication":10063,"Ġstorm":10064,"Ġestrogen":10065,"Ġprocessor":10066,"ĠEngagement":10067,"nitive":10068,"lym":10069,"pto":10070,"working":10071,"Ġapplies":10072,"ĠCoal":10073,"ĠCoating":10074,"ĠCoach":10075,"ĠCovington":10076,"Ġchoice":10077,"Ġchairs":10078,"Ġchoose":10079,"obil":10080,"Ġleaf":10081,"Ġleather":10082,"tains":10083,"cury":10084,"rometry":10085,"ĠTrail":10086,"ĠTriple":10087,"ĠTravis":10088,"antis":10089,"antir":10090,"ocation":10091,"occup":10092,"endel":10093,"endale":10094,"Ġcontroll":10095,"Ġcontaminan":10096,"ĠProductivity":10097,"ruits":10098,"associated":10099,"ĠManagers":10100,"bster":10101,"ualcomm":10102,"Ġactuators":10103,"ĠAssurance":10104,"hole":10105,"ĠDeerfield":10106,"ĠSeb":10107,"ĠNorthbrook":10108,"Ġfacing":10109,"Ġfacultative":10110,"ĠFrench":10111,"ĠFranco":10112,"ĠFriday":10113,"Ġagro":10114,"Ġinterim":10115,"Ġinterfaces":10116,"Ġinterpret":10117,"Ġportals":10118,"ĠConsul":10119,"ĠConshoh":10120,"Ġpowerful":10121,"Ġ180":10122,"Ġimpair":10123,"anny":10124,"Ġaccessed":10125,"Ġalcoholic":10126,"Ġalarms":10127,"ĠAna":10128,"ĠAntero":10129,"Ġundergrad":10130,"edite":10131,"hips":10132,"Ġhomebuy":10133,"Ġintegrin":10134,"Ġsmok":10135,"ĠChen":10136,"ĠChad":10137,"ĠCharter":10138,"ĠChlor":10139,"ĠChurch":10140,"ĠChild":10141,"Ġfraud":10142,"ĠOperated":10143,"ĠOperational":10144,"Ġsolve":10145,"Ġnonpeptide":10146,"Ġairframe":10147,"ĠMarina":10148,"Ġactivation":10149,"Ġactivated":10150,"Ġactively":10151,"Ġactivator":10152,"ichannel":10153,"eek":10154,"eeker":10155,"Ġpayout":10156,"Ġouterwear":10157,"ĠMidwestern":10158,"Ġshif":10159,"Ġshave":10160,"Ġshirts":10161,"Ġshafts":10162,"Ġrefinance":10163,"Ġrefurb":10164,"Ġregulation":10165,"Ġregasification":10166,"kside":10167,"kshire":10168,"Ġspa":10169,"Ġsparkling":10170,"Ġtreaty":10171,"Ġanalytic":10172,"Ġrock":10173,"ohydr":10174,"Ġneutral":10175,"âĢĵ":10176,"etyl":10177,"Ġcartr":10178,"Ġcarbons":10179,"Ġinvolving":10180,"anchored":10181,"reeze":10182,"Ġmetastatic":10183,"ĠCanyon":10184,"ieu":10185,"Ġclouds":10186,"Ġappraisal":10187,"Ġ1974":10188,"Ġscal":10189,"Ġscanning":10190,"Ġscores":10191,"Ġmultip":10192,"Ġmultim":10193,"tenstein":10194,"Ġdriver":10195,"Ġdrivetrain":10196,"Ġdrayage":10197,"Ġworkloads":10198,"ĠConway":10199,"ĠConcepts":10200,"ĠSouthfield":10201,"ĠSouthwest":10202,"ĠSouthwestern":10203,"Ġtraded":10204,"prot":10205,"Ġcolocation":10206,"Ġmonox":10207,"Ġmonocl":10208,"ĠTransport":10209,"Ġatrophy":10210,"ugal":10211,"ordan":10212,"ĠMarketplace":10213,"ĠAlber":10214,"ĠAlzhe":10215,"ĠAlkali":10216,"ĠAlphar":10217,"Ġoptic":10218,"Ġexpedite":10219,"ĠAdam":10220,"ĠAdjust":10221,"ĠArcBest":10222,"iams":10223,"ographic":10224,"ĠCompute":10225,"ĠCompensation":10226,"ĠCompound":10227,"Ġcardio":10228,"ĠBankers":10229,"ĠDiscover":10230,"Ġgrooming":10231,"Ġflame":10232,"Ġflights":10233,"Ġparame":10234,"Ġgeother":10235,"Ġgeotechnical":10236,"boe":10237,"borough":10238,"books":10239,"bocharg":10240,"Ġhydr":10241,"oku":10242,"iversity":10243,"istries":10244,"Ġclinicians":10245,"minster":10246,"Ġintended":10247,"Ġintimate":10248,"Ġintimates":10249,"Ġbroader":10250,"Ġvalu":10251,"Ġarts":10252,"drive":10253,"Ġendow":10254,"Ġendocrine":10255,"ĠPlains":10256,"ennan":10257,"Ġmodification":10258,"ĠClin":10259,"ĠClar":10260,"ĠClay":10261,"ĠClients":10262,"ĠBeef":10263,"ĠExton":10264,"Ġliquor":10265,"management":10266,"Ġpets":10267,"ocken":10268,"Ġdirected":10269,"Ġcereals":10270,"ega":10271,"ecker":10272,"Ġstress":10273,"Ġstrike":10274,"Ġsystemic":10275,"ĠAllentown":10276,"Ġkin":10277,"ĠCollins":10278,"Ġpublication":10279,"ĠCarMax":10280,"ĠCarpenter":10281,"imeter":10282,"Ġoriginations":10283,"hoe":10284,"Ġincident":10285,"Ġincorpor":10286,"ĠZero":10287,"ĠZimmer":10288,"ĠZeeland":10289,"ĠPrime":10290,"ĠPratt":10291,"ĠPruss":10292,"Ġhelicop":10293,"Ġcontracted":10294,"Ġhandle":10295,"Ġhandbags":10296,"ĠWestminster":10297,"Ġlogic":10298,"Ġconnector":10299,"ĠBrit":10300,"ĠBrink":10301,"ĠBraint":10302,"Ġadminister":10303,"Ġpurchased":10304,"ĠLoews":10305,"Ġfranchisor":10306,"angers":10307,"Ġconduit":10308,"Ġhospice":10309,"Ġrepairing":10310,"Ġentry":10311,"olytic":10312,"ĠRoberts":10313,"Ġsteato":10314,"Ġmeats":10315,"MED":10316,"Ġlightweight":10317,"Ġindependently":10318,"Ġemployed":10319,"shkosh":10320,"Ġcombinations":10321,"sea":10322,"second":10323,"Ġorganizational":10324,"ĠBros":10325,"ĠBroomfield":10326,"Ġcellulose":10327,"Ġamusement":10328,"Ġammunition":10329,"ĠAutonom":10330,"Ġnotably":10331,"Ġ1925":10332,"ĠCentury":10333,"Ġgrades":10334,"Ġgrafts":10335,"Ġgraduate":10336,"Inv":10337,"like":10338,"Ġcomputational":10339,"ĠMcG":10340,"ĠMcN":10341,"Ġ1949":10342,"Ġinstalls":10343,"Ġfeature":10344,"Ġ1900":10345,"Ġ1908":10346,"Ġ1909":10347,"present":10348,"Ġmachining":10349,"Ġmachined":10350,"ĠShot":10351,"ĠShaw":10352,"auge":10353,"Ġfreestanding":10354,"ĠPhosph":10355,"Ġ1932":10356,"Ġsurgeons":10357,"Ġsubject":10358,"Ġsubway":10359,"Ġsuburban":10360,"ĠAccept":10361,"Ġtravelers":10362,"ĠBox":10363,"ĠBooth":10364,"uilders":10365,"ĠMini":10366,"ĠMineral":10367,"ĠMinute":10368,"Ġtransactional":10369,"ĠFlat":10370,"ritos":10371,"Ġupd":10372,"Ġupscale":10373,"Ġupgrade":10374,"Ġupgrading":10375,"Ġsaving":10376,"arsen":10377,"Ġmetalworking":10378,"eshare":10379,"location":10380,"wards":10381,"ĠMoney":10382,"ĠBlake":10383,"ĠBluff":10384,"Ġarranging":10385,"Ġtelehealth":10386,"Ġpeer":10387,"Ġdealership":10388,"Ġliver":10389,"operating":10390,"operative":10391,"operators":10392,"Ġmeasures":10393,"Ġrailcar":10394,"Ġrailcars":10395,"Ġconditioners":10396,"Ġquarry":10397,"Ġqualified":10398,"ĠScho":10399,"ĠApps":10400,"Ġassociations":10401,"Ġbrass":10402,"ĠSmucker":10403,"ĠMISO":10404,"ĠElastics":10405,"Ġmerchandisers":10406,"Ġinfotain":10407,"Ġphase":10408,"Ġphilan":10409,"Ġgenetics":10410,"Ġgenetically":10411,"Ġformat":10412,"Ġformations":10413,"Ġlinear":10414,"Ġ1890":10415,"Ġ1891":10416,"Ġ1893":10417,"Ġneurovascular":10418,"Ġneuroscience":10419,"Ġrecogn":10420,"ĠLogan":10421,"ĠRefund":10422,"remities":10423,"ĠParks":10424,"ĠRoth":10425,"ĠRoofing":10426,"lowserve":10427,"Ġadditive":10428,"ĠAndre":10429,"Ġsensitive":10430,"Ġchargers":10431,"Ġmints":10432,"Ġmarinas":10433,"ĠAZEK":10434,"ĠLeased":10435,"Ġsoil":10436,"Ġsoap":10437,"Ġsoups":10438,"ulfur":10439,"Ġtyp":10440,"rowd":10441,"rowth":10442,"rowitz":10443,"ĠIrwin":10444,"Ġselectively":10445,"Ġprotecting":10446,"Ġfireplaces":10447,"Ġfirefight":10448,"ĠInterstate":10449,"ĠInterconnect":10450,"Ġguest":10451,"Ġguard":10452,"ĠUniversity":10453,"Ġimmunology":10454,"Ġimmunological":10455,"Ġimmunodef":10456,"Ġshell":10457,"Ġcorros":10458,"logene":10459,"ĠInsights":10460,"ĠInspection":10461,"Ġrefrigerators":10462,"Community":10463,"Ġcataly":10464,"ormel":10465,"ĠWalden":10466,"forcements":10467,"Ġstreams":10468,"Ġstreamlines":10469,"ĠMedicine":10470,"Ġpainting":10471,"Ġpassive":10472,"ĠMOSFE":10473,"Ġbiotech":10474,"Ġhydroxide":10475,"Ġperf":10476,"Ġperiod":10477,"Ġpertains":10478,"Ġabove":10479,"ĠAgencies":10480,"ĠDrive":10481,"ĠDriver":10482,"ĠHeat":10483,"ĠHeights":10484,"ĠHeinz":10485,"Ġradiation":10486,"Ġstudies":10487,"Ġstudio":10488,"Ġimplements":10489,"arma":10490,"Ġmusical":10491,"Ġmuscular":10492,"ĠNorman":10493,"ĠDiabetes":10494,"ĠGrain":10495,"imberly":10496,"Ġcarbonate":10497,"Ġ48":10498,"ĠQue":10499,"ĠQualcomm":10500,"Ġyouth":10501,"Ġartists":10502,"Ġskill":10503,"Ġfundraising":10504,"Ġderive":10505,"Ġfractional":10506,"ROUTE":10507,"iquid":10508,"ĠXbox":10509,"Ġfabricates":10510,"ĠParent":10511,"ĠRocky":10512,"ĠRocket":10513,"ĠRockies":10514,"ĠRockland":10515,"Ġaccumulation":10516,"Ġcounseling":10517,"Ġarchitects":10518,"Enter":10519,"Ġrequiring":10520,"Ġvolume":10521,"Ġconsistent":10522,"Ġcompressing":10523,"innacle":10524,"Ġsustainment":10525,"Ġcauses":10526,"Ġcurtain":10527,"Ġblend":10528,"Ġblue":10529,"Ġblends":10530,"ifying":10531,"Ġpresent":10532,"Ġpresence":10533,"Exp":10534,"carbon":10535,"Ġschizoph":10536,"ĠCamden":10537,"electronics":10538,"ĠPerkins":10539,"Ġcloset":10540,"Trac":10541,"Trans":10542,"Trust":10543,"Ġtenable":10544,"ĠPapers":10545,"Ġtowing":10546,"Ġ178":10547,"Ġ179":10548,"ĠHyde":10549,"ĠHawthorne":10550,"Ġdisposing":10551,"Ġpractitioners":10552,"Ġexecut":10553,"Ġexecute":10554,"Ġactivewear":10555,"Ġagreement":10556,"raulics":10557,"Ġaddresses":10558,"Ġaddressing":10559,"ipps":10560,"Ġsalon":10561,"Ġsecurely":10562,"ĠSunoco":10563,"ĠPete":10564,"Ġilliquid":10565,"Ġpostpaid":10566,"Ġpostsecond":10567,"ĠMissiles":10568,"ĠWorks":10569,"ĠWorkers":10570,"Ġreservations":10571,"Ġextremities":10572,"Ġscreens":10573,"ĠGreenwood":10574,"ĠDiagnostic":10575,"America":10576,"Americas":10577,"Ġsnacking":10578,"Ġintraven":10579,"Ġmixing":10580,"Ġbetting":10581,"Ġleadership":10582,"Ġ1877":10583,"Ġfeedstocks":10584,"Ġperforms":10585,"ĠSimply":10586,"ĠRosem":10587,"ĠRosenthal":10588,"ĠRobinson":10589,"ĠDivisions":10590,"ĠOnc":10591,"ĠOnline":10592,"ĠOntar":10593,"pression":10594,"Ġaggregation":10595,"Ġnewspaper":10596,"Ġparticular":10597,"Ġguaranty":10598,"Added":10599,"Advis":10600,"Ġteach":10601,"Ġpositions":10602,"Ġmolecules":10603,"Ġissuing":10604,"ĠGlendale":10605,"ĠLaSal":10606,"Ġtracker":10607,"Ġsupermarket":10608,"Ġclaim":10609,"Ġshareholder":10610,"Ġcardiology":10611,"nowfl":10612,"ĠIslands":10613,"ĠSauc":10614,"ĠSweden":10615,"Ġconcentrate":10616,"aysia":10617,"Ġanywhere":10618,"Ġassessments":10619,"Ġ1851":10620,"Ġ1852":10621,"Ġ1853":10622,"Ġ1857":10623,"Ġrobust":10624,"Healthcare":10625,"LED":10626,"LETE":10627,"Ġfinishes":10628,"ĠTesting":10629,"Ġbarriers":10630,"ĠARV":10631,"ĠActivision":10632,"ĠActivities":10633,"ulinum":10634,"ĠCouncil":10635,"connected":10636,"Ġguarantees":10637,"iki":10638,"nesville":10639,"errain":10640,"Ġwallboard":10641,"Ġbreak":10642,"ĠChef":10643,"ĠCoral":10644,"ĠMalvern":10645,"ĠMalaysia":10646,"ĠAmeriGas":10647,"ĠBurke":10648,"Ġepis":10649,"Ġdispensers":10650,"ĠConnecticut":10651,"Ġcertification":10652,"GIC":10653,"Ġpowers":10654,"Ġpowdered":10655,"losure":10656,"ĠRailing":10657,"ĠLongHorn":10658,"apeake":10659,"Ġorthodontic":10660,"ĠCompliance":10661,"ĠCarlson":10662,"ĠCarlisle":10663,"Ġphotovoltaic":10664,"Ġparticipation":10665,"flare":10666,"uidewire":10667,"Ġturkey":10668,"Ġturbocharg":10669,"Ġfreez":10670,"Ġmemorialization":10671,"Ġwearables":10672,"Ġdockside":10673,"ĠCyber":10674,"ĠSandy":10675,"ĠSandra":10676,"ĠFairfield":10677,"ĠHolland":10678,"Ġrigging":10679,"ĠOaks":10680,"ĠOakland":10681,"ĠWinter":10682,"ĠEnglish":10683,"Ġbroadcasting":10684,"Ġoccupiers":10685,"Ġchemistries":10686,"ĠTurf":10687,"rett":10688,"Ġborrowing":10689,"ĠMadden":10690,"Ġgoals":10691,"Ġdeploys":10692,"ĠGrove":10693,"ĠGrosven":10694,"ĠWireline":10695,"Ġprinted":10696,"Ġunderserved":10697,"Ġsponsored":10698,"Ġdiagnos":10699,"Ġcondensers":10700,"ĠQuaker":10701,"ĠFootwear":10702,"oulos":10703,"Ġeditorial":10704,"Ġinitiatives":10705,"Ġcementing":10706,"Ġfarmers":10707,"ĠCRM":10708,"ĠMoore":10709,"ĠMaxwell":10710,"ĠFleetNet":10711,"ĠDowners":10712,"ĠOliver":10713,"ullen":10714,"Ġconsultation":10715,"Ġconsultative":10716,"ĠVerizon":10717,"Ġprecisely":10718,"Ġbiomass":10719,"Ġbiomedical":10720,"Ġbiometric":10721,"ĠMcLennan":10722,"Ġpreserve":10723,"Ġearthquake":10724,"Ġobjectives":10725,"Ġintermediaries":10726,"Blue":10727,"Connect":10728,"Ġzinc":10729,"Ġzero":10730,"Ġtimberlands":10731,"Ġcustodial":10732,"Ġcivilian":10733,"Ġbowel":10734,"Ġbowling":10735,"ĠSnacking":10736,"ĠMelville":10737,"ĠMelbour":10738,"ĠPartnership":10739,"Ġdecorative":10740,"Ġharness":10741,"Ġlarger":10742,"Ġlargely":10743,"Ġvessel":10744,"ĠVacations":10745,"Ġuniform":10746,"Ġalloys":10747,"Ġbooking":10748,"ĠMcKinney":10749,"Ġfeaturing":10750,"Ġreceivable":10751,"Ġauthorized":10752,"ĠComplete":10753,"Plus":10754,"Rocket":10755,"otsie":10756,"ĠiGaming":10757,"Ġpsoriasis":10758,"Ġobserv":10759,"Ġobstructive":10760,"ismic":10761,"Ġabsorb":10762,"Ġabsorption":10763,"ĠShel":10764,"performing":10765,"Ġgreater":10766,"Ġearned":10767,"Ġdistance":10768,"Ġdistillers":10769,"ĠUniti":10770,"Ġstabilization":10771,"Ġcoils":10772,"Ġcontacts":10773,"Ġmonetize":10774,"ĠArkoma":10775,"ĠPrince":10776,"ĠSupermarkets":10777,"ĠOrigination":10778,"ĠSmartS":10779,"Ġsyndicated":10780,"Ġsyndrome":10781,"Credit":10782,"Franklin":10783,"Spirit":10784,"Ġsulfate":10785,"Ġinsured":10786,"Ġinsuring":10787,"Ġcabin":10788,"Ġceilings":10789,"Ġmyasth":10790,"Ġmyosin":10791,"Ġcommissions":10792,"ĠCellular":10793,"Ġreinforced":10794,"Ġreinforcements":10795,"ĠPatient":10796,"ĠBusey":10797,"ĠButter":10798,"ĠBillerica":10799,"ĠRemediation":10800,"ĠRussia":10801,"ĠEarl":10802,"ĠElliot":10803,"Ġdependent":10804,"Ġeyewear":10805,"ĠDesign":10806,"Ġ360":10807,"ĠPrinceton":10808,"ĠBradstreet":10809,"Ġradiators":10810,"Ġradiology":10811,"Ġfibrotic":10812,"halation":10813,"purpose":10814,"Ġpickup":10815,"olingo":10816,"Ġmatrix":10817,"ĠCerity":10818,"ĠShopping":10819,"ĠRubin":10820,"ĠRubber":10821,"ĠDeriv":10822,"ĠDurham":10823,"Ġrapidly":10824,"Ġvitro":10825,"ĠJacobs":10826,"ĠJacobson":10827,"Ġpatented":10828,"Ġexploits":10829,"ĠExpedia":10830,"Ġammonium":10831,"Ġnotebooks":10832,"ĠPhotonics":10833,"Ġsurfaces":10834,"Ġyears":10835,"ĠNichols":10836,"Ġdigitally":10837,"Ġdigitizes":10838,"Columb":10839,"Colony":10840,"Phillips":10841,"Strike":10842,"handling":10843,"Ġtiming":10844,"Ġcampuses":10845,"Ġprofitability":10846,"Ġbottling":10847,"ĠCDX":10848,"ĠCVL":10849,"ĠCVR":10850,"ĠSolution":10851,"ĠMagnus":10852,"Ġconveying":10853,"ĠBorisy":10854,"ĠBernstein":10855,"ĠRodney":10856,"ĠFilms":10857,"ĠFiltration":10858,"ĠHaynesville":10859,"ĠHardware":10860,"Ġtrimmers":10861,"Ġpredictive":10862,"ucleic":10863,"Ġextrusions":10864,"Ġextruded":10865,"Ġestablished":10866,"ĠPlanet":10867,"Insight":10868,"ĠPhillips":10869,"Ġcharacterization":10870,"Ġperishable":10871,"ĠFrederick":10872,"Ġpsychiatric":10873,"Ġescal":10874,"Ġdistinctive":10875,"MAX":10876,"oDB":10877,"Ġpolishing":10878,"Ġomni":10879,"Ġomnichannel":10880,"Ġcompetitive":10881,"illofacial":10882,"ĠInnovations":10883,"Ġrepositioning":10884,"Ġrecovering":10885,"Ġremodeling":10886,"Ġdeterg":10887,"Ġdetermin":10888,"Ġnavigation":10889,"ĠFastening":10890,"oscopy":10891,"ĠEndoscopy":10892,"curring":10893,"currency":10894,"Ġnecessity":10895,"Ġnecessary":10896,"Ġmetrology":10897,"ĠConversational":10898,"Ġtelemarketing":10899,"Ġsubordinate":10900,"Ġsubordinated":10901,"ounted":10902,"ĠSchwab":10903,"ĠSchwartz":10904,"Ġinflammatory":10905,"Ġdifficult":10906,"ĠEvansville":10907,"Ġconfiguration":10908,"Ġconfigurable":10909,"Ġfertilizers":10910,"Ġsulfuric":10911,"Ġsuspended":10912,"Ġsuspension":10913,"Apollo":10914,"Employ":10915,"Suite":10916,"Williams":10917,"hattan":10918,"linked":10919,"Ġcasting":10920,"Ġpavement":10921,"Ġpioneering":10922,"Ġpigments":10923,"Ġfixation":10924,"ĠIdentification":10925,"Ġproblem":10926,"ĠCinema":10927,"ĠCasa":10928,"ĠCallaway":10929,"ĠSundance":10930,"Ġremanufactured":10931,"ĠPhysical":10932,"Ġgarage":10933,"ĠBedford":10934,"ĠBatesville":10935,"ĠBryan":10936,"ĠRandall":10937,"ĠRamon":10938,"ĠENROUTE":10939,"Ġdegrader":10940,"ĠONTAP":10941,"ĠOtto":10942,"ĠGhana":10943,"ĠGardens":10944,"ĠGameStop":10945,"ĠGPUs":10946,"ĠLexington":10947,"Ġdiscipline":10948,"Ġstartup":10949,"Ġanchor":10950,"Ġanhydrous":10951,"ĠProvidence":10952,"Ġelimination":10953,"Ġcouplings":10954,"ĠFramingham":10955,"Ġinteractions":10956,"ĠChampion":10957,"Ġcarbide":10958,"Ġempowers":10959,"Ġworkspace":10960,"ĠAlbany":10961,"Ġjourney":10962,"Ġincentives":10963,"Ġmetering":10964,"ĠSupplemental":10965,"Ġsubmarines":10966,"ĠGreensboro":10967,"ĠElkhart":10968,"ĠLeadership":10969,"Ġmicrobiological":10970,"Ġshelving":10971,"Ġcatalogs":10972,"ĠAgriculture":10973,"ĠSunseeker":10974,"Advanced":10975,"Ġwheeled":10976,"Ġtoxicology":10977,"Beam":10978,"aesars":10979,"catheter":10980,"packaged":10981,"washers":10982,"Ġuranium":10983,"onucleotide":10984,"Ġspeech":10985,"Ġincurred":10986,"Ġpontoon":10987,"Ġpneumatic":10988,"Ġmilk":10989,"Ġmortar":10990,"Ġdilig":10991,"Ġdamage":10992,"ĠCastle":10993,"ĠClemente":10994,"ĠSyndicate":10995,"ĠIngalls":10996,"Ġthoracic":10997,"ĠPandora":10998,"Ġgamma":10999,"Ġgardening":11000,"ĠBanana":11001,"ĠRingCentral":11002,"ĠERCOT":11003,"Ġnortheastern":11004,"ĠDraper":11005,"ĠOverton":11006,"ĠGamble":11007,"ĠWheels":11008,"ĠLorenz":11009,"ĠLodging":11010,"ĠLennar":11011,"Ġvibration":11012,"Ġdishwashers":11013,"Ġacoustic":11014,"Ġloyalty":11015,"Ġexposure":11016,"ĠVTX":11017,"Ġcrackers":11018,"ĠSegundo":11019,"Ġregulates":11020,"Ġspectrometry":11021,"Ġworkstations":11022,"ĠCollection":11023,"Ġhydroponic":11024,"ĠAccounting":11025,"Ġpolyurethane":11026,"Ġneurosurgery":11027,"Ġeffectively":11028,"Compass":11029,"Ġyogurt":11030,"Ġaffordability":11031,"Ġaffiliates":11032,"Ġirradiation":11033,"Ġattendance":11034,"Ġrotorcraft":11035,"Ġdatabase":11036,"Ġgastroenterology":11037,"Ġophthalmic":11038,"Ġfrictionless":11039,"Ġachieve":11040,"Ġrecommendations":11041,"Cloud":11042,"Folio":11043,"NSOL":11044,"Owned":11045,"automotive":11046,"bearing":11047,"lumberger":11048,"mpqua":11049,"Ġorphan":11050,"Ġumbrell":11051,"inclair":11052,"esecake":11053,"enumbra":11054,"Ġserviced":11055,"Ġsessions":11056,"Ġsamples":11057,"Ġsovereign":11058,"Ġincontinence":11059,"Ġcognitive":11060,"Ġpicture":11061,"Ġfashions":11062,"ĠTowns":11063,"ĠTicketing":11064,"Ġberyllium":11065,"Ġbrazing":11066,"Ġawareness":11067,"Ġapnea":11068,"unswick":11069,"ĠSatellite":11070,"ilgrim":11071,"Ġisomerization":11072,"ĠMechanics":11073,"ĠMichelle":11074,"ĠApex":11075,"Ġenclosures":11076,"learning":11077,"Ġrevolution":11078,"ĠPlymouth":11079,"Ġconvenient":11080,"Ġgifts":11081,"ĠEugene":11082,"Ġasbestos":11083,"Ġhamburg":11084,"Ġhormone":11085,"Ġniches":11086,"Ġnickel":11087,"Ġnicotine":11088,"ĠFertil":11089,"ĠFlynn":11090,"ĠHerndon":11091,"ĠHoldco":11092,"ĠHarold":11093,"Ġlingerie":11094,"emetery":11095,"ĠWizards":11096,"ĠWagner":11097,"Ġvideos":11098,"ummins":11099,"Ġtranscarotid":11100,"Ġadherence":11101,"ĠVancouver":11102,"ĠRevenue":11103,"ĠTrailer":11104,"occupied":11105,"Ġcontaminants":11106,"ĠConshohocken":11107,"Ġundergraduate":11108,"Ġhomebuyers":11109,"Ġmonoxide":11110,"Ġmonoclonal":11111,"ĠAlzheimer":11112,"ĠAlpharetta":11113,"Ġparameters":11114,"Ġgeothermal":11115,"ĠPrussia":11116,"Ġhelicopters":11117,"ĠBraintree":11118,"Ġsteatohepatitis":11119,"ĠAcceptance":11120,"ĠElasticsearch":11121,"Ġinfotainment":11122,"Ġphilanthropic":11123,"Ġfirefighting":11124,"Ġimmunodeficiency":11125,"Ġcorrosion":11126,"ĠMOSFET":11127,"Ġschizophrenia":11128,"Ġpostsecondary":11129,"Ġintravenous":11130,"ĠOntario":11131,"Advisor":11132,"ĠLaSalle":11133,"nowflake":11134,"Ġturbochargers":11135,"ĠGrosvenor":11136,"ĠMelbourne":11137,"+,":11138,"05":11139,"20":11140,"22":11141,"27":11142,"200":11143,"30":11144,"35":11145,"36":11146,"37":11147,"545":11148,"75":11149,"975":11150,"?,":11151,"AF":11152,"At":11153,"Aid":11154,"Atr":11155,"Aff":11156,"Alex":11157,"Aris":11158,"Aviation":11159,"Apartment":11160,"Avan":11161,"Ares":11162,"ASG":11163,"ANG":11164,"Aero":11165,"AAR":11166,"Agency":11167,"BF":11168,"Ber":11169,"Banking":11170,"Berg":11171,"Banc":11172,"BNA":11173,"Boy":11174,"Benz":11175,"Brook":11176,"CP":11177,"CT":11178,"Cy":11179,"Can":11180,"Cin":11181,"Cer":11182,"Cat":11183,"Cit":11184,"Cad":11185,"Civ":11186,"Cam":11187,"Call":11188,"Cast":11189,"Cost":11190,"Cann":11191,"Chip":11192,"Ches":11193,"CSG":11194,"CMS":11195,"Code":11196,"Cannabis":11197,"CAL":11198,"CTS":11199,"Chen":11200,"Crown":11201,"Cogn":11202,"DE":11203,"DR":11204,"De":11205,"Di":11206,"Do":11207,"Dor":11208,"Dis":11209,"Def":11210,"Dyn":11211,"Door":11212,"Duty":11213,"Deal":11214,"DIS":11215,"Dana":11216,"DSO":11217,"Dollar":11218,"EB":11219,"EC":11220,"EE":11221,"EQ":11222,"Era":11223,"Eagle":11224,"FL":11225,"Fl":11226,"Fs":11227,"Five":11228,"Fast":11229,"Fly":11230,"Fish":11231,"Fiber":11232,"Fox":11233,"FNA":11234,"Fitness":11235,"Flu":11236,"FactSet":11237,"Fisker":11238,"Fyber":11239,"Fidelity":11240,"GK":11241,"GX":11242,"Gent":11243,"Gap":11244,"Glob":11245,"Goods":11246,"GNA":11247,"GBT":11248,"Goody":11249,"Green":11250,"Getty":11251,"HI":11252,"HL":11253,"HP":11254,"Her":11255,"Hess":11256,"Hare":11257,"Ham":11258,"Hot":11259,"Host":11260,"Haul":11261,"Hilton":11262,"HER":11263,"HPC":11264,"Huntington":11265,"IC":11266,"Ill":11267,"Iron":11268,"ICO":11269,"ISG":11270,"ICS":11271,"Joy":11272,"KD":11273,"Kn":11274,"Kr":11275,"Kim":11276,"Kenn":11277,"KKR":11278,"LH":11279,"LM":11280,"La":11281,"Le":11282,"Lo":11283,"Ly":11284,"Line":11285,"Lak":11286,"Lenn":11287,"Lock":11288,"Lind":11289,"LAP":11290,"Lincoln":11291,"MG":11292,"ML":11293,"Mag":11294,"Met":11295,"Mir":11296,"Mark":11297,"Mater":11298,"Main":11299,"Matt":11300,"Mature":11301,"MIS":11302,"Media":11303,"Metal":11304,"Mait":11305,"NS":11306,"Nation":11307,"Nord":11308,"NDX":11309,"OB":11310,"OS":11311,"OT":11312,"Om":11313,"Ot":11314,"Open":11315,"Omn":11316,"PH":11317,"PP":11318,"PR":11319,"Pe":11320,"Pit":11321,"Pet":11322,"Pad":11323,"Port":11324,"Pure":11325,"Path":11326,"Public":11327,"Penn":11328,"Prop":11329,"Price":11330,"PAT":11331,"PDC":11332,"PTC":11333,"Patterson":11334,"PNM":11335,"Pinnacle":11336,"QL":11337,"Qual":11338,"RG":11339,"RL":11340,"Rs":11341,"Rel":11342,"Real":11343,"RNA":11344,"Roy":11345,"RMS":11346,"REIT":11347,"Rhythm":11348,"SD":11349,"SR":11350,"SW":11351,"So":11352,"Sem":11353,"Sab":11354,"Sum":11355,"System":11356,"Sens":11357,"Spr":11358,"Six":11359,"Spro":11360,"Same":11361,"Surgical":11362,"Source":11363,"Select":11364,"SPS":11365,"Shares":11366,"Sea":11367,"Snap":11368,"TD":11369,"TH":11370,"Te":11371,"To":11372,"Tw":11373,"Ten":11374,"Tre":11375,"Top":11376,"Tab":11377,"Tru":11378,"Term":11379,"Tree":11380,"Tenn":11381,"Two":11382,"TRA":11383,"Travel":11384,"UI":11385,"Ut":11386,"USA":11387,"Urban":11388,"VH":11389,"VT":11390,"Vent":11391,"Via":11392,"Vee":11393,"Vict":11394,"VIA":11395,"WD":11396,"War":11397,"Well":11398,"Wash":11399,"Wolf":11400,"WCS":11401,"Waste":11402,"Xp":11403,"YS":11404,"YX":11405,"YLE":11406,"YGM":11407,"ZA":11408,"ae":11409,"aus":11410,"aun":11411,"aine":11412,"aits":11413,"aith":11414,"auss":11415,"aedics":11416,"ba":11417,"bing":11418,"bre":11419,"bies":11420,"bors":11421,"bass":11422,"bee":11423,"base":11424,"bec":11425,"benef":11426,"born":11427,"bars":11428,"bohydr":11429,"cer":11430,"cal":11431,"city":11432,"cine":11433,"cap":11434,"custom":11435,"come":11436,"cker":11437,"cings":11438,"cks":11439,"chem":11440,"cah":11441,"cane":11442,"ched":11443,"cert":11444,"cili":11445,"culators":11446,"casses":11447,"ds":11448,"dar":11449,"dam":11450,"dash":11451,"die":11452,"dep":11453,"dock":11454,"dah":11455,"dlet":11456,"diversified":11457,"duit":11458,"doster":11459,"density":11460,"dyne":11461,"eur":11462,"equ":11463,"ece":11464,"evelopment":11465,"euser":11466,"eptic":11467,"ephone":11468,"fus":11469,"fil":11470,"fits":11471,"four":11472,"fee":11473,"fair":11474,"fuel":11475,"foods":11476,"first":11477,"fills":11478,"fired":11479,"fluent":11480,"fizer":11481,"finder":11482,"factants":11483,"gus":11484,"gans":11485,"govern":11486,"gium":11487,"goods":11488,"growth":11489,"hi":11490,"hn":11491,"hor":11492,"how":11493,"hard":11494,"hang":11495,"human":11496,"housing":11497,"haven":11498,"ih":11499,"iy":11500,"iro":11501,"iate":11502,"iments":11503,"iend":11504,"iery":11505,"iels":11506,"iability":11507,"iances":11508,"ipers":11509,"iena":11510,"iPl":11511,"iFi":11512,"iologic":11513,"iTime":11514,"ja":11515,"ju":11516,"jection":11517,"jug":11518,"kar":11519,"king":11520,"kam":11521,"kos":11522,"kens":11523,"kill":11524,"kov":11525,"kind":11526,"kley":11527,"kjet":11528,"keletal":11529,"lar":11530,"lab":11531,"lap":11532,"list":11533,"lery":11534,"lich":11535,"lord":11536,"limit":11537,"lifer":11538,"lborough":11539,"mes":11540,"mund":11541,"mant":11542,"mosp":11543,"mach":11544,"max":11545,"mec":11546,"meal":11547,"mechanical":11548,"mored":11549,"molec":11550,"master":11551,"mobiles":11552,"mounted":11553,"ns":11554,"nor":11555,"ners":11556,"nate":11557,"nam":11558,"not":11559,"nia":11560,"north":11561,"neg":11562,"noy":11563,"nuts":11564,"oit":11565,"oid":11566,"oos":11567,"oices":11568,"ooth":11569,"plo":11570,"pac":11571,"pact":11572,"pot":11573,"pta":11574,"pell":11575,"pill":11576,"pire":11577,"post":11578,"path":11579,"pie":11580,"pool":11581,"pinn":11582,"pired":11583,"pkins":11584,"packs":11585,"points":11586,"pitas":11587,"rial":11588,"ress":11589,"rain":11590,"rise":11591,"right":11592,"risk":11593,"rane":11594,"rink":11595,"sv":11596,"ser":11597,"sion":11598,"set":11599,"sess":11600,"system":11601,"struct":11602,"specialty":11603,"solv":11604,"section":11605,"sevi":11606,"shelf":11607,"ti":11608,"tv":11609,"ted":11610,"tiv":11611,"test":11612,"tities":11613,"tice":11614,"tual":11615,"tures":11616,"tman":11617,"tier":11618,"treat":11619,"uar":11620,"ument":11621,"uper":11622,"uqu":11623,"uard":11624,"uant":11625,"uitive":11626,"ulos":11627,"uSign":11628,"uarding":11629,"vy":11630,"vals":11631,"vens":11632,"vents":11633,"vron":11634,"vador":11635,"vamo":11636,"wers":11637,"wine":11638,"world":11639,"weg":11640,"witz":11641,"xon":11642,"ya":11643,"yo":11644,"yx":11645,"yes":11646,"ycl":11647,"yles":11648,"yker":11649,"yson":11650,"yards":11651,"ypy":11652,"yroid":11653,"yMac":11654,"ywine":11655,"zo":11656,"zos":11657,"zure":11658,"zio":11659,"Ġ\"":11660,"Ġ.":11661,"Ġx":11662,"Ġquarter":11663,"Ġide":11664,"Ġicon":11665,"Ġ''":11666,"ĠâĢĵ":11667,"anon":11668,"anqu":11669,"ania":11670,"ante":11671,"anoc":11672,"anied":11673,"anular":11674,"anley":11675,"animal":11676,"inic":11677,"intr":11678,"ints":11679,"inos":11680,"insur":11681,"inton":11682,"inite":11683,"iname":11684,"inclusive":11685,"inforced":11686,"inforcement":11687,"inidad":11688,"inverter":11689,"erd":11690,"erink":11691,"erque":11692,"esen":11693,"esco":11694,"escon":11695,"esky":11696,"esciences":11697,"esla":11698,"andr":11699,"andy":11700,"andal":11701,"andMe":11702,"enb":11703,"enal":11704,"enex":11705,"environ":11706,"enberg":11707,"enfeld":11708,"onin":11709,"once":11710,"onary":11711,"onstant":11712,"onka":11713,"heus":11714,"heet":11715,"heim":11716,"Ġsom":11717,"Ġsun":11718,"Ġstern":11719,"Ġsco":11720,"Ġsof":11721,"Ġspl":11722,"Ġsend":11723,"Ġsending":11724,"Ġsocks":11725,"Ġsoph":11726,"Ġsclerosis":11727,"Ġsoda":11728,"Ġtin":11729,"Ġtil":11730,"Ġtiss":11731,"Ġtend":11732,"Ġtrop":11733,"Ġtalk":11734,"Ġtwin":11735,"Ġtung":11736,"Ġtaver":11737,"Ġterrain":11738,"atz":11739,"atre":11740,"atos":11741,"atost":11742,"atica":11743,"atAm":11744,"atmeal":11745,"Ġinher":11746,"Ġinorgan":11747,"Ġingredient":11748,"Ġinnerwear":11749,"Ġingot":11750,"Ġinhalation":11751,"Ġinkjet":11752,"Ġinnate":11753,"ala":11754,"alta":11755,"Ġcity":11756,"Ġcyst":11757,"Ġcord":11758,"Ġcables":11759,"Ġcoff":11760,"Ġculin":11761,"Ġcements":11762,"Ġcopy":11763,"enta":11764,"entin":11765,"entor":11766,"rox":11767,"rock":11768,"robed":11769,"icer":11770,"icity":11771,"icating":11772,"icide":11773,"ician":11774,"icitation":11775,"icJack":11776,"iciencies":11777,"orf":11778,"oris":11779,"orates":11780,"oriz":11781,"orized":11782,"orters":11783,"orama":11784,"orlym":11785,"edle":11786,"edition":11787,"edging":11788,"edible":11789,"ari":11790,"arl":11791,"aru":11792,"aratus":11793,"Ġpin":11794,"Ġpas":11795,"Ġpers":11796,"Ġpies":11797,"Ġpud":11798,"Ġpine":11799,"Ġpant":11800,"Ġpools":11801,"Ġpush":11802,"Ġpests":11803,"Ġpipes":11804,"Ġoatmeal":11805,"ingles":11806,"ingham":11807,"ionic":11808,"ioning":11809,"Ġface":11810,"Ġfant":11811,"Ġfair":11812,"Ġfax":11813,"Ġfusion":11814,"Ġfume":11815,"Ġfeminine":11816,"Ġfacial":11817,"Ġfactors":11818,"Ġfuneral":11819,"Ġfactories":11820,"Ġfruits":11821,"isw":11822,"isan":11823,"isource":11824,"isodes":11825,"ĠTE":11826,"ĠTY":11827,"ĠTs":11828,"ĠTw":11829,"ĠTan":11830,"ĠTro":11831,"ĠTas":11832,"ĠTess":11833,"ĠTab":11834,"ĠTech":11835,"ĠTable":11836,"ĠTour":11837,"ĠTail":11838,"ĠTup":11839,"ĠTime":11840,"ĠTaft":11841,"ĠTang":11842,"ĠTustin":11843,"ĠTunic":11844,"ĠTID":11845,"ĠToy":11846,"ĠTony":11847,"ĠTao":11848,"ĠTea":11849,"ĠTarry":11850,"ĠTAS":11851,"ĠTucker":11852,"ĠTarget":11853,"ĠTeva":11854,"ĠTisch":11855,"asas":11856,"asant":11857,"asota":11858,"asda":11859,"asbro":11860,"omew":11861,"omiss":11862,"omax":11863,"ometry":11864,"ithic":11865,"itures":11866,"itux":11867,"itled":11868,"itively":11869,"ĠTheir":11870,"ĠTheme":11871,"ĠTheatre":11872,"Ġtheat":11873,"olas":11874,"olet":11875,"olition":11876,"olub":11877,"olten":11878,"olone":11879,"olites":11880,"olute":11881,"olastic":11882,"Ġmun":11883,"Ġmac":11884,"Ġmens":11885,"Ġmale":11886,"Ġmist":11887,"Ġmice":11888,"Ġmats":11889,"Ġmilling":11890,"Ġmold":11891,"Ġmask":11892,"Ġmamm":11893,"Ġmitigation":11894,"Ġmolybdenum":11895,"ĠIC":11896,"ĠIth":11897,"ĠIce":11898,"ĠICS":11899,"ĠIFS":11900,"ĠIPG":11901,"ĠIgor":11902,"ĠIonis":11903,"Ġseals":11904,"Ġseason":11905,"Ġsequencing":11906,"Ġseismic":11907,"Ġproce":11908,"Ġprocur":11909,"Ġpropos":11910,"Ġprolifer":11911,"Ġoften":11912,"requ":11913,"reiber":11914,"reli":11915,"reporting":11916,"recycl":11917,"reportable":11918,"recourse":11919,"refined":11920,"reinforced":11921,"Ġwel":11922,"Ġwet":11923,"Ġwines":11924,"Ġwant":11925,"Ġwings":11926,"Ġwax":11927,"Ġwills":11928,"Ġways":11929,"Ġwoul":11930,"Ġwere":11931,"Ġwoven":11932,"Ġwild":11933,"Ġwipes":11934,"Ġwritten":11935,"Ġwipers":11936,"Ġband":11937,"Ġbion":11938,"Ġbit":11939,"Ġbag":11940,"Ġbid":11941,"Ġble":11942,"Ġbab":11943,"Ġbra":11944,"Ġbases":11945,"Ġbeds":11946,"Ġbacter":11947,"Ġbenton":11948,"Ġbodies":11949,"Ġbromine":11950,"Ġblocks":11951,"Ġbinding":11952,"Ġbonding":11953,"Ġbudget":11954,"Ġbanqu":11955,"agon":11956,"agment":11957,"agery":11958,"agher":11959,"aghan":11960,"aggregated":11961,"aguay":11962,"aglar":11963,"Ġdust":11964,"Ġdia":11965,"Ġdural":11966,"Ġdating":11967,"Ġdra":11968,"Ġdiam":11969,"Ġdomest":11970,"Ġdys":11971,"Ġaim":11972,"Ġaway":11973,"ĠCP":11974,"ĠCS":11975,"ĠCX":11976,"ĠCut":11977,"ĠCur":11978,"ĠCess":11979,"ĠCarter":11980,"ĠCop":11981,"ĠCod":11982,"ĠCline":11983,"ĠCong":11984,"ĠCME":11985,"ĠCats":11986,"ĠCrop":11987,"ĠChed":11988,"ĠCoff":11989,"ĠCNA":11990,"ĠCNG":11991,"ĠCGI":11992,"ĠCGM":11993,"ĠCasinos":11994,"ĠCIN":11995,"ĠCanton":11996,"ĠCPU":11997,"ĠCrown":11998,"ĠCorning":11999,"ĠCERC":12000,"ĠCedar":12001,"ĠCboe":12002,"ĠCaesars":12003,"ĠCemetery":12004,"ĠCummins":12005,"uso":12006,"using":12007,"usch":12008,"usable":12009,"ushy":12010,"elt":12011,"elers":12012,"elle":12013,"elst":12014,"elot":12015,"elia":12016,"elix":12017,"eleman":12018,"une":12019,"unter":12020,"utter":12021,"utch":12022,"utters":12023,"uttle":12024,"Ġcompar":12025,"Ġcomprom":12026,"Ġcompaction":12027,"Ġcompelling":12028,"ĠSA":12029,"ĠSer":12030,"ĠSon":12031,"ĠSper":12032,"ĠSlo":12033,"ĠSod":12034,"ĠSure":12035,"ĠSerg":12036,"ĠSio":12037,"ĠSoft":12038,"ĠSant":12039,"ĠSup":12040,"ĠSax":12041,"ĠSyl":12042,"ĠSier":12043,"ĠSource":12044,"ĠSourcing":12045,"ĠSelect":12046,"ĠSPS":12047,"ĠShoen":12048,"ĠSeries":12049,"ĠSAR":12050,"ĠSull":12051,"ĠSny":12052,"ĠSidney":12053,"ĠSector":12054,"ĠSTR":12055,"ĠSignal":12056,"ĠSTAC":12057,"ĠSelig":12058,"ĠSomers":12059,"ĠSulfur":12060,"ĠSinclair":12061,"ĠSnowflake":12062,"ĠSGK":12063,"ĠSNDX":12064,"ĠSYGM":12065,"ilon":12066,"iltr":12067,"illow":12068,"ilance":12069,"ilio":12070,"ilson":12071,"ilene":12072,"ilox":12073,"ildren":12074,"ilroy":12075,"teriors":12076,"eto":12077,"eties":12078,"etab":12079,"etime":12080,"etizers":12081,"perity":12082,"ader":12083,"adies":12084,"adia":12085,"adium":12086,"adder":12087,"addy":12088,"uri":12089,"uron":12090,"uras":12091,"urity":12092,"urbs":12093,"urland":12094,"urier":12095,"urification":12096,"quare":12097,"ersma":12098,"ervatory":12099,"Ġisolators":12100,"ided":12101,"idem":12102,"idized":12103,"idges":12104,"lop":12105,"loon":12106,"lock":12107,"Ġheav":12108,"Ġfoil":12109,"Ġfoss":12110,"ĠMu":12111,"ĠMing":12112,"ĠMas":12113,"ĠMolding":12114,"ĠMist":12115,"ĠMak":12116,"ĠMotive":12117,"ĠMered":12118,"ĠMep":12119,"ĠMau":12120,"ĠMold":12121,"ĠMacy":12122,"ĠMeal":12123,"ĠMitch":12124,"ĠMaking":12125,"ĠMunicipal":12126,"ĠMRO":12127,"ĠMortgages":12128,"ĠMoving":12129,"ĠMaum":12130,"ĠMaver":12131,"ĠMueller":12132,"ĠMolybdenum":12133,"ĠMonster":12134,"ĠMobil":12135,"ĠMendel":12136,"under":12137,"unders":12138,"ĠAG":12139,"ĠAN":12140,"ĠAT":12141,"ĠAV":12142,"ĠAv":12143,"ĠAron":12144,"ĠAld":12145,"ĠAff":12146,"ĠAman":12147,"ĠAMEA":12148,"ĠApartment":12149,"ĠAES":12150,"ĠAEP":12151,"ĠAqua":12152,"ĠASP":12153,"ĠAuctions":12154,"ĠAvista":12155,"ĠAbercrombie":12156,"ĠAECOM":12157,"ĠAzure":12158,"ĠIntr":12159,"ĠInks":12160,"ĠInternal":12161,"ĠInpatient":12162,"ĠIngredient":12163,"ĠInnerwear":12164,"ĠInductors":12165,"ĠInjection":12166,"Ġthre":12167,"Ġthread":12168,"Ġthyroid":12169,"Ġenc":12170,"Ġenroll":12171,"Ġenabled":12172,"Ġenforcement":12173,"Ġenrobed":12174,"tria":12175,"trie":12176,"truck":12177,"trusions":12178,"lee":12179,"leased":12180,"legi":12181,"tho":12182,"thage":12183,"thouse":12184,"essed":12185,"ĠItems":12186,"chat":12187,"char":12188,"chool":12189,"cea":12190,"Ġrect":12191,"Ġreport":12192,"Ġrept":12193,"Ġretain":12194,"Ġrepro":12195,"Ġrevers":12196,"Ġreload":12197,"Ġrecycle":12198,"Ġreput":12199,"Ġrecomb":12200,"Ġreorgan":12201,"Ġrelease":12202,"Ġreentry":12203,"Ġrepurchase":12204,"Ġrecurring":12205,"Ġreusable":12206,"ĠPG":12207,"ĠPM":12208,"ĠPR":12209,"ĠPU":12210,"ĠPy":12211,"ĠPom":12212,"ĠPad":12213,"ĠPear":12214,"ĠPets":12215,"ĠPatt":12216,"ĠPoint":12217,"ĠPool":12218,"ĠPegas":12219,"ĠPRO":12220,"ĠPurs":12221,"ĠPipe":12222,"ĠPGI":12223,"ĠPont":12224,"ĠPapp":12225,"ĠPoints":12226,"ĠPermanent":12227,"ĠPTI":12228,"ĠPenumbra":12229,"ĠPilgrim":12230,"ĠPurification":12231,"Ġproductive":12232,"Ġheads":12233,"Ġheadquarters":12234,"atest":12235,"udder":12236,"uddy":12237,"iva":12238,"ivan":12239,"ived":12240,"ivago":12241,"iviral":12242,"ivCare":12243,"Ġcongest":12244,"Ġconcerts":12245,"Ġtops":12246,"Ġtooth":12247,"Ġtootsie":12248,"Ġgal":12249,"Ġgum":12250,"Ġgall":12251,"Ġgour":12252,"Ġgird":12253,"Ġgulf":12254,"Ġgather":12255,"Ġgraphic":12256,"Ġgutters":12257,"estem":12258,"estone":12259,"estyles":12260,"ĠBR":12261,"ĠBa":12262,"ĠBas":12263,"ĠBag":12264,"ĠBid":12265,"ĠBos":12266,"ĠBod":12267,"ĠBure":12268,"ĠBenn":12269,"ĠBets":12270,"ĠBarg":12271,"ĠBilling":12272,"ĠBau":12273,"ĠBatter":12274,"ĠBrew":12275,"ĠBattle":12276,"ĠBalls":12277,"ĠBush":12278,"ĠBerman":12279,"ĠBerry":12280,"ĠBanco":12281,"ĠBoney":12282,"ĠBaum":12283,"ĠBrick":12284,"ĠBali":12285,"ĠBenton":12286,"ĠBKE":12287,"ĠBauxite":12288,"ĠBPM":12289,"ĠBromine":12290,"ĠBlocks":12291,"ĠBCX":12292,"ĠByron":12293,"ĠBrett":12294,"ĠBilox":12295,"client":12296,"clede":12297,"sten":12298,"stack":12299,"start":12300,"stable":12301,"stash":12302,"stock":12303,"standard":12304,"static":12305,"Ġthroughput":12306,"ira":12307,"iran":12308,"ĠRx":12309,"ĠRid":12310,"ĠRate":12311,"ĠRig":12312,"ĠRip":12313,"ĠRim":12314,"ĠRap":12315,"ĠRural":12316,"ĠRav":12317,"ĠRout":12318,"ĠRhy":12319,"ĠRatings":12320,"ĠRights":12321,"ĠRaz":12322,"ĠRitz":12323,"ĠRNA":12324,"ĠRCM":12325,"ĠRapid":12326,"ĠRacing":12327,"ĠRPO":12328,"ĠRMBS":12329,"ĠRhythm":12330,"ĠRoto":12331,"ĠROV":12332,"ĠRolling":12333,"ĠRoku":12334,"ĠEB":12335,"ĠEvel":12336,"ĠEuro":12337,"ĠECS":12338,"ĠEconom":12339,"ĠEAME":12340,"ĠEDG":12341,"ĠERP":12342,"ĠEGR":12343,"ĠECG":12344,"ĠEwing":12345,"Ġaseptic":12346,"ĠNA":12347,"ĠND":12348,"ĠNI":12349,"ĠNL":12350,"ĠNg":12351,"ĠNat":12352,"ĠNed":12353,"ĠNar":12354,"ĠNess":12355,"ĠNir":12356,"ĠNow":12357,"ĠNiss":12358,"ĠNob":12359,"ĠNour":12360,"ĠNiger":12361,"ĠNano":12362,"ĠNBC":12363,"ĠNucleic":12364,"ateau":12365,"Ġdecom":12366,"Ġhog":12367,"Ġhall":12368,"Ġhire":12369,"Ġhous":12370,"Ġhats":12371,"Ġharm":12372,"Ġhalf":12373,"Ġhazard":12374,"Ġhouses":12375,"Ġforest":12376,"Ġforec":12377,"Ġforensic":12378,"Ġforwarding":12379,"Ġforfeit":12380,"Ġnyl":12381,"Ġnurse":12382,"Ġnerve":12383,"ĠnCino":12384,"Ġnasal":12385,"ĠFE":12386,"ĠFas":12387,"ĠFid":12388,"ĠFine":12389,"ĠFork":12390,"ĠFerg":12391,"ĠFass":12392,"ĠFint":12393,"ĠFixed":12394,"ĠFind":12395,"ĠFurn":12396,"ĠFarn":12397,"ĠFishing":12398,"ĠFitch":12399,"ĠFores":12400,"ĠFerry":12401,"ĠFruit":12402,"ĠFull":12403,"ĠFFE":12404,"ĠFPL":12405,"ĠFarms":12406,"ĠFDA":12407,"ĠFSS":12408,"ĠFPD":12409,"ĠFRC":12410,"ĠFuneral":12411,"ĠFayette":12412,"ĠFirm":12413,"ĠFlowserve":12414,"Ġeight":12415,"Ġeven":12416,"ĠeCash":12417,"Ġeasier":12418,"ĠePlus":12419,"ĠeBanking":12420,"Ġonto":12421,"Ġonbo":12422,"Ġonsite":12423,"ĠDas":12424,"ĠDem":12425,"ĠDog":12426,"ĠDank":12427,"ĠDow":12428,"ĠDuc":12429,"ĠDors":12430,"ĠDear":12431,"ĠDist":12432,"ĠDex":12433,"ĠDuck":12434,"ĠDane":12435,"ĠDietary":12436,"ĠDustin":12437,"ĠDrew":12438,"ĠDNA":12439,"ĠDrey":12440,"ĠDTE":12441,"ĠDairy":12442,"ĠDialysis":12443,"ĠDenton":12444,"ĠDanny":12445,"ĠHs":12446,"ĠHem":12447,"ĠHop":12448,"ĠHum":12449,"ĠHors":12450,"ĠHub":12451,"ĠHey":12452,"ĠHoff":12453,"ĠHush":12454,"ĠHuss":12455,"ĠHuff":12456,"ĠHomer":12457,"ĠHalf":12458,"ĠHCM":12459,"ĠHull":12460,"ĠHPC":12461,"ĠHicks":12462,"ĠHette":12463,"ĠHaim":12464,"ĠHBO":12465,"ĠHedge":12466,"ĠHAY":12467,"ĠHunts":12468,"ĠHudson":12469,"ĠHanson":12470,"ĠHuntington":12471,"ĠHOK":12472,"ĠHorton":12473,"ĠHormel":12474,"ĠHedging":12475,"ĠHunter":12476,"Ġrib":12477,"Ġrating":12478,"Ġrich":12479,"Ġriver":12480,"Ġriders":12481,"Ġlim":12482,"Ġlay":12483,"Ġlith":12484,"Ġlug":12485,"Ġlenses":12486,"Ġlamp":12487,"Ġlinks":12488,"Ġlength":12489,"Ġlitigation":12490,"Ġlitter":12491,"Ġlieu":12492,"Ġladies":12493,"Ġlatest":12494,"ĠOT":12495,"ĠOp":12496,"ĠOur":12497,"ĠObs":12498,"ĠOah":12499,"ĠOSB":12500,"ĠOshkosh":12501,"ĠOLAP":12502,"ula":12503,"ulum":12504,"ulder":12505,"ulator":12506,"ĠGP":12507,"ĠGi":12508,"ĠGay":12509,"ĠGron":12510,"ĠGrap":12511,"ĠGrid":12512,"ĠGene":12513,"ĠGroom":12514,"ĠGerman":12515,"ĠGraphic":12516,"ĠGCM":12517,"ĠGLP":12518,"ĠGypsum":12519,"ĠGYN":12520,"ĠGamer":12521,"ĠGeek":12522,"ĠGuidewire":12523,"amf":12524,"amel":12525,"amet":12526,"amine":12527,"Ġconservation":12528,"tsy":12529,"tson":12530,"tsev":12531,"tsville":12532,"aca":12533,"acon":12534,"acons":12535,"acitors":12536,"emon":12537,"emitting":12538,"emaker":12539,"pped":12540,"ppies":12541,"actic":12542,"actices":12543,"acturing":12544,"actuators":12545,"lowers":12546,"open":12547,"opia":12548,"opoly":12549,"optic":12550,"ĠWD":12551,"ĠWi":12552,"ĠWent":12553,"ĠWhich":12554,"ĠWals":12555,"ĠWear":12556,"ĠWob":12557,"ĠWak":12558,"ĠWade":12559,"ĠWagering":12560,"igo":12561,"igating":12562,"igible":12563,"igilance":12564,"ĠLon":12565,"ĠLess":12566,"ĠLans":12567,"ĠLib":12568,"ĠLay":12569,"ĠLill":12570,"ĠLub":12571,"ĠLower":12572,"ĠList":12573,"ĠLaf":12574,"ĠLath":12575,"ĠLev":12576,"ĠLyn":12577,"ĠLau":12578,"ĠLights":12579,"ĠLink":12580,"ĠLumber":12581,"ĠLAN":12582,"ĠLithium":12583,"ĠLucky":12584,"ĠLynn":12585,"ĠLiang":12586,"ĠLitigation":12587,"ĠLancaster":12588,"ĠLGBT":12589,"Ġtrib":12590,"Ġtriple":12591,"Ġtrends":12592,"Ġtrench":12593,"Ġtraum":12594,"Ġtractors":12595,"Ġtraits":12596,"Ġtrivago":12597,"answers":12598,"abin":12599,"abody":12600,"abeth":12601,"abolic":12602,"aboard":12603,"abasas":12604,"ipar":12605,"ipit":12606,"ipation":12607,"iplas":12608,"imm":12609,"imo":12610,"iman":12611,"imes":12612,"imir":12613,"imab":12614,"imble":12615,"immel":12616,"imetry":12617,"implant":12618,"ecton":12619,"ected":12620,"Ġfollowings":12621,"orphic":12622,"Ġvast":12623,"Ġvault":12624,"Ġversions":12625,"osy":12626,"osky":12627,"odic":12628,"ĠJas":12629,"ĠJet":12630,"ĠJoh":12631,"ĠJama":12632,"ĠJAN":12633,"ĠJean":12634,"ĠJiang":12635,"ĠJoung":12636,"ĠJustice":12637,"ĠJordan":12638,"Ġdisk":12639,"Ġdisplace":12640,"Ġdistrict":12641,"Ġdiscretionary":12642,"Ġdischarge":12643,"Ġdisaggregated":12644,"ifth":12645,"ifunction":12646,"inea":12647,"ineg":12648,"ureate":12649,"otional":12650,"ottenstein":12651,"Ġmarketable":12652,"ologie":12653,"ibot":12654,"ibles":12655,"apt":12656,"apro":12657,"aped":12658,"apar":12659,"apad":12660,"aport":12661,"verin":12662,"veraging":12663,"verged":12664,"umen":12665,"umed":12666,"umbo":12667,"Ġacre":12668,"Ġacry":12669,"Ġindemnity":12670,"Ġindicators":12671,"ĠUl":12672,"ĠUPS":12673,"ĠUAN":12674,"ĠUrea":12675,"ĠUsed":12676,"ĠUrban":12677,"ĠUmpqua":12678,"ĠUser":12679,"elly":12680,"elled":12681,"ellers":12682,"ellular":12683,"ystyn":12684,"Ġstent":12685,"Ġstov":12686,"Ġstev":12687,"Ġstreet":12688,"Ġstacks":12689,"Ġsticks":12690,"Ġstatus":12691,"Ġstroke":12692,"tyk":12693,"type":12694,"izio":12695,"izabeth":12696,"allation":12697,"Ġanten":12698,"rics":12699,"riculum":12700,"Ġloads":12701,"Ġlotion":12702,"Ġlounge":12703,"eware":12704,"ewall":12705,"ewood":12706,"ewares":12707,"Ġplc":12708,"Ġplug":12709,"Ġplanners":12710,"Ġplaque":12711,"aceau":12712,"ardi":12713,"ardant":12714,"ardja":12715,"ensen":12716,"suring":12717,"surface":12718,"tea":12719,"ĠProprietary":12720,"ĠProbe":12721,"ĠProcter":12722,"ĠProConnect":12723,"Ġtranscript":12724,"Ġtransplant":12725,"ucor":12726,"ucus":12727,"ucose":12728,"Ġdevelopmental":12729,"iller":12730,"illment":12731,"illard":12732,"Ġexit":12733,"Ġexhib":12734,"Ġexpress":12735,"Ġexcell":12736,"Ġexcav":12737,"coa":12738,"cost":12739,"cook":12740,"igna":12741,"ignanc":12742,"Ġads":12743,"Ġdistributions":12744,"Ġtechnologically":12745,"Ġequine":12746,"ergic":12747,"ergizer":12748,"Ġorgans":12749,"ĠCombat":12750,"gra":12751,"grid":12752,"Ġelf":12753,"Ġelder":12754,"Ġelement":12755,"Ġeligible":12756,"ighing":12757,"ighthouse":12758,"ĠStations":12759,"ĠStone":12760,"ĠStarr":12761,"ĠStabil":12762,"ĠStagwell":12763,"ĠStewart":12764,"Ġgask":12765,"merica":12766,"merich":12767,"munications":12768,"munology":12769,"ĠKom":12770,"ĠKre":12771,"ĠKiss":12772,"ĠKath":12773,"ĠKra":12774,"ĠKaz":12775,"ĠKoll":12776,"ĠKool":12777,"ĠKush":12778,"ĠKnow":12779,"ĠKLE":12780,"ĠKeds":12781,"ĠKla":12782,"ĠKKR":12783,"ĠKirk":12784,"ĠKoch":12785,"ĠKemp":12786,"ĠKarma":12787,"ĠKimberly":12788,"ĠKonstant":12789,"ĠKurland":12790,"arten":12791,"artment":12792,"artland":12793,"prise":12794,"prints":12795,"Ġelectronically":12796,"Ġcoats":12797,"Ġcoverages":12798,"Ġcourts":12799,"ĠVo":12800,"ĠVan":12801,"ĠVect":12802,"ĠVos":12803,"ĠVale":12804,"ĠViet":12805,"ĠVIT":12806,"ĠVantage":12807,"ĠVTR":12808,"ĠVistar":12809,"ĠVMware":12810,"ĠVPN":12811,"Ġdestruction":12812,"ĠCAM":12813,"ĠCALV":12814,"ĠCAPP":12815,"ancers":12816,"onse":12817,"onsorship":12818,"plate":12819,"plane":12820,"ĠReed":12821,"ĠRead":12822,"ĠRefr":12823,"ĠReev":12824,"ĠReady":12825,"ĠReese":12826,"ĠReuse":12827,"ĠReentry":12828,"ĠRepresent":12829,"ĠReinforcement":12830,"Ġassay":12831,"Ġassays":12832,"ulture":12833,"ultant":12834,"ultaneous":12835,"oftop":12836,"Ġcrush":12837,"Ġcrani":12838,"Ġcranial":12839,"Ġcriminal":12840,"Ġusage":12841,"Ġrealize":12842,"ubble":12843,"inese":12844,"ava":12845,"aves":12846,"avans":12847,"avco":12848,"tailored":12849,"astating":12850,"Ġmedications":12851,"Ġwellbe":12852,"Ġwellbore":12853,"Ġestim":12854,"ĠEndom":12855,"ĠEngage":12856,"ĠEnvoy":12857,"ĠEnvi":12858,"ĠEngraving":12859,"ĠEntities":12860,"Ġholdings":12861,"lyle":12862,"fresh":12863,"friend":12864,"ĠCoil":12865,"ĠCover":12866,"ĠCove":12867,"ĠCoke":12868,"ĠCourt":12869,"ĠCoterra":12870,"Ġcholine":12871,"Ġchillers":12872,"Ġleak":12873,"Ġleft":12874,"cursion":12875,"romatography":12876,"istor":12877,"istol":12878,"isticated":12879,"ĠTru":12880,"ĠTrav":12881,"ĠTrend":12882,"ĠTruly":12883,"ĠTruth":12884,"ĠTrinidad":12885,"ocuSign":12886,"endage":12887,"enditures":12888,"Ġconting":12889,"Ġcontamin":12890,"ĠProductXM":12891,"aks":12892,"akis":12893,"ileps":12894,"Ġcareers":12895,"ĠUnitedHealthcare":12896,"ourg":12897,"ourn":12898,"Ġoilseeds":12899,"ruker":12900,"Ġgenerations":12901,"overs":12902,"enteral":12903,"assium":12904,"ĠMann":12905,"ĠManhattan":12906,"ermore":12907,"Ġcommunicating":12908,"ĠYan":12909,"ĠYoung":12910,"ĠYonce":12911,"Ġacting":12912,"ĠAsphalt":12913,"holster":12914,"ĠDee":12915,"ĠDecision":12916,"ĠDeFr":12917,"ĠDeere":12918,"ĠDeBo":12919,"ĠSeed":12920,"ĠSeating":12921,"ĠSeiber":12922,"ĠSeca":12923,"ĠSealing":12924,"ĠSegregated":12925,"ĠSeiders":12926,"ĠSekar":12927,"ĠSeaport":12928,"Ġtreated":12929,"eyond":12930,"ĠSanj":12931,"ĠSanford":12932,"ĠSanuk":12933,"Ġnetworked":12934,"ĠFries":12935,"ĠFrisco":12936,"ĠFritz":12937,"ĠFriends":12938,"ĠFracturing":12939,"Ġages":12940,"ĠIndices":12941,"ousand":12942,"Ġinterment":12943,"Ġintercon":12944,"Ġinterrog":12945,"ĠConsultant":12946,"Ġpowering":12947,"Ġpowerbo":12948,"Ġpowertrain":12949,"Ġ1818":12950,"Ġ1823":12951,"ighton":12952,"Ġimports":12953,"Ġimagery":12954,"Ġpreferences":12955,"Ġbeg":12956,"Ġbean":12957,"Ġbeams":12958,"Ġbeacons":12959,"Ġengineer":12960,"Ġunb":12961,"Ġunr":12962,"Ġunion":12963,"Ġunble":12964,"Ġunmat":12965,"Ġuncoated":12966,"Ġunrefined":12967,"iential":12968,"Ġalert":12969,"Ġalumina":12970,"Ġallogene":12971,"Ġaldoster":12972,"Ġclose":12973,"folk":12974,"ĠAnt":12975,"ĠAnalog":12976,"ĠAnna":12977,"ĠAngie":12978,"Ġsecuring":12979,"Ġcorporation":12980,"Ġadvant":12981,"Ġadvising":12982,"phal":12983,"phoma":12984,"phys":12985,"phere":12986,"Ġintegrate":12987,"efish":12988,"effer":12989,"efield":12990,"Ġsmel":12991,"rys":12992,"ryor":12993,"rying":12994,"ĠChi":12995,"ĠCher":12996,"ĠChang":12997,"ĠChatt":12998,"ĠChao":12999,"ĠChaud":13000,"ĠChester":13001,"ĠChildren":13002,"ĠChinese":13003,"ĠChromatography":13004,"Ġfries":13005,"Ġframe":13006,"Ġfragment":13007,"Ġcapability":13008,"Ġsolids":13009,"Ġsolving":13010,"Ġsolvents":13011,"Ġsolicitation":13012,"Ġnonperforming":13013,"Ġairport":13014,"Ġairfield":13015,"Ġairborne":13016,"ĠMariet":13017,"ĠMarvin":13018,"ĠMarlborough":13019,"ĠMarmax":13020,"ichap":13021,"ichloro":13022,"eev":13023,"eepers":13024,"athon":13025,"Ġpayors":13026,"Ġpayloads":13027,"Ġoutbo":13028,"Ġoutboard":13029,"Ġoutput":13030,"ĠMiddlet":13031,"Ġshot":13032,"Ġshipment":13033,"Ġshield":13034,"Ġshorts":13035,"Ġshamp":13036,"Ġshopper":13037,"Ġshorter":13038,"Ġshuttle":13039,"Ġshaped":13040,"Ġrefinish":13041,"Ġrefineries":13042,"Ġsalesforce":13043,"Ġregeneration":13044,"Ġregenerative":13045,"crest":13046,"Ġspans":13047,"Ġspatial":13048,"Ġspread":13049,"Ġspirits":13050,"Ġspirit":13051,"Ġbiof":13052,"Ġunderwear":13053,"Ġundercar":13054,"Ġunderpinn":13055,"aird":13056,"Ġtrustee":13057,"Ġinstruct":13058,"Ġinsulated":13059,"Ġinsects":13060,"Ġinsulating":13061,"ĠThese":13062,"ĠThread":13063,"ĠThunder":13064,"ĠThousand":13065,"Ġanalyz":13066,"Ġroute":13067,"Ġrouting":13068,"Ġrouters":13069,"Ġrooftop":13070,"Ġlocate":13071,"Ġlocating":13072,"Ġlocator":13073,"Ġboat":13074,"Ġboots":13075,"Ġboilers":13076,"Ġdevastating":13077,"ohit":13078,"ldon":13079,"Ġcarpet":13080,"Ġcarries":13081,"Ġcarcasses":13082,"ĠResale":13083,"ĠResistors":13084,"ĠIndustry":13085,"Ġmethyl":13086,"ĠCana":13087,"ĠCanopy":13088,"ieb":13089,"iever":13090,"Ġappoint":13091,"Ġappeals":13092,"Ġapparatus":13093,"Ġappetizers":13094,"Ġappendage":13095,"rah":13096,"rael":13097,"raham":13098,"Ġscrew":13099,"Ġscoring":13100,"Ġscanners":13101,"Ġscope":13102,"Ġmultid":13103,"Ġmultifunction":13104,"Ġserved":13105,"Ġmainland":13106,"ĠMedina":13107,"tenberg":13108,"tenzio":13109,"ishment":13110,"ishers":13111,"Ġemb":13112,"Ġemission":13113,"Ġemitting":13114,"Ġemotional":13115,"Ġdrum":13116,"Ġdriven":13117,"Ġdriveline":13118,"olson":13119,"Ġworker":13120,"Ġworkload":13121,"Ġworksite":13122,"ĠConvert":13123,"ĠConcent":13124,"ĠConcentr":13125,"ĠConifer":13126,"ĠConferences":13127,"ĠConcerts":13128,"ĠConduit":13129,"iedmont":13130,"Ġbanked":13131,"Ġbankrupt":13132,"ĠMAX":13133,"ĠMACI":13134,"proved":13135,"Ġwaterproofing":13136,"ĠTranscatheter":13137,"Ġatmosp":13138,"Ġatrial":13139,"uggets":13140,"ĠAlice":13141,"ĠAlarm":13142,"ĠAlcohol":13143,"ĠAlumina":13144,"ĠAlpha":13145,"ĠAlva":13146,"ĠAlamed":13147,"missioning":13148,"Ġopto":13149,"Ġoption":13150,"Ġexporters":13151,"Ġexpenditures":13152,"Ġpurity":13153,"Ġpurify":13154,"Ġpurifications":13155,"ĠAdler":13156,"ĠAdelson":13157,"ĠAdjacent":13158,"ĠArch":13159,"ĠArab":13160,"ĠArmon":13161,"ĠAruba":13162,"epower":13163,"ograph":13164,"ĠComplement":13165,"Ġprofessions":13166,"intensive":13167,"ĠBankMobile":13168,"ĠDisk":13169,"ĠDisability":13170,"ĠDiscretionary":13171,"ĠDispensing":13172,"iously":13173,"Ġinstitution":13174,"ĠElectromechanical":13175,"Ġcentr":13176,"Ġflight":13177,"Ġparenteral":13178,"axter":13179,"Ġhybr":13180,"okee":13181,"okane":13182,"okai":13183,"ĠIndustrials":13184,"istra":13185,"Ġintent":13186,"Ġintro":13187,"Ġintensity":13188,"ĠWillard":13189,"Ġvalid":13190,"Ġvalues":13191,"dride":13192,"Ġendosc":13193,"Ġendodontic":13194,"Ġendpoints":13195,"ĠPAMC":13196,"ĠPACE":13197,"ĠPlain":13198,"ĠPlatt":13199,"ĠPlaces":13200,"ĠPlumbing":13201,"ĠPlayer":13202,"ĠPlasma":13203,"ĠPlanned":13204,"ĠPlatts":13205,"artner":13206,"artney":13207,"Ġcapitalize":13208,"Ġallied":13209,"enna":13210,"ĠCless":13211,"ĠClubs":13212,"Ġretro":13213,"Ġretinal":13214,"Ġretention":13215,"ĠBean":13216,"ĠBeck":13217,"ĠBeats":13218,"ĠExport":13219,"ĠExcel":13220,"ĠExchanges":13221,"ĠExteriors":13222,"ĠExtrusions":13223,"manufactured":13224,"Ġgeography":13225,"ocket":13226,"ĠScent":13227,"ĠScores":13228,"ĠScanner":13229,"ĠSciPl":13230,"egro":13231,"eglass":13232,"eguarding":13233,"Ġstrand":13234,"ĠAllison":13235,"ĠHomeAdvisor":13236,"ĠHomeGoods":13237,"Ġkill":13238,"Ġkios":13239,"Ġkitch":13240,"Ġkitting":13241,"Ġkeep":13242,"Ġkorlym":13243,"ĠSteers":13244,"inds":13245,"industr":13246,"index":13247,"ĠColin":13248,"ĠColmar":13249,"Ġvariants":13250,"Ġvarieties":13251,"Ġjun":13252,"Ġjust":13253,"Ġjob":13254,"Ġjustice":13255,"Ġjoists":13256,"Ġpublicly":13257,"ĠCarver":13258,"ĠCarlos":13259,"ĠCarriers":13260,"ĠCarbohydr":13261,"ĠCarthage":13262,"ĠCarlyle":13263,"Ġoriginate":13264,"Ġoriginators":13265,"hotron":13266,"neider":13267,"needle":13268,"insky":13269,"inspired":13270,"aws":13271,"awood":13272,"ĠZi":13273,"ĠZat":13274,"ĠZell":13275,"ĠZio":13276,"ĠZuk":13277,"ĠZhang":13278,"ĠPresto":13279,"ĠPractices":13280,"ĠHough":13281,"ĠHorowitz":13282,"riding":13283,"pshire":13284,"tersburg":13285,"Ġhelium":13286,"Ġhandpie":13287,"ĠWestford":13288,"ĠWestchester":13289,"ĠWestphal":13290,"ickness":13291,"Ġlogo":13292,"Ġlogging":13293,"ĠFrancescon":13294,"Ġedible":13295,"Ġconnections":13296,"ĠBrass":13297,"ĠBriggs":13298,"ĠBrunswick":13299,"ĠBristol":13300,"Ġpurchasers":13301,"Ġgeographically":13302,"rior":13303,"riad":13304,"ĠCONSOL":13305,"Ġneedle":13306,"ango":13307,"angler":13308,"ĠMayfield":13309,"Ġcondiments":13310,"Ġ1953":13311,"Ġentering":13312,"Ġenthus":13313,"ĠUtica":13314,"Ġsteering":13315,"Ġsteaks":13316,"Ġexplore":13317,"heric":13318,"Ġmeans":13319,"MET":13320,"ĠCarey":13321,"ĠCareer":13322,"ĠCarefree":13323,"ĠCareCredit":13324,"Ġlightning":13325,"ĠJuno":13326,"Ġclear":13327,"regs":13328,"regular":13329,"Ġcombiners":13330,"ĠNetworked":13331,"Ġhardwood":13332,"cyte":13333,"Ġinterested":13334,"Ġorganize":13335,"ylam":13336,"ĠBrock":13337,"ĠBrothers":13338,"Ġlabs":13339,"Ġlabels":13340,"ĠLifeS":13341,"ĠLifecycle":13342,"Ġitiner":13343,"ĠCapacitors":13344,"ĠJuneau":13345,"Ġcellulos":13346,"ĠAuthor":13347,"ĠPowerpay":13348,"Ġnotifications":13349,"Ġoutsource":13350,"ĠEquator":13351,"Ġ1922":13352,"ĠProcesses":13353,"ĠProcessor":13354,"ĠSpa":13355,"ĠSpark":13356,"ĠSpiral":13357,"ĠSpicer":13358,"ĠSponsorship":13359,"ĠSpokane":13360,"Ġoverriding":13361,"ĠCentennial":13362,"Ġgrilling":13363,"Ġgrains":13364,"ĠEdmond":13365,"ĠEdwin":13366,"ĠEntergy":13367,"Ġimproves":13368,"Ġimproving":13369,"Innov":13370,"Independent":13371,"lien":13372,"leta":13373,"letica":13374,"roplex":13375,"ropologie":13376,"ĠMcM":13377,"ĠMcDonald":13378,"ĠAustria":13379,"Ġ1942":13380,"ĠGeospatial":13381,"Ġinstalling":13382,"Ġinstallers":13383,"Ġbiopharma":13384,"derived":13385,"erna":13386,"Ġ1907":13387,"iere":13388,"Ġchew":13389,"Ġfiles":13390,"Ġfiling":13391,"ĠCran":13392,"ĠCrest":13393,"ĠCraft":13394,"ĠCrystal":13395,"ĠShay":13396,"ĠShield":13397,"ĠShah":13398,"ĠShave":13399,"ĠSherman":13400,"ĠShops":13401,"ĠShielding":13402,"ĠBrandon":13403,"ĠBranded":13404,"ĠBranding":13405,"ĠBrandXM":13406,"ĠAustralasia":13407,"tically":13408,"enger":13409,"Ġcrem":13410,"cripted":13411,"criptions":13412,"Ġ1936":13413,"anean":13414,"Ġsurviv":13415,"Ġsubm":13416,"Ġsubmarkets":13417,"Ġsubsurface":13418,"ĠAssemblies":13419,"ĠAdvance":13420,"ĠAdvice":13421,"dedicated":13422,"scopic":13423,"ĠAcid":13424,"ĠAcademic":13425,"ĠAcetate":13426,"ĠAcetyl":13427,"Ġtraveling":13428,"Ġcleanroom":13429,"ĠBooks":13430,"ĠBoots":13431,"ĠBoyd":13432,"ĠBoersma":13433,"embourg":13434,"utrients":13435,"ĠMinor":13436,"ĠMinnet":13437,"Ġoptimizes":13438,"ĠFlight":13439,"ĠFlash":13440,"ĠFlags":13441,"ĠOrtenzio":13442,"ACI":13443,"ACO":13444,"ACT":13445,"Ġups":13446,"Ġupon":13447,"Ġupfront":13448,"Ġupholster":13449,"ĠAtlantis":13450,"ĠWatertown":13451,"ĠThomasville":13452,"monia":13453,"Ġweight":13454,"Ġweighing":13455,"Ġ1910":13456,"Ġ1911":13457,"Ġ1913":13458,"Ġpartitions":13459,"ĠClothing":13460,"ĠClosures":13461,"ĠClosure":13462,"ĠClorox":13463,"Ġcomposition":13464,"Ġcompositions":13465,"ĠMonte":13466,"ĠMonoline":13467,"ĠMonarch":13468,"ĠMonaco":13469,"ĠMonaghan":13470,"Ġlanding":13471,"Ġlandfill":13472,"Ġlandfills":13473,"Ġcollects":13474,"Ġarranges":13475,"Ġtelehand":13476,"Ġtaxation":13477,"Ġpeening":13478,"operated":13479,"Ġpolymeric":13480,"Ġpolyols":13481,"Ġpolyvin":13482,"Ġpolyester":13483,"Ġpolyprop":13484,"Ġmeasur":13485,"ĠCalder":13486,"ĠCalcium":13487,"ĠCalabasas":13488,"Ġrailing":13489,"Ġrailheads":13490,"playing":13491,"ĠSecured":13492,"Ġquartz":13493,"ĠSchm":13494,"ĠSchu":13495,"ĠSchiff":13496,"ĠSchuster":13497,"ĠSchlumberger":13498,"ĠSchimmel":13499,"ĠSchottenstein":13500,"ĠAppraisal":13501,"ĠAppFolio":13502,"Ġassociates":13503,"Ġbrack":13504,"Ġbrings":13505,"Ġbrake":13506,"ĠSmoke":13507,"ĠSmelting":13508,"ĠAirstream":13509,"ĠAirborne":13510,"ĠAirframe":13511,"ĠAirplanes":13512,"ĠElm":13513,"ĠElmer":13514,"ĠElizabeth":13515,"Ġlocalized":13516,"aza":13517,"Ġinfant":13518,"Ġinflation":13519,"Ġthermo":13520,"Ġthermost":13521,"Ġgenome":13522,"Ġgenomics":13523,"Ġgenuine":13524,"Ġgenomic":13525,"ĠDenmark":13526,"Ġrespect":13527,"Ġmedicare":13528,"Ġ1894":13529,"Ġ1896":13530,"Ġalternators":13531,"Ġrecent":13532,"ĠLogic":13533,"ĠLogstash":13534,"Ġ1881":13535,"aided":13536,"Ġinnovations":13537,"ĠParking":13538,"ĠRound":13539,"ĠHarbors":13540,"Ġadditional":13541,"ĠAndroid":13542,"itching":13543,"olls":13544,"Ġmini":13545,"Ġminor":13546,"Ġmarrow":13547,"Ġdetention":13548,"ĠMetLife":13549,"ĠLeo":13550,"ĠLeeds":13551,"ĠLeerink":13552,"ĠLeawood":13553,"Ġdeliveries":13554,"Ġsound":13555,"Ġsoup":13556,"Ġsoaps":13557,"Ġenablement":13558,"ception":13559,"ĠPayne":13560,"Ġlifting":13561,"Ġlifetime":13562,"Ġlifestyles":13563,"ulfillment":13564,"Ġpacking":13565,"ĠOutcomes":13566,"ĠOutside":13567,"ĠOutdo":13568,"Ġshoe":13569,"Ġgrocers":13570,"asca":13571,"Ġmicroelectronics":13572,"Ġmicroactuators":13573,"Ġbackup":13574,"Ġbackhaul":13575,"Ġbackground":13576,"Ġbackpacks":13577,"Ġbackplane":13578,"ĠInterest":13579,"ĠInterventional":13580,"Ġguests":13581,"ĠUnregulated":13582,"ĠTherapy":13583,"Ġfranchisee":13584,"EMS":13585,"EMT":13586,"cuit":13587,"cuits":13588,"culos":13589,"Ġcoronary":13590,"ĠStrand":13591,"ĠStrip":13592,"ĠStrayer":13593,"ĠStrauss":13594,"ĠStryker":13595,"ĠInsulation":13596,"Ġrefrigerants":13597,"Ġefforts":13598,"Ġeffects":13599,"Ġsmartphone":13600,"Comm":13601,"Comms":13602,"Ġrelax":13603,"ĠEmil":13604,"ĠEmmet":13605,"ĠEmbass":13606,"ĠWald":13607,"ĠWalton":13608,"ĠWild":13609,"ĠWillow":13610,"Ġstreamlined":13611,"Ġclassic":13612,"ĠMedicines":13613,"Apple":13614,"Ġcomplexity":13615,"ĠDanbury":13616,"Ġpremises":13617,"effect":13618,"efficient":13619,"Ġhydroelectric":13620,"ĠBancorporation":13621,"Ġabroad":13622,"ĠAgtech":13623,"ĠAgilent":13624,"ĠDrinks":13625,"ĠDrivetrain":13626,"ĠDriveline":13627,"ĠHeini":13628,"Ġradius":13629,"ĠOils":13630,"ĠOilseeds":13631,"Ġstuds":13632,"Ġfloating":13633,"Ġmusculos":13634,"ĠSemi":13635,"ĠSemiconductors":13636,"Ġnutraceutical":13637,"ĠFoodTech":13638,"ĠDiodes":13639,"ĠOptions":13640,"ĠOptimal":13641,"ĠGray":13642,"ĠGranular":13643,"Ġcarbonated":13644,"Ġdifferences":13645,"weet":13646,"Ġ401":13647,"Ġyoung":13648,"Ġskills":13649,"Ġcutlery":13650,"ittance":13651,"Ġbuyout":13652,"Ġbuyouts":13653,"ĠInstallation":13654,"ĠPortugal":13655,"ĠPortnoy":13656,"Ġconducting":13657,"ĠLasers":13658,"Ġtransforms":13659,"Ġtransformations":13660,"ĠFranchised":13661,"COR":13662,"COV":13663,"ITT":13664,"ITY":13665,"Stand":13666,"Store":13667,"Stock":13668,"Storage":13669,"iques":13670,"oxolone":13671,"ĠXR":13672,"ĠXie":13673,"ĠXoom":13674,"Ġsimulators":13675,"Ġsimultaneous":13676,"Ġsync":13677,"Ġsynthes":13678,"Ġsyngas":13679,"Ġfabricating":13680,"itzer":13681,"ĠParty":13682,"ĠParaguay":13683,"ĠRockville":13684,"Ġhousekeeping":13685,"Ġcounty":13686,"Ġfreshly":13687,"Ener":13688,"Encore":13689,"loride":13690,"metal":13691,"tinent":13692,"olism":13693,"agram":13694,"Ġvolumes":13695,"Ġdisorder":13696,"ĠAngelo":13697,"Ġcompressor":13698,"Ġcompressed":13699,"Ġcompressors":13700,"ĠEdwards":13701,"ĠCloudflare":13702,"NAA":13703,"liner":13704,"linary":13705,"innon":13706,"inners":13707,"Ġcapped":13708,"Ġcurriculum":13709,"Ġthemed":13710,"Ġblank":13711,"Ġblending":13712,"Ġblacks":13713,"Ġblades":13714,"ĠPeterson":13715,"ĠPeterbil":13716,"Alb":13717,"Align":13718,"carrying":13719,"Ġpotent":13720,"Ġpotassium":13721,"electromechanical":13722,"ĠPeripher":13723,"ĠDeli":13724,"ĠDelek":13725,"ĠWells":13726,"ĠWellbore":13727,"Ġclosure":13728,"Ġclosely":13729,"Ġefficiencies":13730,"Trip":13731,"Track":13732,"Triever":13733,"consolidated":13734,"iction":13735,"arante":13736,"Ġmassive":13737,"Ġdownhole":13738,"Ġcompletions":13739,"ĠMartech":13740,"Ġdecisioning":13741,"ĠHybrid":13742,"ĠHawkins":13743,"Ġsuppress":13744,"Ġdisposition":13745,"Ġunderwritten":13746,"Ġunderwrites":13747,"conditioning":13748,"Ġ52":13749,"Ġsalad":13750,"Ġsalty":13751,"Ġpriced":13752,"ĠIllness":13753,"ĠBuildings":13754,"ĠLeases":13755,"ĠVirtual":13756,"ĠContent":13757,"ĠStephens":13758,"Arch":13759,"Arrow":13760,"Array":13761,"Ġstake":13762,"askar":13763,"askUs":13764,"Ġmembrane":13765,"ĠCruz":13766,"ĠAmir":13767,"ĠAmbulatory":13768,"ĠAmmonia":13769,"ĠPreparation":13770,"ĠPrepared":13771,"ĠRedman":13772,"ĠRedevelopment":13773,"ĠJefferson":13774,"Ġextreme":13775,"ĠDevOps":13776,"Ġscreen":13777,"ĠContractor":13778,"ĠContracted":13779,"ĠGreenberg":13780,"IDEX":13781,"TEL":13782,"Ġswap":13783,"Ġintrusion":13784,"Ġoccas":13785,"Ġmixers":13786,"ĠSprings":13787,"ĠLabel":13788,"ĠValves":13789,"ĠValuation":13790,"Ġleaders":13791,"Ġ1869":13792,"Ġ1871":13793,"Ġ1876":13794,"Ġ1878":13795,"Ġfeedback":13796,"ĠBlackRock":13797,"Ġperformed":13798,"ĠTreace":13799,"ĠTrevor":13800,"ĠITT":13801,"ĠImages":13802,"ĠImpact":13803,"ĠImmunology":13804,"Ġaffairs":13805,"Ġaffinity":13806,"Ġaffiliated":13807,"ĠSimple":13808,"ĠMilk":13809,"ĠMilpitas":13810,"ĠMacau":13811,"ĠBloom":13812,"ĠBloch":13813,"ĠBlood":13814,"ĠRoss":13815,"ĠRobins":13816,"Ġdemands":13817,"ĠForged":13818,"ĠForensic":13819,"ĠForwarding":13820,"ĠDouble":13821,"Ġlube":13822,"ĠOnes":13823,"ĠOnshore":13824,"ĠOncology":13825,"ĠWeis":13826,"ĠWeiss":13827,"ĠWebster":13828,"ĠWeetab":13829,"uffles":13830,"ĠUSB":13831,"ĠUSAC":13832,"presso":13833,"Ġlearners":13834,"Ġaggregated":13835,"Ġhomeowner":13836,"Ġenhancement":13837,"Ġenhancements":13838,"Ġcollaborations":13839,"AdColony":13840,"ISPR":13841,"Ġirregular":13842,"Ġtea":13843,"Ġteam":13844,"Ġobtain":13845,"Ġissuer":13846,"Ġreceive":13847,"Ġreceives":13848,"Ġreceivers":13849,"ĠGlaceau":13850,"ĠLaunch":13851,"ĠLaCro":13852,"ĠLaclede":13853,"Ġtrackers":13854,"Ġsupercomp":13855,"Ġsupervis":13856,"Ġshareholders":13857,"Ġinspect":13858,"anooga":13859,"Ġtextiles":13860,"ĠTemporary":13861,"ĠTemple":13862,"Ġmillennial":13863,"ĠIsrael":13864,"Ġsecondarily":13865,"Ġpropylene":13866,"ĠSwiss":13867,"ĠSwanson":13868,"ĠModels":13869,"ĠModular":13870,"ĠAppliances":13871,"ĠPalantir":13872,"ĠNeed":13873,"ĠNeil":13874,"ĠNeeleman":13875,"ĠLocals":13876,"Ġanyone":13877,"Ġcontinents":13878,"Ġ1850":13879,"Ġ1859":13880,"Ġmethane":13881,"Ġlubrication":13882,"Ġlubricating":13883,"LEX":13884,"Ġtanker":13885,"Ġtankers":13886,"Ġincreasing":13887,"ĠMillichap":13888,"ĠACH":13889,"ĠACV":13890,"ĠAPJ":13891,"ĠNutrient":13892,"ĠNutritional":13893,"ĠFoundry":13894,"ĠFlowers":13895,"ĠFlowback":13896,"ĠGoldman":13897,"Ġtransported":13898,"Ġcooked":13899,"Ġcookware":13900,"ĠCountry":13901,"Ġfacilitating":13902,"Ġuniversity":13903,"connects":13904,"ĠMcCartney":13905,"ĠAdvisor":13906,"Ġguarantee":13907,"FSC":13908,"FSS":13909,"cosa":13910,"nester":13911,"erranean":13912,"Ġsilica":13913,"ĠTimberland":13914,"ĠTimberTech":13915,"Ġpromotes":13916,"Ġpromoting":13917,"Ġbalanced":13918,"Ġbalancing":13919,"Ġballoon":13920,"ĠCheck":13921,"ĠCheesecake":13922,"ĠCorey":13923,"ĠCorrugated":13924,"ĠCorrespondent":13925,"ĠCenterPoint":13926,"ĠMalcol":13927,"ĠMobileye":13928,"ĠMicroinverter":13929,"Ġgeared":13930,"Ġgearing":13931,"Ġepit":13932,"Ġepileps":13933,"ĠWhats":13934,"Ġdispense":13935,"Ġtransmitting":13936,"ĠSegments":13937,"Ġboxboard":13938,"compass":13939,"companied":13940,"Ġinjection":13941,"Ġinjured":13942,"Ġbutter":13943,"Ġdrywall":13944,"ĠCarolinas":13945,
[...]
